rey
ite
▁ce
uaca
▁Clictoria
▁reunión
ueño
▁mena
nathan
mazu
▁Fagaceae
psular
enteani
zuelas
▁sil
ueda
il
acer
chán
mundo
▁primero
▁varita
▁chance
buta
ñani
▁Lamberto
▁presente
▁Inga
▁desper
▁Cab
mador
▁Stramon
▁palomo
ecodo
lde
traste
▁Corneliu
▁ap
alen
▁hojalatero
amírez
ila
▁rela
▁híbrido
▁cífica
▁Siderox
▁funda
china
cige
gniartia
lut
mita
ginaceae
▁esclava
riya
▁Fidencio
▁aguinaldo
siflo
▁Tar
sas
ti
▁mini
eliu
1?".
▁Ahuaca
▁Clemente
te
▁obra
▁accidente
▁lí
▁Eduwige
▁Santu
▁prop
▁cual
psula
empresa
).
▁Severiano
Ah
arathesis
pha
▁,,,
muer
no
▁saraj
▁mueb
stilo
▁gue
▁tren
▁brobablemente
▁clau
▁dinero
▁spondias
43,
llota
atricio
▁pepo
egua
▁guerra
oco
▁machiti
yunta
▁imper
▁gra
▁flecha
minoseae
▁rampa
▁Escuela
▁ya
▁basurero
lillo
coana
▁mbas
mifo
sket
▁sintru
itu
▁toda
ylos
▁rápido
fono
▁lue
uitu
3=2".
▁Libra
▁local
▁ceder
darte
testación
▁siuda
ófi
▁Mirador
▁dedicar
▁Cesalpinia
▁mene
▁matanza
cus
ísica
▁primer
bla
▁Trichospermum
▁Bejuco
idrio
▁rato
linchi
daria
▁informa
▁acor
ctivi
▁dotor
elfino
▁aseg
▁guachuña
iclip
▁Epidendrum
▁Lyth
▁Cype
▁exp
▁Jalubi
▁becerru
▁prepa
caciu
▁kwo
plete
▁Castillu
▁hí
▁estudio
dr
yu
▁coordina
rino
▁mochila
▁Niu
▁Yolosóchi
▁Capi
ensor
ceptar
▁yoo
▁cocinera
▁Can
▁tipo
otre
▁boda
▁tre
▁programa
cahuate
▁mezclilla
▁San
olipo
▁cargar
puela
▁navaja
endra
▁sueru
▁seteciento
▁aco
1(3)=
▁abrecerro
▁abundante
palos
▁Aída
▁bi
ermín
▁maracuya
▁tono
íaz
ciar
▁familiar
▁Margarito
▁Anastacio
uitziltepec
ento
▁líder
▁gringo
um
▁regidora
▁ingeniera
▁Mino
culina
▁residente
▁Capulín
32".
mani
lular
Buenos
rabiolium
▁acuerdo
tihua
▁tacu
▁mucho
▁abril
▁veinte
▁contaminación
▁Si
▁Lupe
Amigu
▁Chingo
emás
mero
mi
▁foto
pecia
lis
Bi
▁Azul
▁permisoti
▁helecho
drinu
trario
24?,
▁carnil
▁Sóti
▁Ceci
sano
▁canción
moya
▁ñu
teria
rchidaceae
Ji
óf
▁Mauro
▁Cama
▁Erig
▁cred
▁ajuste
▁Kus
▁redondo
barb
perar
rito
▁El
▁kara
rámi
▁comión
▁compañ
ptis
▁cru
raja
▁pondó
▁ve
▁octu
mpli
ales
cancía
4?
▁colegio
▁Corrión
▁inma
▁interru
▁hombre
▁Colecta
▁ña
▁Cuacha
▁Acaceae
▁Fe
▁pu
▁mbola
isano
▁gar
ega
edag
▁archivo
poc
▁edu
bulla
▁tubo
▁antes
cí
▁noveciento
▁Lascu
▁sellu
ería
uista
icliptera
▁semillas
▁Copala
▁invernadero
vand
▁copa
▁Cap
▁Adrián
risco
uier
▁cáp
lu
▁máscara
14?
▁bra
▁vita
jinsi
Xu
▁Senu
soli
liti
▁Caraju
▁viol
▁mule
itoria
var
piun
▁Cel
▁Car
▁jue
cuerdo
▁interna
▁Edi
▁verga
▁ora
lilla
▁Conejo
▁posada
Ma
▁Alfonso
bertad
calutla
▁pálido
daceae
▁tratas
xin
ache
outeria
rte
▁Astro
▁Lau
arota
▁largo
ndra
▁Cuscu
▁pecio
ostar
▁cabezuelas
▁Confi
▁pa
orcasita
lso
por
recho
▁Tecoanapa
▁avi
uerre
▁ciento
ngo
▁controlar
▁dibu
▁Cocoloba
▁cuadrill
▁Mele
lobab
▁Chelu
▁investi
▁Navarrete
onoma
▁cent
▁Crissanta
▁rojizo
▁tresciento
▁guachu
gniun
(4)=2",
derox
fía
sco
eme
metro
litu
▁física
carna
zoz
1."
marro
▁ne
▁Emiliano
▁Laura
▁cpn
▁Acan
ey
▁he
ante
▁Solox
▁zapatu
ían
lin
▁costumbre
▁Cuachalalate
psi
▁falda
▁Mika
dra
corrección
vino
▁orig
▁característica
▁Faus
pa
iecis
▁fal
maria
tóma
▁carretera
rina
▁voto
lón
sul
entes
▁lim
▁bignon
chin
▁capar
▁Siete
▁Mor
xa
am
▁conso
Suerte
▁env
▁trece
▁concursar
▁madurar
pí
tana
▁Cos
dazo
▁Mario
▁familiares
▁burbuja
niero
inio
▁senna
eh
hibi
bi
misa
▁Tanciu
trar
▁colectar
▁Comit
álido
▁Coapinola
che
in
▁Eva
▁Castilla
▁misa
ena
▁tallos
oroteo
▁mala
▁pla
jemp
▁consul
andia
▁mayu
emetria
yph
▁teo
▁jaula
(4)=2?
▁kinder
Manu
▁leyes
32?
dilla
riormente
ós
atri
ípti
4=2=
▁boteyon
Mamá
ciolos
des
ua
▁pícaro
▁Beta
13=2.
Tomá
▁Ap
▁Juan
▁oiga
▁abasto
▁Jum
▁Melesio
▁yunta
▁Ses
ini
▁Kia
bellón
Ba
sal
▁vierni
rco
▁pare
cio
▁cuatrocientos
▁Metia
▁dos
▁pulmón
ló
ron
ro
dium
▁posibilidad
▁yeso
peronia
buia
uarea
▁radio
vicio
▁lígulas
▁swa
▁descanso
iki
▁diferenciar
lados
▁Bernar
▁rosadas
eous
▁látigo
sparente
▁Mesina
▁negar
papicu
▁nterru
▁órale
lazar
rgin
?
▁Salicaceae
▁s
rensa
cación
ueve
▁noviembre
▁blan
órale
inz
lvavi
▁noche
tral
ep
▁lujo
▁socio
yó
▁Anton
▁Chiu
▁cierre
▁de
▁columna
▁trenes
▁ent
▁Tilio
▁Mouriri
trali
lantaginaceae
▁ven
▁Morin
▁trono
▁operación
andra
▁solera
▁normal
▁sí
ejun
uia
▁ellos
iri
xtlahuaca
▁pará
afai
▁Buena
▁fo
▁confi
vale
▁Camalotillu
cohol
▁Cochoapa
llejón
In
yeron
▁polí
▁Jica
visión
sadilla
pádice
▁morale
dura
▁Todoro
▁Mala
4..
▁Cándi
stín
▁amá
▁prohibir
mpi
▁planned
▁conocimiento
torra
▁Cre
▁armar
▁no
inal
eman
ch
stón
▁dijeron
garru
rigue
▁rea
▁Morali
cepción
rcole
rmar
▁coyote
datario
oni
Bu
▁soldador
▁septi
▁seis
▁Tetrapter
2?,
▁enfermería
▁CBE
es
▁por
▁bale
▁Crec
yera
iano
ersi
lusti
ísti
▁práctica
lla
▁bugambilia
nacle
▁bignoneaceae
▁gua
▁bebida
▁Mauri
▁techar
▁Merremia
<s>
nacea
4=2?",
ósdo
▁respuesta
▁experto
bería
enz
▁Macedonio
4=?,
senta
▁moro
▁acomodándose
▁chivo
cinaceae
▁femeninas
▁mane
uvar
▁Lucariu
bri
tiz
cina
▁sereno
▁Chimino
▁pitecoctegniun
▁Liro
▁esc
folia
car
▁almac
▁bendición
lini
pín
omo
lores
▁Constanciu
edor
▁conta
tino
edorea
▁Fabacea
▁muebles
▁Martín
▁compadre
▁Enero
en
rastu
amb
4-
lor
▁Cor
▁policía
egru
41?",
▁Liona
▁anaranjado
▁signi
▁liana
▁Santia
▁vuelta
inda
rutes
▁codo
▁rojas
▁banco
▁concur
clava
era
▁Arroyo
▁Josefa
re
▁Tecla
geni
gocio
▁buelta
▁Malpighiacea
▁su
▁pedida
osa
mayó
ísi
▁Macha
▁hijos
▁apuesta
xylon
▁roji
▁,,,,
erm
▁Moricata
▁sean
1,
emp
▁amaril
mbada
▁Castilo
▁dulcen
▁ave
▁Ay
▁receso
íjo
▁hacen
▁Bautista
eder
▁informar
▁hongo
ciali
terí
▁compra
▁Annonaceae
gente
▁aromática
gadas
▁Entrevistado
to
bergue
(3).
▁Annona
zada
TA
uercus
▁spontaneous
▁Mmm
▁Suá
▁Yeguada
▁luna
▁dirigir
▁espádice
▁arboris
Ndi
▁Calyptranthes
ernar
▁Luisa
▁Mateo
cadisco
sí
seae
cumb
▁fa
fino
▁Alejandrinu
1,"
▁botones
servar
▁Loran
▁Señal
▁vie
▁in
▁Silleta
▁medu
▁piñata
-
▁renta
▁centavo
▁Juancito
▁Kwe
corre
fa
cordia
▁chin
▁listoni
oma
▁ramo
''4
▁lech
▁naylon
gitu
▁tub
(3)=2?",
▁nombrar
pulco
▁visi
▁ndu
▁glóbulos
coanapa
▁centimetro
▁Silvestre
ndar
▁Cha
▁tiene
▁temporada
▁dotación
▁pedi
▁Mana
▁Bombacaceae
▁luchar
▁Cascabella
er
▁penchi
Tun
▁viejito
dándo
▁din
▁Lezama
pero
▁tatarabuelo
▁lapi
tillu
▁batallón
),
▁Eusta
▁nombre
onand
▁sti
▁depo
▁y
▁ejemplar
▁sale
mante
▁gusto
▁Coriu
▁Te
▁dij
erro
guel
▁paz
edoro
retaría
▁rosas
emó
▁xe
paris
▁palabra
rodu
1",
▁And
▁Iguapa
▁Xanthosoma
enceslau
▁oración
ancía
▁aserrados
▁estoma
wa
ascaciu
▁provocar
itex
rocio
▁sacramento
▁primo
ina
orífico
pacio
bana
▁esos
vivi
▁rebozo
▁naylo
▁habla
▁Melchor
▁luis
lombia
gunta
▁Jeliu
▁caedizas
sari
▁Sapindaceae
▁blancacogua
▁diescisiete
lerato
▁r
vechar
cción
▁gota
▁sauco
▁interrupción
▁Bardomiano
▁car
pífi
uevo
rgani
ando
icente
▁Beni
lamo
▁jin
ph
43".
mpo
▁paya
▁apó
inu
▁anno
jilla
utita
▁milagru
▁marco
▁estudiante
ete
▁cd
▁Maximiliano
maica
▁Serra
▁ciru
vinanza
▁pestónero
ueña
aniel
utista
▁Liasar
viado
▁capón
ascu
oncianu
▁guadalupe
▁devuelvelavida
▁Silveriu
▁crey
▁docientos
▁cosechar
▁CB
ito
▁Stem
▁ápice
▁cantina
▁cadena
uniu
rdomo
▁Sebastián
▁Albertu
pini
▁invitar
lpo
tario
▁Laxanu
lao
rilla
tille
2",
dón
hytolacca
eliotropium
cía
▁hora
anchito
bila
▁Leoni
▁mom
▁zóca
▁biblioteca
▁preseantar
inó
lítico
▁Mir
ania
▁pra
abino
▁Bautita
lama
▁glandulosa
▁ínima
basti
▁Caca
uit
orada
ciale
ricoi
inar
13=2,
▁tendida
zcla
alustris
cata
▁imperfecto
▁Tecuiciapa
▁nueve
▁encu
▁sabi
bel
eodoro
z
rasco
lume
ides
iza
▁ruido
ómulo
▁manu
elfina
▁glan
▁Teófilo
ono
▁pachón
▁Swetenia
grama
▁Exis
ñera
tecocte
▁Lan
▁bandera
▁perf
egino
▁inter
ui
pel
▁frig
Fla
▁lun
▁ternida
▁Nacido
nio
ye
▁luni
(3.
xiflo
uina
▁firma
vida
▁audi
ológico
▁Stevia
▁cutera
strera
▁grabado
tir
▁Maxim
▁gau
gela
hitl
ictor
▁usar
cen
iga
▁amigu
guir
guaj
ime
▁ambi
elici
tría
lid
▁estambre
lenda
rchy
mpecadena
alma
peri
venta
▁suel
▁becer
gera
▁inge
▁Muño
naval
mato
▁polucia
▁res
untu
pit
enenu
▁Yolosóchil
▁pantano
▁Ed
erde
naza
▁Big
rt
▁Mou
▁marcha
▁bolsa
osanto
▁lluvia
▁Salvador
▁Luci
geta
ctias
▁sargentu
▁toma
gica
▁Nile
▁Culeata
scan
▁Ny
C
viv
▁bellota
tanu
▁preba
▁arbores
kum
verría
▁reclamar
▁dolore
▁Canuto
▁centímetro
didor
than
pani
fectar
▁Chapingo
▁minansa
ctan
linas
cinue
▁Castru
dro
▁bril
▁linderu
▁linguística
▁annona
▁Benitu
▁Copiu
▁Eduardo
▁fotografía
▁pope
▁spo
arca
ebi
▁tratar
áximo
▁civil
rig
▁ini
▁Misei
laye
bañil
Ya
▁sillón
▁agronomía
▁Mbro
▁Xa
▁Luna
gnoniaceae
▁hijoe
bác
irinu
▁planta
▁ta
fredo
▁Severo
rrido
bañ
▁patriarca
▁adorno
▁yu
▁Tou
sor
na
eg
lucia
recie
▁ater
▁Bruno
▁futuro
inus
▁Cá
▁Lalu
▁tabi
▁dom
icar
lamate
alust
lusa
xic
prove
scara
4?"
los
▁aju
▁entor
látan
▁banca
ontinu
ludis
▁gu
lioni
▁Cigarru
negocio
tori
▁veinticuatro
▁da
▁noticia
bián
uadaluoe
41?".
▁mendra
erar
▁campanero
(3)=2."
ejo
uiero
uincena
▁silencio
hytolaccaceae
canzar
unilla
cin
1..,
lem
▁Nycta
▁E
▁edad
▁Taberna
▁Andira
▁sanmar
crito
ronom
▁Tengog
▁Miconia
▁peciolo
aspar
▁figu
irgen
lasco
Se
▁uva
▁cáma
scas
▁Encarnación
anilla
▁longitud
parrosa
▁Litraceae
gia
fecta
▁firmar
▁prue
ten
▁plaga
lfo
▁ndiu
gino
Ti
(3)=2?
ronio
▁Sierra
▁comandante
▁soltero
▁calabaza
▁sien
▁Tob
lonia
jor
▁Flores
▁raíces
▁Añorve
▁hoja
liz
▁dieci
mericana
▁exacto
Nde
dar
▁lin
eda
▁orilla
▁bom
co
▁hoy
pota
ormar
pera
char
▁lástima
Martín
▁aha
▁Mm
rdín
tlán
(4)=2?".
áre
▁kar
▁acacia
erril
▁tonto
▁mali
▁Solanun
▁apoyar
▁Cali
tísi
▁cosecha
dá
▁traje
daupe
mo
▁guerril
canthus
ñori
▁rosa
▁Anacle
cerca
llito
mbrar
▁san
upar
▁Silv
▁Teyo
▁Feli
▁parásito
▁esca
▁seguro
mbre
so
▁Saria
zoli
▁educación
▁llavi
▁caracter
rymaria
erdu
metepec
diana
3(
▁Salina
rera
▁,,
ciopela
▁c
cla
ñora
▁Ciruelo
tiene
liente
143.
▁bachil
un
▁Trich
licenciado
▁nterrupción
▁Coco
sidad
▁Sonido
▁Toña
▁esti
óforo
▁tesorero
▁inflores
uiv
phylo
▁arbu
mis
4.
tigo
▁doli
▁burru
tias
roco
▁directora
lotillu
▁bautizo
▁Trichilia
▁Nuevo
choapa
rradu
▁sete
lo
orado
▁anzuelo
pli
▁cambio
▁picu
▁ali
24=
▁ac
▁Comandante
zama
▁Chora
bo
culosis
ctavo
▁Chama
▁Señor
▁Maurilio
rigor
▁durazno
▁pastel
wen
parru
cera
▁Ah
▁Kaila
▁cabeza
▁coliti
▁coro
ry
pilia
breru
enbre
▁Bouvardia
▁Lacistema
ldío
▁presionar
▁Semana
nav
ylon
▁blusa
acar
▁Na
▁clavo
itlala
▁violeta
▁juicio
▁Colombia
▁Coluna
▁lingu
▁pubescencia
elta
bino
acerro
▁cuaderno
▁teniente
▁Andi
dores
encio
▁contacto
▁grue
▁invita
▁presenta
sís
odríguez
▁compromisados
▁Tovar
sla
▁blancos
▁cuartillu
▁let
emigio
▁jun
▁cohete
bata
cionario
▁veintiuno
▁femenina
enna
▁arroyo
▁fotografia
▁manzana
comisario
ita
▁Aleg
ciano
rillo
▁crucigerun
olipodiaceae
▁disco
▁Bisca
▁estado
▁anuncio
▁manguito
▁esmeril
▁crema
enciu
▁foco
bular
nia
▁Ambrocio
▁cien
▁abuelita
ardia
arcu
gunas
eta
▁curva
▁ceja
▁doctor
hombre
▁teni
▁perico
inan
lgar
▁tanke
dea
▁Caye
ed
▁audio
▁chapeada
▁La
▁apta
▁Fede
▁especial
▁ji
▁llama
▁arró
aceae
▁fais
jandr
▁mancha
nieru
Yo
losa
▁amenazar
▁asunto
▁Acanthaceae
▁Chalán
▁cán
▁soporte
▁Ayuntamiento
▁potente
▁drenaje
S
pocra
Maximinu
▁ramu
▁lugar
▁mo
olio
▁Nene
▁hectárea
reina
sulta
aub
tros
▁ur
▁purísima
▁cuarto
gueña
gaceae
Tu
▁beso
avi
ldeci
▁Jaime
▁Myrtaceae
▁compro
▁Tonaltepec
▁Anacleto
▁cotorra
▁Encarnacion
▁lecho
chen
ala
eve
esmo
▁Cappa
▁conseguir
rrun
saje
▁Mela
ctá
▁Jesucristo
(3)=2"
▁entorno
▁che
ciete
▁adiv
tit
▁seda
</s>
▁Tillandsia
▁Tabebuia
▁donJuan
vila
▁copular
▁febreru
▁tillandsia
biaceae
▁ánima
mb
lchón
▁Kili
▁Ito
▁Isid
finu
▁amarillenta
árez
▁Constantino
dusa
▁moradas
▁dul
▁comida
▁bu
▁muerto
▁novillu
▁Bonete
▁concha
▁muru
m
▁Meno
▁clavelo
▁cigarru
papá
stamo
▁Santalaceae
taneo
▁lluvias
ue
▁Teodoro
▁Eleazar
cta
▁Tanchu
kwue
▁fragua
melina
ocho
▁Sanche
▁caja
iese
rro
cobo
▁secretariu
▁To
lpin
▁cho
bante
▁Cástila
rtu
▁jamaica
▁pastilla
▁hab
kw
▁Figueroa
alent
ruela
rada
ida
▁cuscutaceae
▁vez
zán
▁Explicación
▁boca
2?",
▁ciu
▁pozoli
uente
sea
▁verdura
tex
▁licó
undi
▁Tamarindo
meri
▁Epi
zno
▁Martina
ápido
ente
uer
▁Cucu
3"
▁real
(3)=(2)=
▁fruta
aporu
ásti
patu
▁chaleco
gastu
▁escandente
ciales
▁nwa
uiller
▁me
▁restaurante
▁convencer
▁enclítico
3(2)=
raje
ranth
iril
▁malinchi
▁cruda
la
▁Chry
▁marca
enteño
jito
yphisa
▁periodo
▁Llano
▁ra
zue
mioneta
▁jacar
▁parasitando
an
rtil
uesta
▁Miyel
▁Filomeno
▁F
mania
▁nove
vari
3?".
▁sus
▁cin
uem
▁cactaceae
▁nido
▁resolución
▁padrino
▁apellido
rg
▁checar
xilon
lio
▁marisco
día
▁chicli
▁Capulco
▁torito
▁xa
laxca
dío
▁Máxi
▁coco
jar
poyo
Cor
▁Natu
▁muñeca
▁Mbo
▁novios
▁Macahuite
▁Mundo
óchitl
firma
ciente
▁Aguaca
rium
cinera
▁1.
áncer
ribio
irg
▁otras
mpetero
▁espe
les
fante
▁lavadero
▁rosado
bra
ica
▁diesel
ander
▁Bonita
▁tá
▁arrendatario
▁brasi
lland
gnacio
▁segurito
▁Araceae
▁valor
▁Mes
lín
ord
tómago
▁abue
ueva
riu
▁Asteraceae
xpli
unión
entavo
▁mañe
▁Nacle
▁pedidor
edagógica
▁estómago
▁Cucurbi
ilber
óchi
yán
▁Xio
▁internado
▁Soleda
▁buenas
Kwe
dobo
▁ruidoso
a
▁uta
▁cuando
▁Letra
▁prom
▁campesinu
atros
riarca
▁tienda
▁sapi
lones
bles
4=2?,"
▁si
▁comunis
2".
▁uste
▁po
gado
▁mi
▁Cumi
▁Est
onci
rculos
uño
bre
▁muchacho
▁Cara
ley
rbusto
▁chiu
▁Miguelito
riodo
ticia
▁sombra
▁expe
inci
▁pat
▁Iliatenco
▁posta
▁alto
hual
▁plomu
▁Alí
▁rompecadena
▁fotografiado
solu
▁frasco
▁tiña
nimo
▁Cacearia
▁Concepción
▁Ndu
▁loco
giona
nel
▁órgano
drito
eriu
▁Nicu
rchydaceae
▁maestru
▁noviakan
mph
▁palanca
▁Milia
lague
▁científico
etros
berna
cluso
ordina
▁línea
natural
lenta
▁Xangí
▁brasier
▁ti
(4)=2.
▁uelo
▁celular
ham
▁oxi
gambilia
4=
unales
▁Serj
ró
▁arriesgar
▁dibujo
▁Nicolasa
▁Sil
japa
vidad
dil
▁hierba
▁mueble
▁campesino
▁Con
vían
▁Tabernamontana
24=2.
▁uniforme
itla
▁Nacletu
Mm
▁vegetativas
▁espada
▁ni
▁pr
▁trabajo
til
nava
ámara
14.
▁camisa
rilio
at
▁cada
▁corona
▁llamaMartín
ís
▁preparada
stre
tarina
▁compet
▁película
▁cavocado
nil
24,
▁Ciri
andad
▁cuchillu
▁Nechito
▁malagueña
▁aviso
▁suplente
xali
▁citar
▁mamey
liana
▁Florentino
▁mar
▁frescas
pti
caducifolio
▁Nejapa
bastián
▁tuna
▁pregunta
hora
dendrum
eintinueve
▁rojiza
rilo
▁colore
▁tina
▁entrevistado
▁Arnu
▁corneta
cotlán
▁convivi
▁ma
staña
▁compa
pia
▁ropero
▁pasaje
lay
▁or
uvula
lax
ihualpo
rb
(2)=24
uio
▁peyido
▁Asís
ute
▁portón
bozo
osper
3'
tia
tallón
derar
vinan
llu
32=
▁burla
▁cer
▁metru
dira
▁generación
▁sentimental
ndia
▁Jovita
▁uachu
chev
noth
▁Esther
mosa
tlah
42".
▁munici
▁Las
apata
je
▁Entre
▁tule
▁tal
▁Encarnacón
▁Capu
c
▁chu
▁Sim
▁plástico
▁calmante
sitam
▁guar
llo
▁def
▁cemento
▁Abra
dalu
▁Li
▁velación
ísco
ablu
▁Leguminoseae
cli
ciu
▁caba
▁gasto
▁ku
▁panda
▁caridad
▁al
▁sabes
ía
▁Cesa
bili
▁fe
▁Municipio
▁2
▁velador
ore
▁Loranthaceae
▁Tres
macea
ifor
▁durable
Lo
dós
▁hasta
sóchi
▁silbido
▁soplete
▁Mar
amigu
▁Cupania
▁terminal
4".
lorio
▁menenu
▁aca
4=2",
▁bertu
▁días
mbón
ertru
rans
▁orrilla
▁Malito
▁arb
▁yoyo
▁puede
fu
marin
olsa
▁seño
▁señorita
▁pila
▁el
ceae
▁elefante
bro
▁Minancia
▁rentar
rabatu
▁Alf
tener
▁Maríatísima
▁Combretun
▁pastoría
ciste
▁cabaña
14",
▁Tepango
▁fue
undo
▁Santiago
▁raíz
dian
antes
▁Fa
tz
ñasco
apor
triar
rin
sunto
▁antena
▁carru
▁trombón
▁cuadrado
sia
▁hu
ia
osoma
▁Nicetu
▁Crispín
▁chapar
bomba
▁yobante
▁resul
▁cabe
▁Jovi
▁vivían
paña
▁zacatón
▁Tlaxca
▁nd
▁organi
▁falsificar
▁uera
▁herre
▁hierve
▁eeh
xalidaceae
garci
▁nada
▁Celsa
▁ciruelo
clón
▁jo
▁viejo
3=
meril
h
▁chaparrera
busto
ngela
uini
mey
xio
▁Escrufula
▁Spondias
bernam
ali
▁triste
uti
▁oye
▁crusiferun
▁lag
▁Seguro
tipus
▁leñ
▁Chore
lleja
▁fra
atriarca
▁Ne
▁Maximinu
oncho
▁divorciar
▁viga
▁autori
▁Faustu
▁Xang
yo
▁olor
recto
▁donde
▁crece
ppia
▁Cianu
▁Sótira
Ay
▁twi
lpigh
▁Anto
mbra
,,
▁Sán
ille
▁novia
▁Consta
▁consultar
'1
▁muy
velo
tevia
áte
calera
matopeya
▁mexicano
▁Ju
▁hacienda
▁viaj
▁módulo
eble
▁seg
▁ab
cono
ertrudis
perfe
lionide
lech
rias
▁política
uitzil
▁o
▁Antonia
beta
▁canela
▁postrada
▁medusae
▁Martínez
▁forma
▁veintinueve
tla
▁vir
▁bar
▁Tabe
ijo
▁apostar
Tiem
cila
▁Estela
erbá
▁gr
▁ciudad
▁Suer
▁flor
zuelo
▁camote
▁Ana
▁hon
▁tusor
▁cuñada
liar
burlar
▁pre
▁ndwe
▁vierne
onocer
cípu
N
▁Salto
▁lic
blem
▁serpiente
Ni
▁Seko
tígera
▁mue
ust
chón
▁Coñu
▁piritu
▁cargo
▁traj
▁Mace
▁muestra
▁doña
scua
▁Tebe
▁Celestino
▁yuno
▁investigadores
ypha
2,,
▁cal
▁tira
▁huerta
▁trav
▁Myrsine
sita
▁minuto
▁Muy
emana
edra
41,
go
▁cuminu
philla
jando
▁Side
▁Lo
rendatario
▁invitada
▁Bora
deu
uiniento
▁n
cu
zuma
▁moño
misados
▁korrido
ficio
▁jama
uran
▁capitán
ouvar
▁Barra
roubaceae
▁maduro
▁mancuerna
cede
promi
▁pobrecito
cela
conia
amna
41?"
rueba
redor
eno
▁Leonardo
▁kw
▁vengar
amo
▁ESte
2?"
apa
(3)=2",
▁Fidel
▁mez
▁Ita
▁lápi
cisio
anche
▁matan
ña
▁Francis
▁Chilpancingo
▁balero
▁drago
▁Nolasco
▁inclu
▁mandil
bado
modar
son
▁altura
▁bautista
"'4
▁Case
brica
vía
fer
uadalupe
wige
dín
vencer
entinu
▁zootecnia
usan
stris
▁supl
tín
▁loro
chor
▁Asc
ioscoreaceae
marra
chara
▁reventacadena
▁arroba
▁Elio
▁invitado
▁ndwi
▁lan
ófono
▁contro
e
ñoz
puesta
▁cafe
▁arre
▁sobre
▁acostumbrar
▁ministerio
lante
▁I
inuto
ero
rus
stola
stru
▁leo
▁corriente
▁tie
uehue
▁Teyu
esu
lear
▁Joncho
▁espa
▁Federico
▁Melastoma
▁roto
▁herbácea
▁barril
▁um
▁Loso
▁Luni
áme
▁kwi
yamazo
donio
yrsin
▁futu
▁MM
ermer
▁comi
▁aba
▁Alliodora
mazo
▁infantil
icho
▁colonizar
▁verde
▁Chi
▁Epífita
▁lavanderíani
▁mango
cero
▁Chencha
▁ye
Na
edro
▁Allende
xe
▁Expli
143,
Mi
▁falla
▁venenu
▁gobierno
▁dicho
lme
gacea
roma
▁ria
ciatu
tón
dulia
▁tortillería
odine
▁Cerro
rián
▁pobre
ru
simo
▁ex
Ndio
recio
▁Cannavalia
▁costu
▁Nata
▁resid
▁sol
▁Juventino
lera
▁pro
enenar
pium
▁buena
are
ontan
ver
▁popelina
rosa
▁menos
cido
▁oráculo
iós
▁negpcio
▁Costan
fir
4'
bes
▁descontar
▁cochi
▁Cuscutaceae
guaz
loren
▁fallar
tíme
▁iguanero
sittacanthus
eril
aublo
unta
▁agos
▁fotografi
cional
▁mirón
▁Tolentino
▁ibru
evero
▁unas
piu
▁espitoso
t
kan
gueli
opi
▁Abrazar
binu
gu
onera
ku
dio
▁entrevista
▁agua
▁pelao
cua
ez
rante
ozo
esne
▁mismomi
▁Secundaria
▁Corrín
w
▁posi
ueblo
4=2?,
▁devuelve
▁Cristinu
▁Ayunta
▁chio
▁casero
▁f
loniu
▁Mónica
▁Buenos
▁Cordia
▁coopera
▁Marcelinu
esis
▁mojonera
▁madrina
diante
▁madr
tenco
▁herradura
▁Legu
dia
▁Acalypha
va
dre
risci
trap
▁ase
▁Niño
▁vía
mid
143
▁glutinosos
▁tesoro
▁Treinta
yar
ronó
anco
reto
▁Caricaceae
ota
▁au
▁competencia
▁jefe
sit
▁encuentran
amu
▁Ab
▁Arachno
erónico
▁vayan
vula
uiso
▁baile
anda
▁coperacha
trella
jaro
olygo
tentador
jand
lore
▁noventa
ga
ascala
143=
vieron
▁hubo
▁Florentinu
darina
3)
▁trago
▁lapicero
▁lavandería
arbusto
▁kwe
tenta
íso
▁sea
cionadakan
▁Convuvulaceae
▁Estado
oral
uebla
ngel
▁Lacistemataceae
thoso
▁Leonide
▁Le
rimulaceae
lon
riel
lum
▁siñor
▁Euphor
▁Jeli
ropi
▁fole
▁zapa
▁cuer
▁Chilpan
bujo
▁Clitoria
▁Mular
▁animal
rich
Ierra
siflora
▁Elistinu
▁Mirtaceae
rrados
romá
do
▁válvula
b
▁mantener
▁chamarra
inote
bli
▁cur
▁Cay
tillo
▁Costantino
abinu
late
▁Moringaceae
▁once
chu
gl
▁tercer
▁cavo
▁dici
3,¿
▁sesto
landu
unio
lumna
pillu
ctandra
orni
▁medida
▁Arriaga
hylo
olinar
vesti
oneta
riana
▁cierto
▁habitante
▁d
onaci
inder
▁día
gue
▁Combretaceae
▁enfermedad
orfirio
▁humilde
Xa
▁estambres
▁lava
▁Teguaje
13".
chever
sán
▁Meke
▁bata
bente
▁permisoji
▁pastor
▁liguladas
▁p
ierba
ubiaceae
lamar
▁Tambi
▁Mi
▁lucha
▁Leya
riaga
▁mastra
▁vi
▁same
▁estampa
(3)=2
▁horno
▁hac
▁ejidatario
▁manchas
smo
▁vinu
ldecir
uedamento
▁carreta
olito
▁terminó
▁Cul
ño
ulla
oza
ngwi
▁dobladora
▁golpe
vene
▁mm
▁hele
p
▁mbelón
▁prog
oló
▁tiem
rla
Ndu
curbi
▁Librada
▁tatarab
▁molde
iria
▁Ce
▁Sapotaceae
doctor
▁Só
alentin
mín
▁multa
▁Apolinar
▁familia
▁división
▁centímetros
▁actividad
▁Santísima
roton
▁tras
upe
▁navidad
▁sá
▁Bacha
pie
▁Francisco
yui
▁mirador
K
▁Ayu
▁agenda
▁envase
ied
tica
cote
mira
lap
3=2=
▁Compadre
siu
▁todo
nito
lta
nima
óti
▁defender
esti
tación
berta
▁plazo
▁.
aril
▁pon
▁experencia
▁ángu
13(2)=
▁Seña
jue
▁balendera
erra
jizo
▁pílbora
turo
▁potable
▁Bailón
▁capa
▁jolín
▁xwe
▁Tinu
▁lona
▁amarillo
tecoc
▁acci
ur
▁almendra
pulín
▁apue
ustra
▁seca
riscilianu
▁Jolo
▁Acatlán
▁ahora
tacea
enti
uania
loti
▁pecumbente
chahue
▁mbe
▁tapa
rete
roble
▁acomodar
cahui
dulo
vatra
▁coheteru
trevi
▁desc
▁carrilear
▁Bernandino
▁Tierra
oru
alado
ción
ka
yote
▁ko
▁palma
▁exper
sidium
stancia
loya
v
▁virtud
▁na
▁Cayetanu
▁mora
▁caraju
emedio
ristán
eniu
▁Felicianu
▁Tia
▁Lucila
▁Iguala
ben
andr
▁miendra
▁Cuarenta
▁Bar
fec
▁corazón
▁avanzar
▁tu
▁Nanche
orera
fico
▁lectura
▁karate
cuer
▁rrendatario
brar
▁tratados
▁brillante
▁litru
▁=
▁diana
ris
2,
▁Sotero
▁Baus
(2)=
▁iguan
▁paisano
▁vestido
▁Moly
3.
▁sesenta
▁vigi
▁fuerza
▁Casti
▁Cua
▁sida
▁crota
13?
▁contrario
▁gi
▁camp
▁jJ
ng
▁Ayutla
B
▁rastrojo
eintisiete
▁capuc
▁panteón
▁compañero
rmación
▁tubería
▁creciendo
▁zó
lbio
vilán
ablo
▁híjoles
▁Mateyu
reta
▁Tour
itoriu
▁otros
ib
▁fotogra
pal
rbor
▁coordinación
▁petición
▁gasolina
▁Ferm
▁Kan
▁tri
▁aire
ñi
▁sp
▁rosario
su
▁erectas
3=2.
▁Chilapa
▁Apocynaceae
ringo
liaceae
4=2
esgar
dusae
▁juni
ifaniu
lepi
mphylo
▁limpia
▁marrisco
blo
▁duende
▁dies
▁Tre
▁pasu
▁divor
gar
▁fábrica
▁vela
▁vara
risto
▁pasa
tizo
uedó
▁Marcel
vo
▁comisaría
▁carpintería
erardo
ilón
ífico
▁Cacalutla
rate
▁cli
liano
▁hojas
nefor
▁Mona
▁adió
antil
▁corrá
▁fre
▁kum
▁Cef
cur
▁Sofi
gógi
ertas
▁Santiau
sterio
lsa
▁centime
▁Serjania
áculo
▁Malpigh
▁cla
entor
Mmm
tados
▁dieciocho
▁látex
ac
▁Estemadenia
pice
án
▁par
▁vuel
nu
▁Kwa
laga
▁Sapy
▁tio
▁señalar
▁baño
▁Jamaica
migar
▁pesi
▁sardina
mbaca
▁Biscaceae
▁anteriormente
▁mism
▁cuadra
abel
▁sabru
ieru
(3)=2=
▁barriguera
▁puntos
▁pesos
guan
steba
▁Lubi
▁ag
tre
?",
et
▁presentar
terno
▁secreto
mbi
▁sabor
▁Existen
▁convivir
artín
tel
lano
rgan
▁plano
▁pasador
▁planu
em
▁trum
▁vari
▁curso
ana
onif
▁morados
▁ten
▁peri
▁Febronio
odm
cinueve
▁Chica
▁Malecio
▁guazuma
▁dic
▁prueba
▁china
▁criollo
▁recomendar
▁años
lote
scabe
▁problema
▁zagu
elascu
▁posteba
▁fruto
lpe
initivo
▁Tepan
▁panela
ancia
▁difuntu
▁restaurant
▁exce
▁Costu
▁frigorífico
assifloraceae
▁canalado
ya
▁vento
▁crianza
▁ndifuntu
▁Matí
flo
An
▁Linda
▁Silia
corea
veza
diaceae
▁Cesión
lumeria
gueroa
▁ahorita
pendeju
(3)=
▁ric
órgano
▁nu
▁mesera
nardi
yptis
▁gruesa
▁Arellano
laceae
yordo
▁visitar
▁almuerzu
uelve
▁senci
▁juta
taceae
pache
▁fumarrosa
▁viernes
▁En
▁sshh
▁Santo
▁lijar
hus
▁usted
▁Sin
rist
ciendo
▁Xo
▁Arbu
▁estaciona
lchor
▁cole
▁Barrio
▁mesero
edru
▁cantor
oila
banth
▁lími
orí
▁Sa
ños
anero
▁tomar
ortón
▁todavía
▁Astronium
▁Tibu
sino
▁bueno
▁Acacia
▁dif
▁Abril
▁,
▁santísimo
Ste
cetu
▁obligación
▁taparrabo
▁maño
▁tuber
▁exte
▁Koyo
▁piedra
mendra
bulo
▁burra
▁mayó
venir
▁Nurio
▁ch
▁ángulo
▁este
todo
ental
zar
▁placa
▁prevenir
anula
uno
▁inye
▁senti
uesadilla
cuerna
▁cuate
alla
gitud
▁presid
riado
▁xu
bora
▁Juchitán
ylop
sine
▁vasu
▁Eu
sikiera
▁Maurito
ati
domiano
moea
▁auto
▁frutos
▁Carpintero
galo
▁Adelaido
▁gordo
▁otra
lvia
▁dedos
stan
▁marzu
doris
▁Autónoma
cearia
san
jada
▁Negro
▁Mami
▁cuatro
líti
amá
▁bendi
▁Loma
az
▁camino
bril
▁Yoloxóchitl
▁ulmi
demás
loba
▁campes
▁Ale
(
▁herrero
▁Fin
▁Taki
▁recu
▁guerrillero
dalupe
▁cen
tífico
▁propuesta
▁Ko
ranci
cipal
▁terminada
pintero
andela
▁boleta
▁Cesi
▁Mateyo
uite
ótira
▁Teotihuacan
▁museo
▁ciclón
cróf
▁pi
▁Esth
ergue
▁apoyo
bida
▁esta
▁Xan
▁nuestro
▁año
ospermu
ptranthes
▁marte
▁cocido
▁Flor
▁Mastru
▁Nectandra
▁lima
▁hojala
kwin
eonar
▁cífi
▁Male
▁gana
neta
▁kachu
olun
▁Carrizo
enceslao
▁allá
▁Caly
▁castillero
trio
▁trasl
▁consi
▁como
▁Sec
epinu
▁Siru
zá
antaleón
▁entrada
▁santísima
▁inver
pozo
▁pachi
lle
tecto
▁Camp
uido
phillaceae
▁ardilla
▁blancas
▁líneas
▁papá
▁lagar
▁botellas
rathe
tl
2)=
▁oc
bu
tián
▁Ama
ormal
mano
ptar
Ey
star
▁Margarita
ege
▁apar
▁adi
ija
armi
▁Munici
pieza
▁Leza
ned
▁llanta
hijo
▁uno
▁Miaa
▁simular
elas
(3)=2.
ábrete
lente
▁epífita
▁Seve
▁bala
ulu
fe
▁collar
▁fuer
▁regla
uterio
▁aromá
▁Tetu
sitar
▁cruz
uil
▁kwer
▁paloma
▁pas
▁Manuel
anita
▁arma
▁av
▁Melastomataceae
▁Nwa
lesti
2=
▁cuarta
▁virgen
▁eskolta
4?",
▁anima
▁nive
▁Mame
▁Swe
A
miapa
▁tele
Kwa
gra
▁maíz
▁arborescente
▁Amador
▁poste
oly
▁mal
▁Lejand
lán
rpi
róf
aus
jemplar
▁lá
▁tío
▁orillas
▁eli
pias
ompeyo
echo
rbores
lido
▁pri
▁Mini
'13
blado
)
▁bron
▁estilo
▁clase
lotillo
▁dre
▁Cuaji
▁fundación
▁cá
tin
▁Cirila
tida
▁Tabebulla
▁kla
cania
áz
▁crucis
▁Lippia
▁febrero
▁pinu
▁enc
igh
▁gustoso
▁anaranjados
á
enta
▁ri
▁Tona
sobalanaceae
▁sarna
icto
▁marcar
▁un
olen
▁puer
pandu
for
▁Andr
tina
zado
gi
uillermina
▁guindas
▁reata
pitán
▁enf
▁Clicto
▁Jes
▁están
▁Spo
cto
▁poli
isan
stima
▁injin
▁ru
hh
▁pascua
▁amenaza
▁at
▁barri
ctor
▁escritorio
fini
lvaceae
lita
pantio
cito
▁Solanum
chili
▁provocativo
▁semi
▁Laxan
▁case
nce
▁pintura
▁pollito
cion
▁diab
stacio
trada
rbol
▁mencionar
tinueve
▁Beju
▁Bu
ou
▁Sapin
cum
erminio
ume
huate
▁hacer
▁nomá
mera
▁Salom
dir
calizar
kwa
▁Luraceae
▁Suástegui
▁gen
▁Lantana
▁tábano
▁servicio
▁estacionamiento
slao
▁copi
▁Mara
▁Al
trico
aciu
▁listo
tun
4"
▁Carlo
kwi
ercial
gurar
▁Toñu
▁paraje
guán
enón
vat
fica
▁Morenu
▁Connarus
▁diri
▁carpintero
▁Chim
41
▁vieja
uemon
moteo
nacio
time
4.,
▁rii
gartu
blez
▁Ticha
▁exterior
ragua
▁Lai
13.
▁es
▁passiflora
132=
▁Jesuc
▁permiso
▁segu
▁Secundino
▁Canu
▁tien
gio
guada
▁mone
▁Arce
▁riata
▁material
▁Allio
▁gracia
▁diec
ón
utilia
▁Tori
bdulia
▁gavilán
dicar
dato
▁aprovechar
▁mataban
▁lavatraste
ebió
gniar
culos
▁lavand
▁santísi
vavi
4?".
via
▁manda
▁algo
▁motor
ta
ampan
▁Secretaría
4,
▁faji
▁pueblo
▁más
▁Bartolo
▁champ
▁Jac
cípulo
pul
Señora
▁goz
cea
▁dolor
domo
▁lo
ea
▁acti
▁diálogo
udio
▁junio
▁Carica
▁van
▁pepsi
ton
42?
gav
chada
maril
sto
▁No
▁cliente
nga
▁Celso
▁Francu
tepec
'14
titlán
erno
▁Tresciento
▁significado
▁ton
iscí
▁Tiu
ba
stigu
eri
▁víspera
▁Ser
ci
rroyo
món
▁sec
▁xio
▁chinga
ruto
▁cortina
ckia
caro
▁chancla
itra
▁le
▁testi
▁España
▁bilbioteca
▁medir
▁lazo
brado
▁lámina
▁Celerina
ller
encial
▁veintidos
▁zuca
▁bos
cigerun
▁veintisiete
▁León
▁Su
▁Sosto
▁tIn
▁Tio
▁tian
guito
▁Cuesta
ciapa
▁Cip
pro
▁Marina
▁herm
▁Cus
llero
mpeyo
▁Ndi
bona
rul
▁manejar
▁can
<unk>
▁Tino
▁nec
▁ley
hui
Ki
xtla
uinientos
mesti
▁reina
funta
rne
▁hermano
..,
nder
▁Ja
mael
cadena
▁tengo
▁Sete
dador
enu
▁Adiantaceae
▁Ku
▁mb
▁Corní
ela
▁precio
▁pinza
guaca
vad
▁gozar
(4)=2=
▁veintitres
esuc
▁glauco
▁inmaduro
argo
ístico
▁comisariado
brón
guez
ongi
blema
▁Manchón
▁periódico
▁An
▁investigación
No
▁cabrón
torce
▁Sánchez
▁tar
▁ono
▁sia
rri
▁herbá
▁agosto
uila
▁valentín
Buena
huich
▁sandia
▁trompo
▁on
▁Castillo
1?",
oso
▁tallo
▁Aní
▁verdoso
24=2,
isc
▁veintiseis
ula
lbatu
rra
▁organizar
▁t
▁acta
▁coletar
▁participar
▁Senna
▁nece
▁jardín
anela
tara
▁chocolate
▁prima
asta
cis
▁contestación
▁verdes
tal
▁patu
▁Aire
lás
▁diablo
▁kachucha
▁ligera
▁Ina
sa
▁Es
▁ame
sos
acaría
migio
▁leñoso
.
enero
▁Morisonia
pádi
ermin
▁yo
▁mañoso
blio
▁llamadaji
▁spontan
▁Xi
Chiminu
▁plancha
▁millones
aymundo
ol
uelia
tinu
ñ
▁Nda
Xi
erto
iperaceae
renes
▁yogurt
▁Sian
enos
is
▁palo
▁director
▁Langi
▁contentador
▁bote
pi
▁conse
▁torre
olín
▁Lic
him
▁plaza
aria
▁genero
▁Margartu
▁india
▁diá
▁L
▁Cente
▁treinta
pan
▁Yoloxóhitl
si
unas
zani
▁Maguey
ctas
▁cu
▁ca
r
▁manguera
tano
lubi
▁candado
turista
burcio
í
filo
▁kan
otrerillo
▁pulgadas
guera
▁Meliacea
▁pubes
▁Lejandrinu
▁mbu
▁Babá
▁Basilio
Yu
▁pelí
▁crea
culo
▁ot
ubra
▁salón
▁partido
scuta
rí
▁creciente
▁ndi
▁comuni
▁silbatu
lai
bulos
udobo
▁árnica
tería
▁en
▁cartón
▁voluntad
▁Fla
▁papa
ómo
chiu
iego
▁As
caduci
▁peñasco
",
▁arriero
▁sac
gura
24
▁lune
▁una
iforme
▁tenaza
ctárea
▁apos
oli
▁popote
lecho
▁Kwi
▁Cru
ndias
▁investigar
orno
stico
▁testigu
▁pestón
4..,
▁ses
▁colar
piliaceae
ple
▁cuaresma
▁anillo
ufinu
veriu
▁segundo
▁Yolox
ospermum
▁corraleta
▁Cu
▁Asclepiadaceae
▁Cristo
ernida
▁dire
nifi
lazo
24?
▁Tep
▁Aguacate
torio
▁páj
▁Clito
ar
1-
▁Isidro
▁fi
aul
▁Sixtu
saria
▁negra
inaceae
▁fu
▁Brun
▁va
ptran
estro
ob
rou
kuta
▁alba
▁comunero
▁epífeta
anjada
calo
miento
▁martiyu
▁sideroxilon
iedran
ancin
▁Jueve
▁pistola
▁Acapulcu
▁lis
▁Mane
chio
lagru
híjole
▁cacahuate
▁parcela
▁palomita
▁experiencia
▁manzanilla
▁Lomas
▁Agustina
▁correa
andante
▁baraja
▁león
▁age
canta
tru
gh
▁Flacu
▁gavi
24=2=
▁reconocer
pue
▁Yolo
▁a
lvador
▁tubu
▁información
1?
▁frenu
rtud
▁Jero
▁criada
tan
▁Mo
1'
pec
▁In
uncio
orn
▁Lionide
uuh
sitamos
▁del
▁aptas
▁resolu
▁Julio
onene
▁Cole
▁letra
▁Flomeno
▁sábana
uta
ctora
▁pren
▁divino
tural
Chi
▁ja
▁Eliotropium
ípticum
tria
1.
asu
▁Fernando
eróni
▁Arbolito
▁limbo
gir
▁suerte
▁Basket
▁comercial
Car
▁Aguacachahue
llas
▁acep
lecta
▁nueves
jin
ecu
▁pájaro
▁Iris
▁Eche
ipocrateacea
▁guacamaya
ipocratea
Tengo
ipoc
▁Chu
▁Balo
▁mas
▁presidente
▁Lion
ascual
▁Tengo
eazar
▁juego
▁prensa
pica
▁Ji
lium
omaliun
rdina
toro
▁kung
orag
¿
orali
▁pard
clu
teína
▁garza
al
▁duda
▁civi
▁entregar
▁carnaval
▁la
▁Costumbre
▁Sapyndaceae
▁clave
▁Marga
Tan
▁convivio
eñaira
(3)=2,
▁Salazar
olde
rcito
and
erre
▁Alegre
▁Capulcu
▁reventa
▁tuberculosis
uecina
tarab
feren
folio
▁Cres
carpo
▁negocio
uie
icio
▁Ba
▁tumbada
▁Santiagu
▁mañeca
▁padrecito
▁Carlos
▁Liya
▁caracol
xteco
▁señor
▁Cori
▁ver
tri
yrs
▁parafina
▁"¿
▁Myrsinaceae
▁rec
▁boni
▁plobablemente
▁Lobe
íritu
▁pirámide
▁permisoni
cant
cahuite
nizar
▁yi
▁linde
fo
▁ricinus
▁ndio
▁Machiti
▁muñ
deabila
▁e
▁taxista
▁Maña
clip
▁estatal
▁rayos
tonto
cionada
▁acostu
▁tiu
nica
sito
ire
▁consom
apá
▁brongniartia
▁k
▁respetar
▁becerra
eas
utizo
▁alados
ñeca
parrabo
duci
fici
▁deci
ino
▁Tiem
▁Buta
bilidad
uito
▁malvaviscus
▁resultado
▁ficha
ótiro
▁dirección
4=2,
ermería
▁hi
Kwi
ouania
▁Tolontinu
hytolac
▁Crisóforo
illeniaceae
▁payasu
▁depositar
▁Xóchitl
cial
▁Margaritu
▁Tarina
dencio
py
cia
▁varilla
▁Tolentinu
▁cuento
bar
▁siu
cual
▁Seba
▁Jicamaltepec
canth
▁compuestas
ciona
▁Monstera
▁targo
▁Ndia
▁pesu
▁localizar
▁Crescencio
inose
▁baldío
roblema
▁cariño
piar
▁high
▁Escalera
'
▁autoridades
▁reporte
3=2
▁esko
▁Kuku
▁Caperonia
▁Candelaria
▁Conv
y
1(4)=
▁estrudio
errero
cantado
So
▁destajo
▁Mora
Je
▁calendario
ipi
lpolo
▁Bueva
▁estribu
▁fle
vador
▁marzo
▁Celestinu
tro
ndale
13-
▁arbo
idalgo
▁burbu
n
raj
alim
santo
▁mulínu
42?",
flora
▁cope
▁Simon
▁nacimiento
▁cantori
par
talos
iciapa
▁Croton
uadaupe
BTA
rnciscu
▁Chuparrosa
▁principal
▁divorcio
▁taza
▁galleta
▁pitecocte
▁unif
▁Cruz
onita
▁anona
4=2?"
o
1,¿
▁casa
don
▁tocadisco
▁probablemente
▁rosada
dis
▁dura
montana
rupo
▁brillantes
▁ejido
▁tercero
▁sau
▁Ke
▁Silvino
reril
1,.
lust
▁cancerina
▁prim
Con
▁Caryophillaceae
▁Mauru
▁cuatrociento
▁mastru
▁siempre
ske
tífi
▁Sid
▁mercancía
▁S
▁Sibru
sefa
▁módu
thry
▁alimento
▁descan
▁mis
▁kwa
▁ESteban
íspe
▁Ahuacaceguelpa
▁Curatella
ifani
cacia
▁chapulín
▁cani
▁gratis
▁regi
▁ate
43",
risp
▁gastígera
▁Bignoniaceae
▁ploste
▁las
▁ocho
rea
udad
▁americana
stica
▁encargado
4=2".
anuto
▁truncado
▁Anu
rant
▁formación
umeri
▁Fern
▁ban
▁barco
padre
▁materia
▁decir
▁cilandro
cuela
32
▁fajilla
▁J
▁círculo
lan
▁Mode
fin
▁invitación
▁vino
Campanero
bdu
▁mezcla
▁agu
rille
ano
gno
(3.)=
uiel
mac
eo
▁mata
▁corr
▁Mararitu
▁catorce
lanta
dera
olo
▁característico
rcina
▁nda
▁bode
▁Sebia
▁tia
▁Agustín
▁ama
▁oficio
densia
mbora
▁Tourne
uenio
▁Stramoneaceae
▁Anona
graf
▁vigu
▁sub
bido
▁fumar
▁sastre
▁internamente
ril
▁enfrutescencia
▁hierva
▁Frnciscu
3=2",
▁xia
tiva
▁novi
▁be
cesita
esmodium
▁Noviembre
oy
▁Karmi
perus
▁zócalo
13=2
firio
ern
jilote
▁orden
jero
▁m
▁Chiminu
'4
▁pastora
▁suegro
▁Inaciu
▁julio
▁Luca
clí
olte
rico
bablemente
▁Fele
▁parte
oja
▁gastu
▁aceptar
▁avispa
▁cuatroscientos
rigir
ódico
▁lu
▁popo
▁vivo
guero
asifloraceae
lula
▁conseju
▁nota
▁Myrs
▁di
siete
brero
▁destino
isco
▁Cámara
nir
inero
anav
ñor
liare
mino
cerina
migi
▁tumbda
ueru
pical
di
cada
▁encino
▁tratadora
▁Xenti
▁bilbio
hete
pífe
dora
▁enero
▁maceta
rncis
▁pimaria
▁Xentixtlahuaca
tolo
pili
hisa
▁rope
▁manesia
rue
ast
kwan
▁caso
▁Bonifacio
▁mesa
tarra
naje
ísima
bon
Yoloxóchitl
▁Mouri
erni
mental
naceae
▁birria
▁pelón
▁mara
▁fami
rgini
▁hier
▁junta
clíti
▁Nacisio
samo
fita
▁Campanu
ruelo
▁Sole
ran
▁Autón
E
▁Chinu
▁maroma
▁Chri
▁cocoloba
term
enteñ
onaciano
Cam
f
ferun
▁cientu
inotepa
lero
lefante
▁candil
gueta
▁Lor
sar
▁envenenar
urísima
anza
▁Flore
▁domingu
▁ventana
▁Cándido
dulosa
yetan
ernández
aulinia
▁aproximadamente
▁sapo
eron
▁jwi
▁creadores
uear
2.
íz
3=2"
▁recta
▁Laxiflora
rámide
ibru
▁nací
▁arbol
cuenta
▁Lenchu
▁ándale
▁costalilla
▁Juárez
▁octavo
▁prá
▁colind
rso
▁Brome
▁celestial
rute
gante
ndwi
ora
▁B
▁veintitr
yrico
▁chi
4?.
▁des
▁flo
au
▁con
▁compu
bab
hol
blico
scu
pynda
▁setenta
▁coladera
rath
destu
etria
xico
▁Ahá
▁hay
inario
fermedad
▁Aste
óbu
▁desperdicio
▁vigilia
▁capparis
▁Juliana
▁v
▁viva
elón
▁tejón
▁Chor
▁chile
▁enviado
Tio
▁llu
▁Tin
cund
▁neilo
▁lila
zoo
▁arrear
▁Leba
ko
catón
▁escuela
ábri
fro
▁tambi
cariu
▁andira
▁trompetero
▁ka
celia
▁chaparru
▁Marcelina
sur
cistema
nofre
▁Tiempu
▁Tu
▁Miye
▁chia
▁zaguán
▁Modestu
▁registro
ría
▁estructuras
▁Colonia
ercer
▁pen
ictorino
rria
le
▁cri
▁huele
ndwa
3?,
▁presu
▁Nicola
▁marrón
▁presenciar
orna
▁Agua
▁Commelinaceae
▁cem
▁Meya
Yolox
orenu
▁Naliu
isonia
libru
▁Albergue
▁(
▁Ceniza
Bolsa
x
dó
xicano
▁necesidad
▁cuota
▁considerarse
xal
▁frutería
▁vig
▁cooperación
on
"
▁trap
▁juguete
▁Cele
▁licencia
▁Sapynda
zó
▁grab
▁diecis
▁viajero
hy
▁puertas
▁cura
pilla
▁Antonino
ceso
▁eji
▁Mau
soba
▁Marianu
ciope
▁Ismael
apilionide
▁callejón
▁venimos
▁veintidós
▁reló
erium
▁bol
▁Mando
ncis
▁ba
ínea
▁dar
(3)=2".
▁M
▁maldecir
▁herra
▁uu
▁elictica
▁purga
yon
erbenaceae
▁kin
▁tienen
▁ingenieru
▁vuelve
ava
rocopiu
made
▁procede
▁mul
2"
ile
ilte
▁Tetra
▁debe
▁casar
▁láti
bur
▁enfrutes
1?"
tenia
▁finado
minu
estrar
▁señal
mán
hue
arí
▁tambora
▁cose
stajo
▁látez
▁Aca
mon
pote
▁restaurán
▁cunijo
▁Ya
=
▁ran
uipo
▁Sp
▁limpieza
ios
rán
▁acomo
teca
▁control
▁cerillu
eyes
▁neru
▁Mariya
ab
Bol
▁ulmifolia
▁son
▁serrano
▁camarada
luvia
▁municipio
▁suba
▁Ascle
▁Nicotiana
cenciado
santa
▁tratu
▁Centro
▁cuidado
▁interrumpió
▁sencillo
ritu
▁Cucurbitaceae
▁Arbo
k
drí
álvula
chia
jemplo
▁pastila
lox
uizá
camaya
▁bot
▁raya
meno
▁dobla
▁Ambro
inaldo
tiaceae
▁salsa
▁mba
mas
▁especie
▁tiempu
Lucila
inas
lauco
▁eso
mara
▁limp
▁espigas
▁Familia
rillu
▁palapa
be
▁trampa
▁estu
▁mese
▁Juana
lleta
32.
▁Nazario
ste
ernand
▁vegetación
▁Cantó
aniu
?,
▁Tournefortia
▁ochocientos
▁big
razón
Steban
fume
▁gastar
▁Tiliacea
ndio
llido
rión
▁trató
▁C
ersea
yel
tura
▁consulta
vitar
oto
▁cam
ciopelado
uemontia
arrio
▁Adelai
sei
▁Camarada
▁majada
▁blanco
4(2)=
▁apro
unici
▁cincuenta
▁Morale
▁fecha
▁sacristán
▁virg
turi
ífe
onoc
▁nivel
pedir
mbo
onide
ómu
erná
guro
▁verdo
▁curatu
▁estan
▁Camarón
batu
▁salud
▁hielera
íneas
▁Biana
ih
▁Lana
astora
gional
2(4)=
vieja
cello
▁oxida
▁traba
erani
uam
▁niño
tarraya
4'".
▁"=
▁cuar
avaleta
▁serrote
antale
▁jugo
Juan
▁capilla
43.
▁peti
▁teco
▁Sado
randá
lom
▁men
▁cuadro
▁Tian
▁cina
stila
▁lígu
i
▁Nabor
▁libreta
▁Joa
scus
▁trescientos
unto
orfi
▁para
lauta
▁So
later
▁suka
tado
guete
▁pelota
▁tanto
psu
▁rosariu
ami
encha
osal
▁Este
▁Misi
casita
▁docena
▁Is
daluo
muerzu
▁Tele
▁se
▁paludismo
▁fijo
▁tenía
íne
cle
▁curatella
ira
termina
marindo
anjado
▁bractias
chiti
▁Cin
▁Six
▁Julia
ju
▁recome
sang
▁propina
chil
▁Jona
uisocarpo
▁mbel
hibir
lavida
seis
▁fumigar
▁fina
terru
▁vaca
▁Chanu
phiun
▁carey
ustín
▁Móni
▁abuelito
▁medio
▁Igualita
▁Mori
las
▁Nu
▁Banco
tiyu
▁persona
▁Mende
▁ligu
▁metro
ueta
▁Sala
▁punta
▁viern
angi
tivas
▁Niñu
▁banda
chabi
▁Arecaceae
▁flauta
▁beca
lota
▁ambicioso
(3)=21
▁don
▁Tri
vade
▁ar
can
eñai
▁an
▁Mon
▁mariachi
tones
▁plátano
ylosma
▁Ignacio
sada
everi
cti
▁sei
▁Fi
▁Fabaceae
▁citrico
▁trabajando
(4)=2"
42
miar
eca
liotropium
olon
▁sabios
▁com
rill
14(3)=
liacea
▁venta
ebru
acea
▁centíme
ardar
▁Stra
▁xo
▁licótero
▁semental
▁sin
rote
▁Loñu
nido
32,
renda
uince
cón
▁Ciruela
stel
▁bejuco
▁comisa
fun
phi
▁límite
▁algunas
▁animales
▁Seraniun
▁Yoloso
▁bomba
▁eeeh
odmania
▁bachillerato
óhitl
▁aires
inta
bio
▁Máximo
bía
▁baya
arenta
abla
jilia
▁Maria
▁sumana
▁muni
▁machu
gación
▁Culea
▁avis
▁oy
guey
ctaceae
cha
▁Faustino
▁poder
odrí
'3
▁jwe
ngulo
cillo
▁toro
▁Ca
table
▁grabación
ónimo
▁chix
▁micrófono
▁Kintil
▁libertu
▁gas
▁tramo
dándose
▁Anacletu
▁droga
▁fulano
cuya
▁sábado
▁pulgada
▁oro
uisi
▁Euph
ciado
▁yoli
▁talud
▁ñ
gundo
▁Encarna
▁vecino
lmi
▁ojo
▁Niculá
▁láte
cogua
3=,
▁efe
▁saludar
▁pasanto
sario
cciona
▁due
▁guardarraya
gerun
nge
▁Elea
ctura
antana
niversidad
vi
rigi
erbe
▁Nopal
oran
silio
adero
ínu
▁Jesu
▁hojalatería
chila
▁Sósimo
▁australiano
▁barrio
nillu
acheca
porera
men
▁Aguacaceguelpa
rva
cialista
▁canica
Lu
mu
tras
▁sába
niver
fula
▁trazar
osario
▁apo
tribu
▁nan
▁Merre
▁Kapul
▁Agon
sificar
▁ante
vistado
▁conjunto
▁Mis
▁Mia
thryx
ghi
lizar
▁trabajar
yutla
▁Cupan
olygonaceae
stol
▁manadero
unc
▁Tarzán
ve
▁Ka
piga
tio
▁kul
lar
▁secundaria
cer
▁mmm
▁tortille
▁pos
▁samaras
▁maes
▁sa
xis
▁Caliente
▁carga
▁espíritu
▁Ahua
shh
mod
▁Jo
▁die
▁zoológico
▁sáma
▁rojos
2?
me
▁anaranjada
ine
▁bola
jón
▁Castel
mbax
▁Chenchu
▁div
tísima
▁moj
trera
▁morado
unda
▁buta
▁dis
▁Eze
bui
olore
▁bigueta
ches
▁toalla
▁Cyperaceae
lpan
J
rianu
ustin
3=2,
ñoso
▁octubre
▁bolita
▁acordar
lito
esticar
▁mulinu
▁X
▁altar
io
pu
▁Trino
ervar
▁Copalillo
abriel
'2
▁nisikiera
chno
mar
aura
▁Lianu
▁cuatete
▁all
sio
▁doce
▁pensar
ithecellobium
ustista
▁Mateu
uerta
▁monera
▁Tapia
▁Acapulco
po
▁Yoya
▁elípticum
▁incluso
▁Lucida
▁hermana
trona
ith
▁Capitán
▁Convolvulaceae
▁Tun
▁plá
▁ndiolín
▁posoli
ompe
▁vein
hum
▁Maleciu
▁nde
4=2?
(4)=2,
zanilla
▁Ndwi
onzá
▁Americana
▁Escu
▁vol
▁Lea
retar
.4
anto
▁aplanacerro
▁yegua
▁Constan
ciembre
dades
tolac
▁Tan
▁siete
tró
▁cre
▁Cata
stu
▁mon
3?",
▁vege
riño
▁och
▁corri
▁mu
anzar
▁Cape
emá
Ka
4(3)=
▁pez
ladas
▁ro
▁Agus
▁Chil
rimu
bertu
grafi
▁Ki
▁te
▁Lio
).=
▁periódicokia
ap
indo
eye
▁mensaje
▁Cup
▁Miguel
▁puesta
▁cari
col
liá
▁Twa
▁ay
▁dolio
ri
pulcu
drio
ómulos
▁g
ope
▁tro
▁píl
▁carnosas
▁Alda
▁guanco
caceae
▁hecho
4=2?".
nadero
darraya
ombre
▁j
▁tambien
▁Chechu
▁hijo
▁semana
lomu
tróle
▁autoridad
▁Jicayán
cita
bardo
▁defensor
kin
eeh
lesio
▁swe
tzil
ipo
▁aromáticas
▁Blech
huichán
▁espacio
▁ard
mplir
32?"
▁abo
yunda
▁indio
▁val
▁jMm
▁Alejandrino
3,
rilear
tanía
▁tan
,
▁motosierra
atrón
▁pantalón
▁pubescente
teón
uivocar
▁Miló
▁cit
erta
▁Antoniu
engo
▁iniciales
▁Tebety
cativo
▁casado
pter
▁Eup
▁meserear
▁grabar
▁Castellano
spar
xtu
rachno
ybanthus
▁Asclepias
▁corte
▁noches
▁naturista
▁superficie
ogado
▁á
▁ahí
▁cuentu
▁becerro
▁ced
yi
▁caf
▁centimetros
▁teso
tar
abellón
rinu
4."
▁vitamina
▁horita
▁credencial
mbro
huite
xi
sionar
▁vís
ingu
orma
▁taxi
▁castigu
▁televisión
inansa
▁Escru
▁pied
▁Calixtru
▁Lobelia
ontana
irginio
▁Ton
eldo
▁ulio
▁diálo
▁purgatorio
▁Y
zool
▁veinti
▁derecho
▁sueldo
▁tru
uemao
▁Sianu
icli
mos
bacea
tera
3?
vario
2
rockia
▁co
▁Encino
lpi
tán
▁cápsula
▁cro
▁Chico
▁Corr
▁Soloxóchi
vase
▁bien
edri
▁Salustio
▁leonardo
▁tortilleria
▁Cabrón
colá
thaceae
Inga
41?
ada
neli
▁ponchi
▁cayamazo
▁malvavi
▁sidero
rraya
▁corbata
▁pero
▁cáliz
4=2."
óni
rario
▁señores
▁hija
bonatu
▁amarilla
ernan
▁traicionar
▁difunta
vil
▁Fosa
derarse
▁ki
padora
lauca
▁Crocata
▁Felipe
▁Lusangi
▁oficina
▁regional
▁cono
▁altu
ble
aso
▁amarillas
▁casti
ramo
erí
▁Sab
tra
eto
engog
rita
ene
▁Set
▁moneda
lba
▁dueño
minación
▁truenos
sica
una
▁copete
uehuetán
▁vida
▁Milianu
▁Toribio
▁ani
eña
▁seña
íjole
jM
▁marru
bonero
ce
▁pera
cadis
▁manito
▁u
enchu
▁Sima
temente
rrate
▁internet
lonizar
aríu
leciu
rompecadena
▁Com
teco
lestial
▁Cule
fi
▁Boni
M
lada
riachi
▁mayor
rdo
▁nomás
ueria
▁feo
▁du
▁otro
43
▁mer
▁sarg
elada
▁tambo
▁Claudio
▁man
▁Marco
tente
amí
▁dieciseis
▁compromiso
cor
rosor
(4
▁cap
miliano
▁vidrio
▁mañanita
▁treci
▁gaumeri
▁apodo
tho
ruesa
▁Yo
dena
gru
▁Crecencio
toso
jeron
ciolo
lanaceae
▁Cana
anar
apote
orti
▁epí
▁bo
▁país
▁comín
▁comunión
untad
▁diez
▁dosciento
asto
▁grati
▁direcion
▁miles
dado
▁seguir
▁fá
▁foley
▁comunales
val
▁Litra
ntu
lemente
enteaniaceae
xol
▁joco
bronio
▁ord
inia
otec
▁Manu
estido
rbu
▁tucena
▁Teresa
▁Alana
42",
come
ylo
strio
coh
▁carbonatu
▁cola
nimos
▁Marcu
▁ist
▁mismos
▁rastro
▁municipal
▁Changi
erba
▁creyeron
▁coo
▁familiare
▁intervenir
Si
▁Cirilo
crófono
▁Leo
▁pá
calu
▁Juanito
▁cduadro
4",
▁vacación
ertrudi
talón
▁mencio
mpió
como
3
▁plan
3",
▁Cy
moe
lalate
▁femen
▁musu
cientos
ay
▁arbusto
onso
▁pedido
▁remedio
und
▁prese
▁sacra
▁Celedonio
▁cua
pá
jwi
▁consejero
sitando
etra
▁Au
aranja
tu
mana
▁Jun
sun
▁í
▁cueru
▁compañera
▁Bromeliaceae
▁político
▁chan
mper
▁Cal
yido
▁central
▁ár
cabrón
uena
▁chor
etrar
mento
▁piso
vista
▁mecha
▁llamo
▁Jus
illo
▁documento
▁tran
duro
aulino
▁tun
bicio
▁moto
rime
▁to
us
▁ranchu
▁tije
▁esme
rru
g
odo
▁letanía
eyna
▁Juv
▁cinchu
▁idea
▁riel
▁Antonina
▁Casearia
ke
▁Lami
▁mantel
▁mixteco
epi
astor
bru
▁Madre
▁incluye
ontar
trimo
sifloraceae
lavo
engar
odol
▁l
▁canal
▁Salustrio
▁Chayu
▁lunes
▁cañamazu
cado
▁cubeta
▁comisario
▁fondo
▁arriada
cturas
▁vacuna
▁cria
entín
▁Chal
▁cinta
▁Arcelia
▁Sariu
▁SIerra
▁vaina
▁cáncer
▁maría
dsi
▁palacio
▁marandá
chillu
▁Tambora
chitán
▁costa
pinas
▁run
▁Convol
▁kwen
▁pocho
▁rá
yasu
endón
▁Cesal
▁tocar
sca
egetación
landro
1".
To
▁auditorio
▁herrería
eza
▁carriacado
▁licenciatura
▁Cincuenta
▁injinieru
▁Anacar
pio
ardo
▁mayo
xiflora
Maxi
nium
▁ovario
▁garabatu
▁Artu
▁corola
l
▁Ta
▁Santísi
tero
ppa
▁lechin
lipha
madenia
▁Cuana
(3)=2?".
▁gato
▁manera
▁soldar
▁Meliaceae
ioscorea
▁misma
▁glu
▁Ahuacachahue
amp
▁presencia
▁escalera
▁Canavalia
xu
unil
jido
stoma
▁cocina
▁Co
egro
▁Maximino
▁austra
mente
sid
u
uete
▁mó
▁Arturo
▁Laja
▁N
cellobium
enciar
▁mezc
▁yerba
▁tornillu
▁kia
lásti
▁pur
La
▁Mandeabila
▁selva
▁ciego
izar
fia
arra
▁despedir
utaceae
mpe
▁cuchara
atura
▁desblo
rgano
▁Buenavista
▁roja
ndida
milla
▁novecientos
stio
▁montura
▁Franciscu
gano
▁apartar
llandsia
yuji
▁fotografiar
24=2",
▁María
▁CBTA
▁Mate
▁Enri
lapa
▁cabecera
▁experi
▁Anacardiaceae
iacea
ceo
▁Ese
ení
mular
uadro
▁azo
ferinu
▁tuvieron
▁poso
X
▁diese
demá
enva
raju
usselia
▁flojo
▁chilamate
ósimo
lá
▁caña
idado
per
íbri
▁pesadilla
▁Machaerium
14=2
fina
Ta
▁subcaducifolia
as
▁niu
T
▁mandado
▁crio
▁colmenero
▁produce
▁Leobardo
▁Isidru
otecnia
uerrero
bán
fundir
▁comun
▁lín
▁compadrito
brada
cacea
▁colchón
olas
▁Faga
▁Bomba
▁cuarenteño
▁campana
Sa
▁Navar
▁tres
stera
▁Catalina
rma
os
ani
ndó
rá
▁Ele
api
colate
urne
▁veintiocho
▁veite
tiocho
▁tierra
▁ábrete
▁Caryo
▁ligeramente
ín
▁Cornígera
▁Be
▁her
▁Buen
▁corn
naciu
petar
▁pubescentes
▁Jerónimo
urio
usse
▁recado
zana
olin
anciu
pomo
▁aní
▁ser
entu
assi
erfi
jani
▁exa
monio
1"
▁Macía
▁Modesta
▁panza
▁bole
rior
tacto
▁Ndesetu
▁natural
▁computación
oluna
renar
gua
entix
▁juniu
cal
▁Mariano
▁Creciendo
▁gor
▁Isabel
▁bign
ógica
▁Jos
▁Julián
▁Amb
▁do
▁Fermín
▁Montana
▁milpa
▁faisán
stro
▁moli
iel
▁ánimo
▁bilosa
▁torcido
▁jan
▁lomu
▁lista
▁orá
sión
facio
▁ingeni
ndu
ze
▁Lima
▁decimos
▁tram
▁gobi
sta
viembre
▁millar
▁purí
▁tranca
ernánde
▁lobo
setu
gilar
▁ndia
▁colecta
tilla
kil
▁Ejemplar
▁fuertemente
rizo
▁Col
▁bajilia
tivo
erte
F
▁Corn
▁marísco
▁adornar
tó
▁bis
▁Silve
ote
elio
▁Liana
▁Erigeron
▁visita
▁Sofia
▁conejun
pra
(4)=2".
ótero
▁glauca
menero
▁swi
uitz
uele
▁trepadora
lina
aje
▁satín
▁Nava
▁garg
▁Chente
▁inyección
▁cruzado
ences
▁sámara
rabio
▁Agu
esma
males
entino
▁Edu
Be
Consta
jentu
▁traz
▁Sali
▁Lui
flor
stumb
cioso
▁Santa
milia
Ndo
▁cala
risó
eina
▁parásita
lendario
undaria
bá
trulla
jwe
2..
▁cor
▁play
ltero
jan
cena
▁aviva
junto
Is
sabel
ó
ndera
▁color
▁Lelo
▁Flacutiaceae
▁plantas
lgo
rio
▁garganta
▁carpin
tiu
▁capu
mend
3?"
neria
▁desvelo
Señor
▁verdosa
▁ingeniero
▁mamacita
▁li
▁grupa
▁padrinu
▁x
domi
(3).=
▁traile
terna
▁kas
híjo
▁Esculifolia
▁Emyricoides
▁Lonchocarpus
rable
riero
▁amarillos
▁colmillu
ca
▁millón
du
dend
uni
▁curioso
▁abono
▁paraíso
curso
▁Comi
▁infor
▁arri
▁Koriu
▁sar
feta
león
▁carrera
ven
▁comisión
▁estrella
▁fachada
▁Bouvar
ermosa
▁restau
▁herbáceo
▁Menu
thus
▁Capparaceae
▁Tapi
▁Mango
▁Sofro
anchu
▁Alanda
tiana
▁bocina
ricio
sin
aulo
▁estomakil
itlaltepec
chocar
▁enva
racia
▁Jicama
apo
▁padrón
hua
▁asesor
▁za
lez
▁chingada
odofredo
ritura
íu
▁cuarenta
panu
▁Solanaceae
gadores
pigh
ara
▁licenciado
s
rbo
▁cuajilote
▁Sal
▁pangu
▁Nada
▁Mel
licía
▁term
tíne
▁Cuatro
▁Madeu
▁gorra
avid
eco
▁cumplir
▁cara
dsia
▁alg
▁doliocarpus
▁tr
▁Mikai
▁móvil
▁lla
▁Nachu
eaceae
▁pad
▁diecinueve
▁vado
▁Esteban
lia
▁cancha
enzu
▁Connaraceae
▁Salvia
erría
1
▁Igua
▁cazo
▁matri
juco
▁mozo
▁Bo
porte
▁patrona
▁Esteba
▁Era
Nu
▁chingau
th
▁Melesiu
ria
ygi
▁Tol
▁sierra
andente
▁proteína
▁figura
hyto
▁glo
illa
hamnaceae
▁madre
▁Muni
▁Inermis
▁Min
alor
▁albañil
uip
▁glóbu
tran
▁confirmación
da
uel
▁Esc
▁consejus
lmón
jun
▁pe
▁violín
▁reg
dero
asar
▁jos
▁escaso
▁discípulo
▁Ad
antar
▁re
▁Malina
dante
resa
ndo
▁Igualapa
iturinu
lypha
cino
▁adivinanza
▁Cro
▁belorio
▁confundir
rioso
▁cí
▁camara
hija
vulaceae
aulu
cegue
ocente
▁examen
▁materiale
chuza
ilbertu
▁Teó
▁Nacional
▁mono
oloniu
▁dibertu
▁secas
ceguelpa
▁vigilar
▁trecienta
ihualpoloya
▁distinguir
anizar
▁canónico
▁Luis
tudio
asca
▁Cascabe
rero
▁guaz
▁cuerda
eli
▁Are
guali
▁Franco
initi
▁caliz
j
maras
unijo
ber
▁Feb
▁padre
ETA
lac
▁mayordomo
liotro
▁entrenar
▁chiste
dad
▁santa
▁tecomas
▁platillu
gro
miso
dor
alentín
kun
▁Nico
▁dejada
▁acerca
▁Tebet
mpa
brete
13
▁barrote
rchi
▁Suerte
mp
▁Constantin
▁conservar
▁primal
▁Che
▁candi
▁Nicolás
▁aproxi
▁gigante
▁arbolito
▁trapo
seudobombax
máti
lomeno
yth
rieto
▁musa
1?,
▁Salu
▁Ficus
doro
pes
baza
▁afectar
lino
▁nanu
▁escritura
▁dabila
liu
ct
ence
andan
millu
▁Nací
▁pan
▁is
▁será
ge
▁playa
ona
▁asegurar
jo
▁Luciu
ceguel
▁limb
▁anar
▁chingadazo
▁comit
▁charcu
▁mismo
▁entre
lianu
▁así
ltepec
▁carnoso
gurt
mpadre
ario
▁Stemmadenia
valia
▁habi
▁híjole
ódu
▁Casimira
▁mascada
▁Cumiapa
▁pollo
nar
▁pel
ren
▁realizada
▁manga
▁chingadu
lma
▁Juare
▁tában
▁cír
▁pues
jere
▁Copa
▁abrí
▁Ma
▁sesgado
14
▁cirillu
▁eterno
▁Timoteo
ygia
▁Me
▁Bernardia
tí
▁ij
▁A
liodo
▁caporal
▁aho
▁bignoniaceae
▁Simaroubaceae
▁min
▁somb
riacado
▁Aldama
▁copiar
▁CBETA
▁limu
▁mil
bole
14,
chi
▁molestar
vinu
vita
rale
nd
▁pardón
señora
dán
onino
ulgarcito
▁intento
▁meses
linia
▁Choli
▁bonito
cep
▁chale
▁Xylosma
▁Yolosochi
▁cepillu
▁libertad
geron
▁Alan
omá
mbu
▁Nec
▁plo
▁chalán
▁carno
▁abre
▁espi
íjoles
▁trata
▁sonido
▁presidenta
?,"
▁diecisiete
▁cuña
▁lata
cipar
▁ador
ñorve
▁col
▁interesado
▁ochenta
▁inocente
132
▁aterciopelado
▁Baustista
reya
▁árbol
chez
▁Echeverría
not
▁pluma
▁cha
milde
eríani
amíre
▁princi
▁ke
riaceae
pol
dos
anso
▁Teno
ónico
▁Feliciano
rador
zóca
tativas
▁Minga
▁Acalipha
▁ardor
▁Jonathan
uh
▁guardia
▁Callejón
end
▁mama
▁bastón
▁pendeju
▁Loy
▁Ave
▁Cristro
inada
puestas
firia
▁Juli
achecu
rtega
▁Lipe
nero
▁peyi
▁carta
pl
ctica
▁Moraceae
▁sapiun
▁reformar
niu
▁diecisei
▁Cris
▁via
maya
proxi
riada
▁Cactaceae
anja
1..
zo
regar
L
▁ganar
▁ventinueve
ne
▁nectandra
ficado
osto
▁sandía
d
▁raí
▁parti
▁lle
▁recreo
42?"
papi
unis
Nda
▁medi
▁nei
▁melón
tante
or
▁Ceni
▁calle
▁Ilia
elo
uín
▁compraventa
▁cuide
▁general
Ja
▁Sang
forma
chito
pet
▁cuenta
▁i
▁zool
▁vac
pticu
elfinu
▁necesitamos
uar
pífita
▁bodega
rril
▁subcaduci
▁arra
empre
▁tinta
liun
▁chinitu
▁playera
yso
▁llave
▁istriaka
▁joven
▁Man
▁pies
▁az
▁Tobía
▁rotoplás
elu
▁grupo
▁Se
cuatro
▁cooperar
▁gaso
4
▁pecumb
cinco
▁Casi
vocativo
Y
sw
▁manita
ulgar
▁plu
▁sapapicu
ctu
raceae
▁rayo
▁ua
▁nacionadakan
ioscor
▁aguja
mina
▁primera
▁Carlu
▁tin
rden
pale
▁Nosetu
▁Toro
ingo
▁concurso
▁Ajinsi
▁lon
▁domingo
ban
▁cerveza
▁malvaceae
▁Teo
▁Neja
oberto
▁arilo
cleto
▁Ceferinu
▁docu
▁tra
▁uso
gulas
▁rem
ratella
▁Abán
▁Bi
ñu
erva
nath
▁Encanación
▁genera
42?".
vuelve
▁mbi
(4)=2
sierra
▁cuadrilla
roga
▁apóstol
thes
?".
xo
▁primaria
posi
▁copia
▁piña
anu
▁biga
onciano
▁ju
Mu
▁jueve
(3
ravo
olteo
▁nego
Ke
racea
▁Marce
rella
▁careo
▁glau
▁ci
▁centro
riscu
pido
▁probar
▁Tec
▁onomatopeya
▁tor
▁Simón
ludar
ferme
emet
entran
▁sacu
▁Agonandra
4=(2)=
usti
▁cuatros
▁panadero
atu
▁peso
oscor
iedrancha
mba
tris
▁azul
ndeju
piente
▁Yende
uerte
▁Muñoz
▁Cant
elipe
aniun
oro
dicio
sifi
dronio
▁Amphylo
▁obli
▁libre
lóbu
▁ese
▁so
testa
laria
▁cier
▁petróleo
uille
iciembre
▁agente
laya
▁Andre
vaja
guaje
▁Agregatun
▁luego
▁Estancia
▁Ajin
▁Cyperus
ficie
phisa
▁kun
▁Tauni
st
▁flores
▁candidato
surero
▁Blechnaceae
▁negro
▁sarajentu
gada
emen
▁estru
14=
Su
▁Mesón
Tá
▁era
32",
▁Acho
▁barda
▁tarraya
▁ardi
▁aproximadante
utón
▁coordinado
▁Minan
▁camposanto
rano
▁unos
de
▁seguían
▁doblez
▁seisciento
▁espuela
▁formato
ieja
xalis
sis
▁Arachnothryx
ábado
▁Educación
▁Ndio
▁sakan
▁muse
▁atender
illar
▁balazu
▁espá
▁base
stegui
lombi
▁zo
uitecto
madaji
▁trecientos
▁Silvinu
panero
▁ronda
ngi
tunda
uenos
▁Tie
pla
▁Sapo
yri
tinguir
▁agronómo
▁descanse
▁Malinaltepec
eru
▁Maritu
Xe
gambi
rouba
robab
thr
▁Maxi
▁Cuate
▁chilena
ja
▁Leonides
kwe
▁Benito
raleta
▁abundantes
sona
▁per
▁Boraginaceae
▁tel
▁secu
▁principiar
▁Erastu
▁comunitario
▁picar
▁xi
▁Alma
▁Catarina
▁Alb
▁mamá
stau
▁capsular
sitan
▁Ajan
▁muñe
▁patrón
▁guitarra
zul
▁platipus
ola
▁casos
▁crotalaria
▁Soni
▁ha
▁ConstantinoT
plás
▁Teba
▁laguna
▁distancia
cula
▁abund
choa
bium
▁grosor
▁Milio
▁matrimonio
▁Cuenta
▁teodoro
zu
cente
▁Emyrico
▁mediana
▁Marcela
elera
za
▁saxol
▁azozuca
▁septienbre
mion
▁veinticinco
icu
▁botón
ordar
ni
▁inf
▁Sideroxylon
▁Naciu
▁mañ
rono
▁solar
▁cerco
42.
▁Celes
?"
oteca
tinosos
ronomía
▁Adán
errera
culá
ryx
ológi
anta
tea
nazar
ngui
▁dios
▁tamarindo
▁dorada
cifo
▁espata
▁vio
▁mula
lutin
dente
▁je
rd
leta
▁Capul
▁apache
▁T
uacachabi
▁go
▁madura
cie
incón
▁doscientos
▁Chón
▁pañu
umi
▁pí
▁creencia
▁defe
▁salada
▁narco
▁carbonero
▁Kwen
ssan
▁Culá
▁sonso
brido
voca
ófilo
cida
▁rayar
▁rojizas
chilia
▁principale
▁Meza
edritu
zas
ío
piadaceae
peracha
▁alcanzar
▁Severiana
lende
▁bes
▁Eeeh
▁patrulla
banthus
▁Blanca
▁calar
▁mazana
==
gni
▁Ye
▁rastrera
▁Calix
,"
▁..
rome
▁hig
▁Alejand
▁puta
▁Xanth
▁batea
▁Cascabela
chun
if
Ju
▁pintu
endeju
▁crusi
inchi
vias
▁informativo
▁Ndwa
▁Taciu
▁mucha
jule
▁tumb
del
▁momento
▁novio
▁seren
▁vaporera
24".
▁señora
wi
esneriaceae
▁pieza
▁Aires
▁Abel
▁campaña
▁Minerva
▁ndwa
ma
▁Nde
▁yersi
▁nanchi
apinola
gui
▁ofi
▁albergue
riano
rear
aporub
▁lechuza
li
land
▁Lythraceae
critu
sico
tor
▁grabó
▁kiu
pe
▁detalle
▁Ichu
ógi
mbien
▁carre
▁Tonene
▁super
navalia
▁Campanulaceae
▁Santísimo
▁Myr
▁Anno
▁Tomá
apino
▁Mamey
▁Chali
▁trasparente
sonia
pingo
Apá
pción
má
▁cartilla
42"
▁subarbusto
▁coca
ticin
pil
▁Betu
▁istriano
▁Ciprianu
▁barcu
▁lefante
▁Tilapa
▁empresa
encia
amos
uez
parra
▁Combre
▁Siera
erónimo
▁Lamb
▁pendi
▁Lauraceae
xan
3."
▁setiembre
▁espinas
xper
fecto
ndi
▁Adian
▁tropical
vocar
Sábado
▁oso
▁pres
▁
bol
ística
lí
medad
orfiria
ensar
drina
▁apachi
▁ndo
cencia
▁confianza
▁trun
1=
▁Amphylophiun
▁Fabián
▁seiscientos
ki
▁lagarto
24.
sivo
abrón
▁pasti
▁presidencial
delai
migu
▁regalo
▁pala
▁Ar
▁canto
▁Solan
▁arco
▁pericu
▁ho
▁cuidar
storia
▁Lim
chy
irginia
riale
▁pendiente
parro
▁Melecio
▁hielo
▁colonia
▁Felici
ein
mbda
▁Tenochtitlán
▁volteo
iolaceae
I
▁Erasto
▁Cari
▁lagunilla
?",.
uelo
▁Sie
pin
zario
aumeri
▁biblio
(4)=
cuna
ces
▁puente
sti
jania
▁pandu
▁peciolos
eginu
▁chicle
▁arro
▁inpantio
▁Ndo
cho
▁pul
▁Ipo
uisito
mel
▁taller
▁mucuna
▁pam
bor
mia
hi
ledad
teo
lah
▁difunto
▁Miahuichán
▁Bravo
cadu
▁tijere
▁inflorescencia
▁novena
ues
▁Leazar
▁gloria
▁carril
racias
ridad
▁Soledad
dendru
▁caballo
▁Tenoch
▁seti
42?",.
stial
▁chimoya
▁Faba
▁Ch
▁domesticar
▁secreta
▁camo
▁además
▁apel
13,
Ko
▁Yu
nde
maed
cahua
gpcio
▁bro
▁hermandad
▁Migue
▁ruuun
edizas
▁punto
uin
▁buen
▁Justinu
icardo
▁barreta
iósdoris
onzález
▁mero
▁Sidronio
tem
▁campo
▁Lucía
nda
▁botella
permu
▁"
4?,
taria
▁Justo
(2)=2
▁Marcos
inola
▁jacaranda
▁Tamb
zále
▁Tov
▁boli
▁mañana
▁Tecu
nand
▁ah
▁Cirinu
▁bienes
mao
▁cui
lvula
▁China
▁K
▁maña
cimiento
▁Eso
▁Arnulfo
▁ej
undino
▁Clau
▁mercado
ongni
lacio
lva
ína
lala
llano
▁pasto
ngu
▁tarde
▁mandarina
▁Nufre
cerro
raz
llos
▁Cuar
▁masculina
▁Sesenta
tram
fiar
rago
2?".
se
odolfo
▁historia
we
.,
▁1.2
mpanu
▁muerte
▁Calleja
▁Concordia
▁tecolotillo
ji
trana
▁Lu
ónero
▁Aí
▁lunar
▁cuscu
▁eh
ter
lecio
▁macha
arathe
▁Coap
▁Nd
alemón
▁Apocy
sitta
▁licótiro
▁Mircinaceae
mena
▁Edmundo
erne
▁gru
chivo
▁secuestrar
▁Albinu
▁3.
acie
talle
ista
siki
madamente
▁fro
▁Elis
resado
ciento
▁manta
luo
ratea
▁cámara
(1)=
▁Confirmación
▁morada
▁Ipomoea
▁espiga
▁Manciu
▁apa
▁maestría
rompe
3".
odin
▁cuad
▁redo
▁Morales
▁Benchu
▁diccionario
enci
▁Cen
▁menu
▁santo
aulin
dizas
▁chitra
▁Salubi
▁febe
42,
▁cump
▁Jwe
carpus
▁opera
▁castila
pocy
señor
▁gui
▁guinda
ronómo
▁ingl
▁cabata
net
comisa
▁camioneta
formar
▁Lip
nardo
▁Jacobo
arbu
▁pue
3=2?",
uelas
▁castaña
▁Andres
▁Bon
▁Chamaedorea
cencio
tento
▁lupa
▁secuetrar
▁matatodo
▁Marias
nw
▁comunitaria
▁adiós
▁Febreru
▁anaranja
▁rey
cana
huaca
▁b
▁transparente
dela
42=
▁definitivo
▁tela
▁pasamano
▁los
▁veneno
▁espí
▁jard
3-
▁h
▁relación
▁comand
▁karateka
luso
ictoriano
tr
lind
yr
the
peada
▁Lorenzu
▁ga
▁mejor
▁pise
pn
pino
▁purp
▁fuera
ludismo
tihuacan
▁Candela
fortia
▁copu
pus
▁Malesiu
▁Yegua
permiso
embre
▁Melastomaceae
▁restauran
▁cuñadu
licto
▁Faustinu
uesu
elf
▁estandarte
myrico
funtu
▁Fatoso
ithe
▁Evaristo
▁produ
inter
▁Bueno
sidro
rucis
▁ter
▁corrido
▁yogante
▁Ciano
▁maestro
iedra
rali
3=(2)=
▁Fran
▁Santi
▁septiembre
matope
ermán
pcio
zuca
14-
▁kachi
▁decisión
▁Malvaceae
▁abogado
▁Arbusto
mbe
▁temp
▁dieciete
▁veladora
osalba
▁Chio
cisiete
aulina
Jun
▁torta
▁Antonio
▁'
▁Meti
▁Elía
▁llevar
▁Agre
▁..,
".
pito
▁Esteben
toriu
▁abuelo
▁perfume
ensia
arcía
ritorio
▁Euphorbiaceae
cingo
▁Librado
▁fin
▁avelo
▁niñu
icionar
▁originario
lav
▁Cura
oaceae
astrana
▁excesivo
celina
▁viaje
▁recuperar
gatun
raya
▁nava
▁Lamiaceae
▁¿
searia
▁cobrar
▁Tiburcio
▁tejido
▁reali
▁vigueta
▁Amado
niaceae
▁Miki
▁fronda
iper
▁Esta
rón
mamá
▁candela
ie
▁metros
▁congo
adre
24=2
checa
▁Mu
einti
▁pin
áxi
▁Mauricio
tres
▁comandancia
▁rojo
▁gló
▁jueves
▁Encana
▁pozo
ceta
▁encar
▁kilo
24",
▁tabla
▁Licania
▁Lole
lifolia
pecie
idar
guala
▁mole
▁santu
13=
melinaceae
ermis
▁Acantaceae
daluoe
rín
▁mbo
▁Ci
▁Xu
alem
reo
▁molendera
▁fidencio
▁bota
peraceae
)=
342
▁Sebi
lud
▁Chicu
cienda
fre
nide
ciocho
▁verdad
seudobo
43?
▁ancho
▁muñecu
▁Conna
▁Ni
od
▁famila
intil
el
▁magia
▁coleta
▁Bernand
ires
eja
ahui
uiera
▁graba
▁especialista
▁Ag
▁Achote
▁menudensia
4=2.
▁diámetro
▁Esca
loco
▁ejemplo
lau
cerra
▁masculinas
fai
▁fru
stum
▁diciembre
▁Tichu
▁alcohol
uich
▁Fruto
ra
▁ere
▁má
▁corredor
der
▁cinco
▁madu
▁primu
▁chofer
▁ruu
ccio
kia
uis
▁Estamos
phor
estra
temma
sangi
ufina
▁Setenta
pinia
run
dico
cter
▁Nyctaginaceae
madante
▁libru
▁vay
▁presentación
▁tubular
iejo
▁informante
(1
▁aplan
▁Loncho
▁blanca
ihua
tróleo
▁cena
▁Sebiu
▁testigo
orita
▁difer
mada
▁inte
Cabrón
▁amigus
▁Convu
▁pecera
▁Ti
▁crecimiento
▁tiempo
lanca
Bueno
ptien
▁Eleuterio
▁colindancia
riaka
Tian
▁Xim
ítica
Ku
