<unk>	0
<s>	0
</s>	0
▁n	-0
▁k	-1
an	-2
▁nd	-3
▁t	-4
▁ndi	-5
▁b	-6
▁y	-7
)=	-8
'4	-9
'1	-10
▁ba	-11
▁i	-12
▁j	-13
in	-14
4=	-15
un	-16
▁ku	-17
▁tan	-18
14	-19
ch	-20
▁ka	-21
nd	-22
ni	-23
2=	-24
▁s	-25
▁ya	-26
chi	-27
'3	-28
3=	-29
na	-30
▁kan	-31
ra	-32
▁nda	-33
▁ta	-34
▁na	-35
▁ji	-36
xi	-37
(3	-38
(3)=	-39
xa	-40
42	-41
kan	-42
▁ni	-43
▁ti	-44
▁kw	-45
(4	-46
(4)=	-47
4,	-48
3,	-49
▁sa	-50
ta	-51
13	-52
▁ko	-53
1-	-54
▁ja	-55
ri	-56
ku	-57
▁ñ	-58
▁yu	-59
bi	-60
▁kwa	-61
ka	-62
▁yo	-63
▁xa	-64
▁m	-65
1=	-66
yo	-67
ndo	-68
tu	-69
▁tu	-70
▁xi	-71
ndu	-72
▁ki	-73
yu	-74
2,	-75
▁ña	-76
2)=	-77
(2)=	-78
nda	-79
▁bi	-80
▁chi	-81
▁mi	-82
▁nu	-83
1,	-84
4-	-85
(1	-86
(1)=	-87
143	-88
on	-89
▁a	-90
kw	-91
ba	-92
ki	-93
ko	-94
3-	-95
run	-96
▁ñu	-97
▁ndu	-98
ñu	-99
nu	-100
▁ndo	-101
en	-102
▁an	-103
▁tun	-104
4.	-105
'14	-106
sa	-107
13-	-108
▁su	-109
tin	-110
▁si	-111
ndi	-112
to	-113
24	-114
▁so	-115
▁l	-116
kwa	-117
3.	-118
▁T	-119
▁be	-120
▁kwi	-121
tun	-122
▁c	-123
ya	-124
xin	-125
ma	-126
▁nde	-127
si	-128
▁p	-129
ti	-130
▁se	-131
(4)=2	-132
kwi	-133
so	-134
▁r	-135
mi	-136
▁Y	-137
(3)=2	-138
▁u	-139
su	-140
xu	-141
4=2	-142
▁tin	-143
nde	-144
▁ma	-145
▁kwe	-146
▁xu	-147
14-	-148
▁ke	-149
▁N	-150
▁lu	-151
▁ran	-152
▁"	-153
ga	-154
li	-155
▁Tan	-156
kun	-157
▁o	-158
▁Ya	-159
lu	-160
la	-161
24=	-162
nga	-163
1.	-164
▁¿	-165
or	-166
13=	-167
em	-168
▁pa	-169
tan	-170
'13	-171
ru	-172
42=	-173
▁S	-174
▁I	-175
▁tio	-176
ke	-177
te	-178
2.	-179
▁ju	-180
ar	-181
chiu	-182
pu	-183
▁A	-184
ña	-185
▁la	-186
▁is	-187
3=2	-188
da	-189
▁tiem	-190
re	-191
lo	-192
▁K	-193
▁M	-194
ci	-195
rra	-196
ja	-197
▁B	-198
chu	-199
▁C	-200
4?	-201
enta	-202
".	-203
ro	-204
▁cu	-205
▁co	-206
chun	-207
",	-208
32	-209
42,	-210
▁d	-211
▁tia	-212
ón	-213
▁J	-214
43,	-215
gu	-216
▁ch	-217
▁Ba	-218
▁h	-219
▁kwen	-220
▁re	-221
▁f	-222
▁Ti	-223
14=	-224
▁ndio	-225
di	-226
▁E	-227
le	-228
er	-229
▁jo	-230
▁rey	-231
ñor	-232
sun	-233
kin	-234
▁e	-235
ji	-236
pa	-237
▁señor	-238
▁ban	-239
▁v	-240
oro	-241
jo	-242
kwe	-243
▁Yo	-244
▁ye	-245
4(2)=	-246
▁Yu	-247
▁mb	-248
▁Sa	-249
143,	-250
▁me	-251
▁Ndi	-252
▁Na	-253
▁tiu	-254
▁hi	-255
cu	-256
▁F	-257
co	-258
▁Nda	-259
be	-260
▁te	-261
ju	-262
▁Ni	-263
Sa	-264
▁cuenta	-265
se	-266
do	-267
▁de	-268
▁in	-269
▁San	-270
os	-271
▁L	-272
▁X	-273
rru	-274
wa	-275
▁chiu	-276
xan	-277
▁An	-278
cha	-279
43.	-280
go	-281
▁ca	-282
eo	-283
(4)=2,	-284
▁li	-285
3?	-286
▁con	-287
ca	-288
▁san	-289
4".	-290
▁bu	-291
An	-292
4",	-293
ndio	-294
tro	-295
▁po	-296
bre	-297
▁Ta	-298
wi	-299
▁pad	-300
▁tian	-301
Tan	-302
migu	-303
ce	-304
de	-305
▁mu	-306
▁to	-307
sta	-308
tru	-309
▁pe	-310
▁amigu	-311
pe	-312
▁cuar	-313
ción	-314
▁pi	-315
▁un	-316
tino	-317
▁mbo	-318
cta	-319
▁cha	-320
lia	-321
▁Ko	-322
▁Ka	-323
▁Ja	-324
▁che	-325
ue	-326
▁xia	-327
▁cole	-328
ento	-329
doro	-330
▁Con	-331
▁Teo	-332
▁Teodoro	-333
▁kum	-334
▁Yolo	-335
tl	-336
▁colecta	-337
mu	-338
▁á	-339
▁Mar	-340
▁fa	-341
stan	-342
▁hijo	-343
car	-344
▁Xi	-345
óchi	-346
▁pan	-347
vi	-348
▁Constan	-349
▁Constantino	-350
▁Fi	-351
▁mil	-352
▁fami	-353
(3)=2,	-354
óchitl	-355
men	-356
▁Yolox	-357
▁Ju	-358
▁Yoloxóchitl	-359
inu	-360
ste	-361
mbre	-362
▁man	-363
▁cuarenta	-364
▁familia	-365
ía	-366
ie	-367
za	-368
4=2,	-369
▁mbu	-370
▁chio	-371
tí	-372
3".	-373
▁santu	-374
▁x	-375
▁colectar	-376
▁Ma	-377
ciento	-378
▁mesa	-379
ina	-380
▁no	-381
▁ndia	-382
tiu	-383
▁Mi	-384
lar	-385
sto	-386
▁En	-387
▁Este	-388
▁Tun	-389
▁car	-390
ua	-391
▁mas	-392
ban	-393
▁com	-394
cientos	-395
ve	-396
nima	-397
Nda	-398
rón	-399
▁Mm	-400
carna	-401
▁padre	-402
▁ánima	-403
▁Encarna	-404
▁Encarnación	-405
▁g	-406
(3)=2=	-407
we	-408
▁ndwi	-409
emp	-410
lan	-411
meno	-412
lomeno	-413
▁Filomeno	-414
es	-415
▁Ch	-416
cea	-417
lor	-418
jemp	-419
▁Esteban	-420
dalu	-421
▁toro	-422
dalupe	-423
jemplar	-424
1(3)=	-425
▁Juan	-426
▁Ejemplar	-427
uadalupe	-428
ceae	-429
ela	-430
zo	-431
2(4)=	-432
▁es	-433
▁vi	-434
▁Xa	-435
Na	-436
san	-437
tros	-438
▁can	-439
▁ho	-440
ente	-441
▁Kwa	-442
24,	-443
ui	-444
▁cin	-445
▁tre	-446
▁kiu	-447
ero	-448
rio	-449
ana	-450
cio	-451
▁Lo	-452
▁cho	-453
1",	-454
▁mula	-455
▁le	-456
▁maña	-457
ria	-458
▁conse	-459
cho	-460
ol	-461
ino	-462
▁novi	-463
gui	-464
▁Ca	-465
▁conseju	-466
▁dos	-467
cuenta	-468
1".	-469
▁kia	-470
14(3)=	-471
▁buta	-472
▁uta	-473
▁"¿	-474
▁flor	-475
▁Ki	-476
▁misa	-477
rinu	-478
du	-479
án	-480
bru	-481
uni	-482
3",	-483
▁comi	-484
▁pat	-485
ril	-486
▁patrón	-487
ed	-488
us	-489
▁padrinu	-490
uti	-491
▁tie	-492
2",	-493
▁metros	-494
▁Ji	-495
lón	-496
ngui	-497
▁cua	-498
▁xe	-499
ren	-500
▁libru	-501
ran	-502
gua	-503
dela	-504
▁hombre	-505
Ya	-506
ngo	-507
▁Su	-508
utista	-509
▁Sie	-510
▁Bautista	-511
stu	-512
Ba	-513
▁fe	-514
▁nwa	-515
▁Sierra	-516
2?	-517
gh	-518
me	-519
ontan	-520
▁high	-521
▁tres	-522
▁sp	-523
▁ranchu	-524
eous	-525
▁mango	-526
▁spontan	-527
▁spontaneous	-528
mo	-529
▁Bi	-530
▁caf	-531
▁candela	-532
▁Marcu	-533
4=2=	-534
▁carru	-535
▁Si	-536
▁Fran	-537
sti	-538
▁tra	-539
▁Chi	-540
▁fecha	-541
▁pu	-542
▁va	-543
cis	-544
eve	-545
▁bo	-546
ora	-547
erte	-548
▁mar	-549
rraya	-550
▁Francis	-551
▁ver	-552
▁tarraya	-553
nero	-554
4=2.	-555
▁pozo	-556
▁ci	-557
▁pos	-558
▁Ku	-559
▁xo	-560
▁cinco	-561
▁poste	-562
1?	-563
pi	-564
rb	-565
dre	-566
tor	-567
chio	-568
42.	-569
cía	-570
llo	-571
▁Tio	-572
13,	-573
▁do	-574
▁metru	-575
gue	-576
▁pesu	-577
▁machu	-578
▁verde	-579
pá	-580
má	-581
3=2,	-582
chiti	-583
(4)=2.	-584
sin	-585
▁ve	-586
▁machiti	-587
Bi	-588
▁ton	-589
unta	-590
▁cuatro	-591
ete	-592
▁suerte	-593
▁Cin	-594
▁chu	-595
▁mis	-596
▁Cincuenta	-597
tísi	-598
▁Tu	-599
24=2	-600
▁fru	-601
▁jwe	-602
▁doscientos	-603
gi	-604
▁gua	-605
▁compa	-606
is	-607
▁cen	-608
▁panela	-609
2".	-610
Ndi	-611
▁za	-612
cuela	-613
▁papá	-614
▁die	-615
mba	-616
▁seña	-617
▁costa	-618
tín	-619
▁oro	-620
▁guachu	-621
▁comisa	-622
Ko	-623
yó	-624
32,	-625
▁Ndu	-626
▁mayó	-627
▁ocho	-628
▁costu	-629
▁santísi	-630
▁costumbre	-631
▁fruto	-632
▁novia	-633
▁escuela	-634
ano	-635
chin	-636
13=2	-637
▁Jos	-638
▁palo	-639
▁trescientos	-640
▁sien	-641
▁Casti	-642
lio	-643
▁lo	-644
mb	-645
▁nueve	-646
▁paloma	-647
▁puente	-648
▁tienda	-649
ye	-650
kwin	-651
▁sia	-652
▁vein	-653
ín	-654
pul	-655
▁pre	-656
▁Be	-657
▁novio	-658
43	-659
▁ab	-660
rbol	-661
▁Lui	-662
encio	-663
▁coco	-664
▁María	-665
▁cincuenta	-666
▁pelón	-667
Ta	-668
no	-669
pro	-670
ctor	-671
tíme	-672
▁blan	-673
▁centíme	-674
▁compadre	-675
fi	-676
▁di	-677
brón	-678
edru	-679
▁comisario	-680
▁ga	-681
▁mm	-682
▁So	-683
ueru	-684
▁Luis	-685
▁mamá	-686
Yo	-687
ante	-688
patu	-689
▁Kwi	-690
▁pro	-691
▁seis	-692
▁zapatu	-693
au	-694
▁mo	-695
▁junta	-696
▁cabrón	-697
▁Castillo	-698
va	-699
32=	-700
▁ro	-701
▁Francisco	-702
▁en	-703
mana	-704
dencio	-705
▁Se	-706
▁cor	-707
▁viga	-708
▁Fidencio	-709
▁Cu	-710
▁Me	-711
(3)=2.	-712
▁árbol	-713
▁santísima	-714
am	-715
po	-716
▁el	-717
embre	-718
▁blanca	-719
▁Co	-720
▁La	-721
▁Ne	-722
▁bar	-723
Kwa	-724
ris	-725
▁má	-726
erba	-727
▁Aca	-728
arcía	-729
chito	-730
lla	-731
tar	-732
▁ne	-733
▁ra	-734
▁bote	-735
cia	-736
cie	-737
▁Lu	-738
▁pasto	-739
ómu	-740
mente	-741
talón	-742
ómulo	-743
▁apro	-744
▁pantalón	-745
ngi	-746
tón	-747
zana	-748
▁lim	-749
▁Maxi	-750
and	-751
edro	-752
mada	-753
olsa	-754
unto	-755
▁Jes	-756
▁aproxi	-757
▁tiempu	-758
anu	-759
gar	-760
▁Nu	-761
▁Toro	-762
▁bolsa	-763
▁siete	-764
▁hierba	-765
madamente	-766
▁aproximadamente	-767
uina	-768
1(4)=	-769
▁pala	-770
jwe	-771
▁Ndo	-772
▁mayu	-773
▁Nechito	-774
fe	-775
je	-776
inta	-777
rilla	-778
lin	-779
▁Kwe	-780
ño	-781
lem	-782
3=2=	-783
▁chin	-784
▁hija	-785
▁Santi	-786
Ka	-787
tán	-788
erre	-789
▁las	-790
▁uno	-791
▁gastu	-792
▁traba	-793
íjo	-794
▁Fa	-795
▁ar	-796
gada	-797
▁pri	-798
íjole	-799
▁como	-800
▁cuarto	-801
▁Franciscu	-802
▁tru	-803
gueta	-804
▁poli	-805
niu	-806
▁Ce	-807
▁go	-808
▁ama	-809
▁diez	-810
▁trabajo	-811
▁vigueta	-812
tra	-813
óni	-814
▁sá	-815
4?".	-816
▁ven	-817
▁reina	-818
lemente	-819
▁Martín	-820
Ku	-821
▁fre	-822
▁trum	-823
▁marzo	-824
dor	-825
▁don	-826
eróni	-827
garru	-828
▁treinta	-829
ombre	-830
▁frenu	-831
▁cigarru	-832
▁manzana	-833
bab	-834
dad	-835
misa	-836
▁Tia	-837
▁cer	-838
3(2)=	-839
▁abril	-840
▁chingada	-841
bablemente	-842
ab	-843
che	-844
día	-845
sión	-846
undo	-847
▁gra	-848
aceae	-849
tenta	-850
▁flores	-851
▁sandía	-852
▁Al	-853
dena	-854
▁Cha	-855
pulco	-856
▁cara	-857
andante	-858
▁camisa	-859
▁cuatrocientos	-860
▁probablemente	-861
xo	-862
zu	-863
zá	-864
cin	-865
lez	-866
ono	-867
juco	-868
veza	-869
▁Mau	-870
▁efe	-871
ictor	-872
stola	-873
▁Cris	-874
▁Salu	-875
▁punto	-876
(4)=2".	-877
▁cerveza	-878
▁pistola	-879
▁comandante	-880
▁centímetros	-881
Yu	-882
ern	-883
▁Jo	-884
▁Li	-885
onzá	-886
▁mul	-887
encia	-888
senta	-889
▁Flor	-890
▁Meza	-891
▁Tinu	-892
errero	-893
erónimo	-894
onzález	-895
▁lechin	-896
ictorino	-897
4?,	-898
▁Te	-899
▁ha	-900
teca	-901
▁una	-902
(4)=2",	-903
▁comisión	-904
óf	-905
14,	-906
era	-907
ter	-908
tio	-909
blio	-910
uesu	-911
▁siu	-912
storia	-913
▁graba	-914
▁lugar	-915
▁Salubi	-916
▁biblio	-917
▁Jerónimo	-918
▁historia	-919
▁biblioteca	-920
24.	-921
ciu	-922
amos	-923
chia	-924
guel	-925
ndwa	-926
▁sec	-927
óforo	-928
▁Anto	-929
▁Mate	-930
▁hora	-931
▁juni	-932
▁caraju	-933
▁Crisóforo	-934
bo	-935
ey	-936
eru	-937
rea	-938
rma	-939
▁kwo	-940
▁pla	-941
▁Copa	-942
▁raya	-943
▁policía	-944
▁amarilla	-945
▁al	-946
icar	-947
ritu	-948
▁niu	-949
▁via	-950
unijo	-951
▁mole	-952
▁rosa	-953
entino	-954
icardo	-955
▁junio	-956
▁cadena	-957
▁cunijo	-958
les	-959
uin	-960
42",	-961
lera	-962
▁Cuar	-963
▁viaje	-964
▁semana	-965
▁Cuarenta	-966
4?"	-967
eno	-968
erm	-969
mbo	-970
món	-971
▁fo	-972
▁ru	-973
▁Bar	-974
▁caja	-975
raceae	-976
▁Miguel	-977
Ti	-978
bu	-979
ea	-980
eli	-981
riu	-982
una	-983
▁In	-984
▁Ke	-985
▁pila	-986
▁bejuco	-987
▁Antoniu	-988
▁Acapulco	-989
Su	-990
jun	-991
▁Ci	-992
4?",	-993
liano	-994
▁patu	-995
▁Simón	-996
▁tratu	-997
▁correa	-998
▁veinti	-999
▁centímetro	-1000
lao	-1001
tana	-1002
vita	-1003
▁Nde	-1004
▁cam	-1005
▁mba	-1006
▁swa	-1007
▁Tiem	-1008
▁Marga	-1009
▁Santa	-1010
miliano	-1011
▁híjole	-1012
▁sesenta	-1013
el	-1014
ró	-1015
bla	-1016
dio	-1017
pan	-1018
zar	-1019
▁lá	-1020
ando	-1021
bado	-1022
reta	-1023
venta	-1024
▁Loso	-1025
▁mala	-1026
▁Capul	-1027
ciembre	-1028
▁Copala	-1029
▁sumana	-1030
Ja	-1031
Ni	-1032
al	-1033
vil	-1034
ence	-1035
miso	-1036
raja	-1037
rito	-1038
▁And	-1039
▁jwi	-1040
▁kas	-1041
▁ria	-1042
riano	-1043
▁Mora	-1044
▁arró	-1045
▁loco	-1046
▁riata	-1047
▁baraja	-1048
▁sábado	-1049
▁Santiau	-1050
▁ventana	-1051
▁Maximiliano	-1052
vo	-1053
nar	-1054
▁ag	-1055
▁ua	-1056
tero	-1057
▁Andr	-1058
▁Betu	-1059
▁maes	-1060
▁pañu	-1061
▁mismo	-1062
▁uachu	-1063
▁cartón	-1064
▁doctor	-1065
▁veinte	-1066
▁setenta	-1067
▁diciembre	-1068
lle	-1069
llu	-1070
rbu	-1071
ños	-1072
▁Le	-1073
cito	-1074
▁Agu	-1075
enchu	-1076
unici	-1077
▁Faba	-1078
▁años	-1079
▁cuña	-1080
▁mora	-1081
▁Maxim	-1082
▁manta	-1083
uerrero	-1084
cer	-1085
nia	-1086
▁To	-1087
▁ce	-1088
sica	-1089
▁Xim	-1090
▁oso	-1091
▁par	-1092
ences	-1093
unión	-1094
rbusto	-1095
▁munici	-1096
▁palacio	-1097
▁Fabaceae	-1098
ijo	-1099
jón	-1100
oma	-1101
cina	-1102
hete	-1103
onso	-1104
xico	-1105
▁Man	-1106
risto	-1107
▁Agus	-1108
▁Fern	-1109
▁cuad	-1110
▁espe	-1111
▁loro	-1112
▁civil	-1113
▁tabla	-1114
▁cohete	-1115
▁Capulcu	-1116
▁Fernando	-1117
ge	-1118
áz	-1119
▁gu	-1120
lina	-1121
lota	-1122
osto	-1123
tinu	-1124
▁Alf	-1125
▁Car	-1126
▁swi	-1127
4=2",	-1128
▁ante	-1129
▁comit	-1130
▁pelota	-1131
enceslao	-1132
▁Alfonso	-1133
▁Margarito	-1134
par	-1135
pin	-1136
tre	-1137
▁Ad	-1138
▁fi	-1139
erno	-1140
esti	-1141
rote	-1142
ínea	-1143
mundo	-1144
▁foto	-1145
▁luni	-1146
▁pedi	-1147
▁plan	-1148
cienda	-1149
▁bueno	-1150
▁línea	-1151
▁agosto	-1152
▁Agustín	-1153
▁hacienda	-1154
Ji	-1155
rg	-1156
ica	-1157
osa	-1158
pio	-1159
ylo	-1160
uido	-1161
yote	-1162
▁och	-1163
▁rea	-1164
▁sti	-1165
gocio	-1166
▁boli	-1167
estido	-1168
▁julio	-1169
▁madre	-1170
▁Lenchu	-1171
▁coyote	-1172
▁mulinu	-1173
▁barrote	-1174
▁especie	-1175
▁ochenta	-1176
▁vestido	-1177
Xi	-1178
lpe	-1179
▁Bu	-1180
3=2.	-1181
tlán	-1182
▁cre	-1183
▁tor	-1184
mento	-1185
pitán	-1186
terno	-1187
▁Seve	-1188
▁gobi	-1189
(4)=2=	-1190
cencia	-1191
▁confi	-1192
▁golpe	-1193
▁metro	-1194
▁prima	-1195
(3)=2".	-1196
▁cocina	-1197
▁eterno	-1198
▁verdes	-1199
▁negocio	-1200
▁noventa	-1201
▁pedidor	-1202
▁gobierno	-1203
▁municipio	-1204
il	-1205
ani	-1206
sia	-1207
132=	-1208
alen	-1209
tolo	-1210
▁dom	-1211
▁jue	-1212
mbora	-1213
▁Adán	-1214
▁Feli	-1215
▁Sala	-1216
▁cueru	-1217
▁naylo	-1218
▁panda	-1219
▁reata	-1220
▁Jovita	-1221
▁Santia	-1222
▁cantor	-1223
▁Bartolo	-1224
▁capitán	-1225
▁Maximino	-1226
gra	-1227
jin	-1228
los	-1229
lín	-1230
mar	-1231
sca	-1232
sid	-1233
und	-1234
▁cá	-1235
ingu	-1236
lpan	-1237
▁Leo	-1238
▁per	-1239
▁por	-1240
cingo	-1241
uince	-1242
▁Alan	-1243
▁nove	-1244
▁vasu	-1245
edritu	-1246
▁Celes	-1247
▁abono	-1248
(3)=2",	-1249
▁Acatlán	-1250
▁Chilpan	-1251
▁arbusto	-1252
▁Santiago	-1253
▁comunión	-1254
▁Severiano	-1255
▁santísimo	-1256
▁Florentino	-1257
▁Chilpancingo	-1258
32.	-1259
aul	-1260
lau	-1261
rro	-1262
▁Ed	-1263
▁gui	-1264
▁pel	-1265
tarra	-1266
▁Tian	-1267
▁lista	-1268
▁tejón	-1269
▁Felipe	-1270
▁bolita	-1271
▁Edmundo	-1272
▁domingu	-1273
▁ndiolín	-1274
▁tambora	-1275
▁guitarra	-1276
▁grabación	-1277
enos	-1278
inan	-1279
ueve	-1280
uila	-1281
▁Sec	-1282
▁esta	-1283
▁peri	-1284
▁Mauru	-1285
▁manda	-1286
rmación	-1287
▁Mateyu	-1288
▁morada	-1289
▁Juancito	-1290
3?,	-1291
ctu	-1292
dia	-1293
rue	-1294
▁lí	-1295
42".	-1296
cino	-1297
erni	-1298
erto	-1299
guán	-1300
ndwi	-1301
riel	-1302
▁jan	-1303
▁jin	-1304
▁kla	-1305
lonia	-1306
nardo	-1307
zario	-1308
▁tubo	-1309
▁vela	-1310
aulino	-1311
▁Alana	-1312
▁cuate	-1313
▁dieci	-1314
▁jueve	-1315
▁mucha	-1316
▁canica	-1317
▁compañ	-1318
▁cuñadu	-1319
▁presid	-1320
▁zaguán	-1321
▁Nazario	-1322
▁maestro	-1323
▁confirmación	-1324
132	-1325
ble	-1326
can	-1327
ini	-1328
irg	-1329
pti	-1330
▁Es	-1331
▁um	-1332
unda	-1333
ñora	-1334
▁Sil	-1335
▁los	-1336
▁Loma	-1337
▁Ndio	-1338
▁inge	-1339
▁lata	-1340
taceae	-1341
▁firma	-1342
▁juego	-1343
▁Salazar	-1344
▁colonia	-1345
▁fotogra	-1346
▁Leonardo	-1347
▁muchacho	-1348
▁compañero	-1349
'2	-1350
4"	-1351
eg	-1352
bra	-1353
hue	-1354
mbe	-1355
nio	-1356
▁ah	-1357
asto	-1358
bana	-1359
beta	-1360
mina	-1361
rilo	-1362
rita	-1363
▁Cru	-1364
▁Eva	-1365
4=2".	-1366
onera	-1367
vitar	-1368
▁Sole	-1369
abriel	-1370
daceae	-1371
naceae	-1372
undino	-1373
▁Cuana	-1374
▁Mario	-1375
▁Mauro	-1376
▁letra	-1377
▁recta	-1378
▁yegua	-1379
▁cubeta	-1380
▁ingeni	-1381
▁sábana	-1382
▁vierni	-1383
cenciado	-1384
▁invitar	-1385
▁secreta	-1386
▁Secundino	-1387
Ki	-1388
th	-1389
ber	-1390
dar	-1391
esu	-1392
rco	-1393
chón	-1394
esma	-1395
esuc	-1396
lano	-1397
leta	-1398
stón	-1399
tina	-1400
▁del	-1401
▁moj	-1402
mbada	-1403
rillu	-1404
▁Aste	-1405
▁chia	-1406
▁cien	-1407
▁doce	-1408
▁esca	-1409
▁espa	-1410
▁niño	-1411
▁niñu	-1412
▁Jesuc	-1413
▁multa	-1414
▁plaga	-1415
undaria	-1416
▁Cirilo	-1417
▁cuadro	-1418
▁vecino	-1419
▁tumbada	-1420
▁cuaresma	-1421
▁mojonera	-1422
▁noviembre	-1423
▁Asteraceae	-1424
▁Jesucristo	-1425
▁licenciado	-1426
▁presidente	-1427
▁secretariu	-1428
▁novecientos	-1429
ís	-1430
13.	-1431
?".	-1432
der	-1433
tex	-1434
tri	-1435
▁Ye	-1436
engo	-1437
▁Cor	-1438
▁bis	-1439
▁gru	-1440
▁seg	-1441
▁vie	-1442
astor	-1443
ermán	-1444
gante	-1445
rcole	-1446
torio	-1447
▁Teyu	-1448
▁camp	-1449
▁octu	-1450
▁burru	-1451
▁listo	-1452
▁marte	-1453
▁septi	-1454
tinueve	-1455
▁carpin	-1456
▁compro	-1457
▁grabar	-1458
▁pozoli	-1459
▁señora	-1460
▁solera	-1461
▁Soledad	-1462
▁blancas	-1463
▁octubre	-1464
▁permiso	-1465
▁segundo	-1466
▁escalera	-1467
▁secundaria	-1468
pí	-1469
3?"	-1470
fer	-1471
ton	-1472
▁gi	-1473
inio	-1474
pera	-1475
tica	-1476
tura	-1477
uini	-1478
▁Can	-1479
▁adi	-1480
▁lag	-1481
▁pur	-1482
▁sol	-1483
breru	-1484
chara	-1485
cinco	-1486
siete	-1487
uehue	-1488
▁Mala	-1489
▁Niño	-1490
▁copa	-1491
▁cose	-1492
▁musu	-1493
▁ndwe	-1494
▁neru	-1495
▁para	-1496
▁tina	-1497
▁Flore	-1498
▁litru	-1499
▁trago	-1500
▁barril	-1501
▁bastón	-1502
▁cuarta	-1503
▁espada	-1504
▁mastru	-1505
▁muerte	-1506
uehuetán	-1507
uiniento	-1508
▁campana	-1509
▁cuchara	-1510
▁gigante	-1511
▁velación	-1512
▁compromiso	-1513
▁septiembre	-1514
Si	-1515
lá	-1516
um	-1517
▁Eu	-1518
▁au	-1519
▁pr	-1520
43".	-1521
anta	-1522
cado	-1523
orma	-1524
ueda	-1525
▁Chu	-1526
▁cro	-1527
▁des	-1528
blema	-1529
riado	-1530
rueba	-1531
uelia	-1532
vista	-1533
▁bala	-1534
▁herm	-1535
▁taza	-1536
▁vinu	-1537
tación	-1538
▁Señor	-1539
▁becer	-1540
▁china	-1541
▁marca	-1542
▁primu	-1543
▁yunta	-1544
irginio	-1545
▁frutos	-1546
▁mazana	-1547
▁prueba	-1548
▁Setenta	-1549
▁barreta	-1550
▁cerillu	-1551
▁cosecha	-1552
uedamento	-1553
▁carpintero	-1554
▁comisariado	-1555
▁veinticinco	-1556
▁veintinueve	-1557
4'	-1558
ala	-1559
ene	-1560
ire	-1561
psu	-1562
ula	-1563
wen	-1564
▁Ah	-1565
▁on	-1566
jido	-1567
▁Cel	-1568
▁jun	-1569
▁lan	-1570
▁lla	-1571
▁mañ	-1572
▁pin	-1573
ciona	-1574
vinan	-1575
▁Cama	-1576
▁Cruz	-1577
▁Kwen	-1578
▁león	-1579
▁luna	-1580
▁once	-1581
▁Mateo	-1582
▁planu	-1583
▁poder	-1584
▁presu	-1585
▁testi	-1586
vinanza	-1587
▁Buenos	-1588
▁Morale	-1589
▁laguna	-1590
▁lámina	-1591
▁Candela	-1592
▁becerru	-1593
▁botella	-1594
▁herrero	-1595
▁mandado	-1596
▁problema	-1597
▁adivinanza	-1598
So	-1599
as	-1600
cí	-1601
hi	-1602
Kwi	-1603
Ndo	-1604
Ndu	-1605
bañ	-1606
eza	-1607
lba	-1608
mpa	-1609
nil	-1610
pec	-1611
arcu	-1612
eliu	-1613
erná	-1614
león	-1615
lido	-1616
stau	-1617
uena	-1618
▁Cua	-1619
▁Edu	-1620
▁Tol	-1621
▁ani	-1622
▁mbe	-1623
▁ser	-1624
bañil	-1625
ndeju	-1626
ndera	-1627
psula	-1628
tepec	-1629
▁Corn	-1630
▁bale	-1631
▁guar	-1632
▁lima	-1633
▁picu	-1634
▁pres	-1635
▁unos	-1636
▁Chicu	-1637
▁Santu	-1638
▁carga	-1639
▁carta	-1640
▁ejido	-1641
▁enero	-1642
▁grupo	-1643
▁látex	-1644
▁pieza	-1645
▁sobre	-1646
▁vaina	-1647
ernánde	-1648
▁Sotero	-1649
▁amaril	-1650
▁balazu	-1651
▁carnil	-1652
▁charcu	-1653
▁restau	-1654
antaleón	-1655
▁albañil	-1656
▁cápsula	-1657
▁pastora	-1658
bá	-1659
ez	-1660
rd	-1661
cep	-1662
cto	-1663
gru	-1664
per	-1665
ría	-1666
uio	-1667
uín	-1668
▁fu	-1669
ablu	-1670
anja	-1671
dico	-1672
eniu	-1673
liar	-1674
uitu	-1675
zama	-1676
▁Joa	-1677
▁glo	-1678
▁sil	-1679
3=2".	-1680
anchu	-1681
lagru	-1682
riada	-1683
rianu	-1684
sóchi	-1685
▁Mino	-1686
▁Tomá	-1687
▁anar	-1688
▁caso	-1689
▁medi	-1690
▁segu	-1691
caceae	-1692
cación	-1693
miento	-1694
osalba	-1695
▁Buena	-1696
▁Yegua	-1697
▁color	-1698
▁fruta	-1699
▁hasta	-1700
▁lucha	-1701
▁medio	-1702
▁pintu	-1703
▁preba	-1704
▁tambo	-1705
▁tengo	-1706
alentin	-1707
alentín	-1708
biaceae	-1709
▁Estela	-1710
▁Lezama	-1711
▁chofer	-1712
▁ciento	-1713
▁gloria	-1714
▁Santísi	-1715
▁febreru	-1716
▁milagru	-1717
▁Castillu	-1718
▁Corneliu	-1719
▁Martínez	-1720
▁anaranja	-1721
▁familiar	-1722
▁Celestino	-1723
▁Celestinu	-1724
▁Yolosóchi	-1725
▁fotografi	-1726
▁ingenieru	-1727
▁restauran	-1728
Se	-1729
Xa	-1730
et	-1731
ñi	-1732
41?	-1733
dos	-1734
gio	-1735
liz	-1736
ozo	-1737
til	-1738
uel	-1739
▁As	-1740
▁pá	-1741
3?".	-1742
ejun	-1743
erra	-1744
fita	-1745
galo	-1746
inar	-1747
lapa	-1748
rale	-1749
seis	-1750
▁Tre	-1751
▁coo	-1752
▁dif	-1753
▁epí	-1754
▁mer	-1755
▁tro	-1756
4(3)=	-1757
cente	-1758
gunta	-1759
tribu	-1760
utizo	-1761
▁Beni	-1762
▁Faus	-1763
▁Lalu	-1764
▁Mane	-1765
▁Tino	-1766
▁acep	-1767
▁bota	-1768
▁kilo	-1769
▁manu	-1770
▁ramu	-1771
▁roji	-1772
▁tabi	-1773
▁taxi	-1774
▁tren	-1775
ciendo	-1776
hombre	-1777
olinar	-1778
▁Celso	-1779
▁Silve	-1780
▁entre	-1781
▁forma	-1782
▁purga	-1783
▁santo	-1784
inaceae	-1785
▁Cristo	-1786
▁blanco	-1787
▁cuñada	-1788
▁invita	-1789
▁regalo	-1790
▁aceptar	-1791
▁bautizo	-1792
▁conejun	-1793
▁coopera	-1794
▁estribu	-1795
▁guardia	-1796
▁maestru	-1797
▁pregunta	-1798
▁amarillas	-1799
▁Candelaria	-1800
▁purgatorio	-1801
▁restaurant	-1802
?"	-1803
Mi	-1804
amí	-1805
dra	-1806
ena	-1807
eña	-1808
ira	-1809
ngu	-1810
poc	-1811
scu	-1812
sul	-1813
▁El	-1814
▁Mo	-1815
▁Xu	-1816
▁ri	-1817
anar	-1818
argo	-1819
cada	-1820
cuer	-1821
ebru	-1822
hijo	-1823
lito	-1824
onci	-1825
rizo	-1826
stre	-1827
▁Jus	-1828
▁Juv	-1829
▁Ses	-1830
▁inf	-1831
▁kar	-1832
▁ley	-1833
Amigu	-1834
amíre	-1835
anuto	-1836
lilla	-1837
milia	-1838
recho	-1839
teria	-1840
▁Aire	-1841
▁Igua	-1842
▁Lamb	-1843
▁chan	-1844
▁estu	-1845
▁hoja	-1846
▁prim	-1847
▁rojo	-1848
chitán	-1849
eñaira	-1850
▁corte	-1851
▁cáliz	-1852
▁dotor	-1853
▁ganar	-1854
▁largo	-1855
▁manga	-1856
▁renta	-1857
▁tomar	-1858
▁torre	-1859
niaceae	-1860
▁Canuto	-1861
▁antena	-1862
▁carril	-1863
▁chapar	-1864
▁criada	-1865
▁pericu	-1866
▁planta	-1867
▁seguro	-1868
▁Capulco	-1869
▁Carrizo	-1870
▁Familia	-1871
▁Sesenta	-1872
▁derecho	-1873
▁epífita	-1874
▁mascada	-1875
▁Juchitán	-1876
▁Lamberto	-1877
▁presenta	-1878
▁Juventino	-1879
▁diecisiete	-1880
▁fotografiar	-1881
Ma	-1882
eh	-1883
ph	-1884
▁2	-1885
2?,	-1886
41,	-1887
?",	-1888
amu	-1889
asu	-1890
bri	-1891
cor	-1892
enu	-1893
eri	-1894
itu	-1895
kia	-1896
las	-1897
liu	-1898
lva	-1899
mbi	-1900
pes	-1901
por	-1902
pue	-1903
tla	-1904
uez	-1905
ven	-1906
▁Ar	-1907
▁Fe	-1908
▁Is	-1909
▁No	-1910
▁ap	-1911
▁ex	-1912
1?".	-1913
2?",	-1914
ablo	-1915
ania	-1916
arca	-1917
asca	-1918
dura	-1919
fono	-1920
ingo	-1921
jito	-1922
loti	-1923
ndia	-1924
rchi	-1925
sita	-1926
tori	-1927
vaja	-1928
vula	-1929
zuca	-1930
▁Che	-1931
▁Ele	-1932
▁Lor	-1933
▁Tiu	-1934
▁ahí	-1935
▁bes	-1936
▁dic	-1937
▁pul	-1938
▁tel	-1939
▁twi	-1940
▁uva	-1941
24=2,	-1942
3=2",	-1943
bertu	-1944
ctica	-1945
donio	-1946
jilla	-1947
junto	-1948
lanca	-1949
lianu	-1950
scara	-1951
órale	-1952
▁Clau	-1953
▁Silv	-1954
▁cabe	-1955
▁dire	-1956
▁este	-1957
▁peso	-1958
▁roja	-1959
▁vaca	-1960
▁vida	-1961
puesta	-1962
▁Eusta	-1963
▁Luciu	-1964
▁Naciu	-1965
▁inter	-1966
▁marzu	-1967
liaceae	-1968
▁Bejuco	-1969
▁anillo	-1970
▁campes	-1971
▁centro	-1972
▁comida	-1973
▁consul	-1974
▁estado	-1975
▁navaja	-1976
▁pachón	-1977
▁primal	-1978
cionario	-1979
ginaceae	-1980
lanaceae	-1981
▁Claudio	-1982
▁Marianu	-1983
▁Treinta	-1984
▁Yeguada	-1985
▁colegio	-1986
▁fajilla	-1987
▁materia	-1988
▁máscara	-1989
▁pendeju	-1990
▁testigu	-1991
▁varilla	-1992
▁viejito	-1993
▁conjunto	-1994
▁dotación	-1995
▁invitado	-1996
▁presente	-1997
rchidaceae	-1998
▁creciendo	-1999
▁Buenavista	-2000
▁costalilla	-2001
▁diccionario	-2002
1"	-2003
3"	-2004
Ay	-2005
TA	-2006
ng	-2007
▁,	-2008
43?	-2009
apá	-2010
bes	-2011
blo	-2012
bur	-2013
cle	-2014
eca	-2015
fía	-2016
gno	-2017
ile	-2018
jar	-2019
pal	-2020
piu	-2021
ten	-2022
uie	-2023
ute	-2024
▁Ap	-2025
▁CB	-2026
▁ay	-2027
▁hu	-2028
▁je	-2029
▁sí	-2030
adre	-2031
ardo	-2032
chil	-2033
dera	-2034
dora	-2035
egro	-2036
emet	-2037
enci	-2038
etra	-2039
gado	-2040
jand	-2041
orfi	-2042
paña	-2043
pocy	-2044
rdín	-2045
rino	-2046
tera	-2047
time	-2048
▁Ale	-2049
▁Alí	-2050
▁ave	-2051
▁col	-2052
▁cru	-2053
▁edu	-2054
▁gor	-2055
▁prá	-2056
▁pue	-2057
13=2,	-2058
oncho	-2059
sidad	-2060
trona	-2061
▁Asís	-2062
▁Babá	-2063
▁Cele	-2064
▁Conv	-2065
▁Lipe	-2066
▁Male	-2067
▁Menu	-2068
▁coro	-2069
▁espi	-2070
▁lomu	-2071
▁mono	-2072
▁nací	-2073
▁ndwa	-2074
▁nomá	-2075
▁seño	-2076
gación	-2077
ltepec	-2078
uterio	-2079
▁Apocy	-2080
▁Chanu	-2081
▁Conna	-2082
▁Cuate	-2083
▁buena	-2084
▁carre	-2085
▁gusto	-2086
▁joven	-2087
▁liana	-2088
▁pobre	-2089
▁tanto	-2090
anchito	-2091
emetria	-2092
oncianu	-2093
▁Barrio	-2094
▁Benitu	-2095
▁Carlos	-2096
▁Francu	-2097
▁Manuel	-2098
▁autori	-2099
▁jardín	-2100
▁pálido	-2101
▁rosada	-2102
▁suegro	-2103
▁venenu	-2104
cimiento	-2105
ernández	-2106
vulaceae	-2107
▁Eduardo	-2108
▁Morales	-2109
▁centime	-2110
▁difunto	-2111
▁hermano	-2112
▁patrona	-2113
▁reventa	-2114
▁Apolinar	-2115
▁amarillo	-2116
▁primaria	-2117
▁práctica	-2118
▁señorita	-2119
gnoniaceae	-2120
▁Eleuterio	-2121
▁balendera	-2122
▁campesino	-2123
▁consultar	-2124
▁dieciseis	-2125
▁educación	-2126
▁familiares	-2127
▁fotografía	-2128
▁Apocynaceae	-2129
Mm	-2130
Nu	-2131
dr	-2132
fo	-2133
ia	-2134
ló	-2135
1?,	-2136
342	-2137
apa	-2138
bio	-2139
cur	-2140
dón	-2141
elo	-2142
eta	-2143
fre	-2144
hua	-2145
hui	-2146
ija	-2147
ila	-2148
ito	-2149
lud	-2150
oni	-2151
rdo	-2152
sar	-2153
sea	-2154
sio	-2155
tia	-2156
var	-2157
▁he	-2158
14=2	-2159
ache	-2160
aulu	-2161
bido	-2162
cela	-2163
cena	-2164
ches	-2165
dero	-2166
duro	-2167
inda	-2168
indo	-2169
mara	-2170
minu	-2171
nido	-2172
rate	-2173
reto	-2174
rimu	-2175
saje	-2176
▁Ana	-2177
▁apa	-2178
▁dis	-2179
▁día	-2180
▁kun	-2181
▁muñ	-2182
▁pam	-2183
▁rec	-2184
▁res	-2185
▁sub	-2186
▁swe	-2187
▁vio	-2188
▁xio	-2189
andad	-2190
iedra	-2191
lillo	-2192
lular	-2193
risci	-2194
rroyo	-2195
tario	-2196
vesti	-2197
ódico	-2198
▁Agua	-2199
▁Buta	-2200
▁CBTA	-2201
▁Leba	-2202
▁Mele	-2203
▁Miye	-2204
▁Nico	-2205
▁Sebi	-2206
▁foco	-2207
▁mayo	-2208
▁mese	-2209
▁pinu	-2210
▁vivo	-2211
amírez	-2212
burcio	-2213
cadena	-2214
ciocho	-2215
cuerdo	-2216
llejón	-2217
▁Aires	-2218
▁Llano	-2219
▁nomás	-2220
▁parti	-2221
▁pasti	-2222
▁pelao	-2223
▁pubes	-2224
▁tinta	-2225
▁órale	-2226
ascaciu	-2227
marindo	-2228
▁Arroyo	-2229
▁Convol	-2230
▁España	-2231
▁Esteba	-2232
▁Joncho	-2233
▁Morali	-2234
▁buenas	-2235
▁comuni	-2236
▁corona	-2237
▁espiga	-2238
▁horita	-2239
▁mañana	-2240
▁medida	-2241
▁morado	-2242
▁muerto	-2243
▁noches	-2244
▁pardón	-2245
▁portón	-2246
▁rojiza	-2247
▁sierra	-2248
▁tiempo	-2249
▁traile	-2250
▁tucena	-2251
▁vengar	-2252
▁Alejand	-2253
▁Escuela	-2254
▁acuerdo	-2255
▁cantina	-2256
▁celular	-2257
▁cortina	-2258
▁estudio	-2259
▁investi	-2260
▁momento	-2261
▁pulgada	-2262
▁reunión	-2263
▁secreto	-2264
▁silbido	-2265
▁taxista	-2266
▁violeta	-2267
▁Maximinu	-2268
▁Tiburcio	-2269
riscilianu	-2270
▁Copalillo	-2271
▁Santísimo	-2272
▁Tolentino	-2273
▁cuadrilla	-2274
▁dieciocho	-2275
▁hermandad	-2276
▁padrecito	-2277
▁periódico	-2278
▁anaranjado	-2279
▁centimetros	-2280
▁Bignoniaceae	-2281
▁presentación	-2282
▁Convolvulaceae	-2283
2"	-2284
3'	-2285
41	-2286
?,	-2287
ay	-2288
xe	-2289
Chi	-2290
Kwe	-2291
bon	-2292
cus	-2293
dea	-2294
fun	-2295
gia	-2296
gro	-2297
jwi	-2298
lom	-2299
lon	-2300
lán	-2301
mos	-2302
tel	-2303
ver	-2304
▁or	-2305
anza	-2306
armi	-2307
bona	-2308
cera	-2309
chez	-2310
enna	-2311
entu	-2312
enzu	-2313
erta	-2314
eyna	-2315
guan	-2316
guir	-2317
gura	-2318
llos	-2319
lomu	-2320
mbón	-2321
meri	-2322
naza	-2323
nder	-2324
oila	-2325
papá	-2326
phor	-2327
roma	-2328
romá	-2329
rtil	-2330
sico	-2331
stru	-2332
uaca	-2333
▁Ahá	-2334
▁Era	-2335
▁Eso	-2336
▁Sán	-2337
▁Tie	-2338
▁cap	-2339
▁due	-2340
▁eeh	-2341
▁eso	-2342
▁fro	-2343
▁ist	-2344
▁mon	-2345
▁más	-2346
▁run	-2347
▁sei	-2348
▁ter	-2349
▁vez	-2350
amigu	-2351
celia	-2352
cipar	-2353
drina	-2354
egino	-2355
guera	-2356
lauta	-2357
lleta	-2358
ostar	-2359
pandu	-2360
riodo	-2361
tural	-2362
uncio	-2363
▁Anno	-2364
▁Bora	-2365
▁Chio	-2366
▁Culá	-2367
▁Elía	-2368
▁Juli	-2369
▁León	-2370
▁Nava	-2371
▁Niñu	-2372
▁Sali	-2373
▁Tetu	-2374
▁ador	-2375
▁audi	-2376
▁boda	-2377
▁caba	-2378
▁días	-2379
▁inma	-2380
▁jefe	-2381
▁limu	-2382
▁pará	-2383
▁puta	-2384
▁sida	-2385
▁teni	-2386
▁todo	-2387
▁tran	-2388
acheca	-2389
bonatu	-2390
bonero	-2391
cancía	-2392
icente	-2393
inansa	-2394
▁Chinu	-2395
▁Cianu	-2396
▁Juana	-2397
▁Karmi	-2398
▁Marce	-2399
▁Milio	-2400
▁Salom	-2401
▁Sebiu	-2402
▁aromá	-2403
▁bomba	-2404
▁conta	-2405
▁gorra	-2406
▁hielo	-2407
▁hojas	-2408
▁iguan	-2409
▁libre	-2410
▁mbola	-2411
▁pesos	-2412
▁playa	-2413
▁pollo	-2414
▁senci	-2415
▁viejo	-2416
erónico	-2417
lotillu	-2418
orfirio	-2419
thaceae	-2420
▁Euphor	-2421
▁apache	-2422
▁cancha	-2423
▁cuento	-2424
▁firmar	-2425
▁flauta	-2426
▁fronda	-2427
▁fulano	-2428
▁guinda	-2429
▁mantel	-2430
▁maroma	-2431
▁nombre	-2432
▁recado	-2433
▁sonido	-2434
▁trampa	-2435
ubiaceae	-2436
▁Arcelia	-2437
▁Lorenzu	-2438
▁Silvino	-2439
▁Sánchez	-2440
▁anuncio	-2441
▁apostar	-2442
▁coletar	-2443
▁espigas	-2444
▁madrina	-2445
▁minansa	-2446
▁parcela	-2447
▁periodo	-2448
▁trombón	-2449
▁Silveriu	-2450
▁callejón	-2451
▁iguanero	-2452
▁inmaduro	-2453
▁pastilla	-2454
▁sencillo	-2455
▁Celedonio	-2456
▁Margaritu	-2457
▁Tamarindo	-2458
▁aromática	-2459
▁auditorio	-2460
▁autoridad	-2461
▁carbonatu	-2462
▁carbonero	-2463
▁carretera	-2464
▁mercancía	-2465
▁respuesta	-2466
▁Salicaceae	-2467
▁participar	-2468
▁Camalotillu	-2469
▁cooperación	-2470
▁Boraginaceae	-2471
▁Euphorbiaceae	-2472
.,	-2473
1'	-2474
Be	-2475
Lu	-2476
az	-2477
fa	-2478
od	-2479
pl	-2480
ry	-2481
yr	-2482
ío	-2483
íz	-2484
ós	-2485
2?"	-2486
bli	-2487
cla	-2488
coh	-2489
cua	-2490
dir	-2491
ejo	-2492
fia	-2493
flo	-2494
ida	-2495
lde	-2496
mpe	-2497
ndó	-2498
ona	-2499
pel	-2500
pia	-2501
rbo	-2502
rte	-2503
rtu	-2504
rus	-2505
tal	-2506
zul	-2507
íaz	-2508
ísi	-2509
íso	-2510
ófi	-2511
▁Ay	-2512
▁Cá	-2513
▁du	-2514
▁hí	-2515
▁ur	-2516
▁uu	-2517
4=2?	-2518
Mamá	-2519
aciu	-2520
alem	-2521
angi	-2522
arbu	-2523
asta	-2524
cana	-2525
cero	-2526
char	-2527
cila	-2528
cote	-2529
culo	-2530
drio	-2531
eina	-2532
emen	-2533
eron	-2534
erro	-2535
fina	-2536
inas	-2537
ista	-2538
japa	-2539
jero	-2540
jule	-2541
lada	-2542
moea	-2543
ngel	-2544
peri	-2545
pote	-2546
rada	-2547
rera	-2548
roco	-2549
samo	-2550
sona	-2551
star	-2552
stel	-2553
xali	-2554
yasu	-2555
zani	-2556
ísco	-2557
▁Ama	-2558
▁Ave	-2559
▁Cre	-2560
▁Ipo	-2561
▁Lau	-2562
▁Mbo	-2563
▁Myr	-2564
▁aju	-2565
▁ame	-2566
▁apo	-2567
▁ase	-2568
▁avi	-2569
▁ese	-2570
▁exa	-2571
▁her	-2572
▁lin	-2573
▁men	-2574
▁pen	-2575
▁pon	-2576
▁sac	-2577
▁son	-2578
▁uso	-2579
24=2=	-2580
Señor	-2581
brido	-2582
bular	-2583
cahui	-2584
cción	-2585
cohol	-2586
ental	-2587
guaje	-2588
guete	-2589
lante	-2590
lleja	-2591
maica	-2592
ngulo	-2593
nillu	-2594
orada	-2595
palos	-2596
redor	-2597
rtega	-2598
ruelo	-2599
terru	-2600
ísima	-2601
ófilo	-2602
▁Boni	-2603
▁Kuku	-2604
▁Lima	-2605
▁Lubi	-2606
▁Mode	-2607
▁Ndia	-2608
▁apel	-2609
▁bril	-2610
▁chix	-2611
▁cola	-2612
▁cura	-2613
▁doña	-2614
▁idea	-2615
▁jugo	-2616
▁lila	-2617
▁lujo	-2618
▁nece	-2619
▁pasu	-2620
▁supl	-2621
▁zuca	-2622
alemón	-2623
cuatro	-2624
darina	-2625
entinu	-2626
liente	-2627
mental	-2628
piente	-2629
raleta	-2630
▁Carlo	-2631
▁Cente	-2632
▁Cerro	-2633
▁Chora	-2634
▁Luisa	-2635
▁Mauri	-2636
▁Miyel	-2637
▁Santo	-2638
▁Sapin	-2639
▁Senna	-2640
▁Sofia	-2641
▁abund	-2642
▁ahora	-2643
▁barcu	-2644
▁bendi	-2645
▁disco	-2646
▁encar	-2647
▁estan	-2648
▁femen	-2649
▁herre	-2650
▁llama	-2651
▁llavi	-2652
▁magia	-2653
▁parte	-2654
▁pondó	-2655
▁punta	-2656
▁salud	-2657
▁torta	-2658
▁verdo	-2659
arbusto	-2660
aymundo	-2661
cahuite	-2662
ilbertu	-2663
rocopiu	-2664
zanilla	-2665
▁Ahuaca	-2666
▁Castru	-2667
▁Conejo	-2668
▁Julián	-2669
▁Nejapa	-2670
▁Salina	-2671
▁balero	-2672
▁cinchu	-2673
▁concur	-2674
▁descan	-2675
▁experi	-2676
▁figura	-2677
▁marcar	-2678
▁marcha	-2679
▁muñeca	-2680
▁payasu	-2681
▁ponchi	-2682
▁primer	-2683
▁tallos	-2684
▁tranca	-2685
▁tratar	-2686
▁ángulo	-2687
(3)=(2)=	-2688
peraceae	-2689
▁Arbusto	-2690
▁Calleja	-2691
▁Capulín	-2692
▁Ipomoea	-2693
▁Manchón	-2694
▁Mariano	-2695
▁Teguaje	-2696
▁Teófilo	-2697
▁alcohol	-2698
▁bandera	-2699
▁híbrido	-2700
▁juguete	-2701
▁libreta	-2702
▁marísco	-2703
▁mercado	-2704
▁montura	-2705
▁moradas	-2706
▁natural	-2707
▁padrino	-2708
▁palabra	-2709
▁palanca	-2710
▁paraíso	-2711
▁persona	-2712
▁primero	-2713
▁señores	-2714
▁testigo	-2715
▁tubular	-2716
▁verdura	-2717
▁Faustino	-2718
▁Igualapa	-2719
▁Moraceae	-2720
▁apellido	-2721
▁cabecera	-2722
▁chaparru	-2723
▁contacto	-2724
▁cooperar	-2725
▁corredor	-2726
▁creencia	-2727
▁herrería	-2728
▁manguera	-2729
▁material	-2730
▁suplente	-2731
▁tornillu	-2732
▁Macahuite	-2733
▁Santísima	-2734
▁Silvestre	-2735
▁abundante	-2736
▁bendición	-2737
▁brillante	-2738
▁confianza	-2739
▁corraleta	-2740
▁dosciento	-2741
▁encargado	-2742
▁mandarina	-2743
▁molendera	-2744
▁municipal	-2745
▁serpiente	-2746
▁Solanaceae	-2747
▁chaparrera	-2748
▁manzanilla	-2749
▁Alejandrinu	-2750
▁Sapindaceae	-2751
▁experiencia	-2752
▁veinticuatro	-2753
Bu	-2754
Ju	-2755
if	-2756
ou	-2757
▁(	-2758
▁.	-2759
1?"	-2760
4..	-2761
ali	-2762
ava	-2763
bel	-2764
cón	-2765
des	-2766
dis	-2767
eco	-2768
fro	-2769
iel	-2770
ime	-2771
ine	-2772
ita	-2773
jan	-2774
lgo	-2775
lpo	-2776
lás	-2777
odo	-2778
oli	-2779
olo	-2780
pie	-2781
reo	-2782
sor	-2783
tea	-2784
teo	-2785
via	-2786
xtu	-2787
zue	-2788
▁cí	-2789
▁fá	-2790
▁gr	-2791
▁pí	-2792
1?",	-2793
24",	-2794
2?".	-2795
abla	-2796
alim	-2797
binu	-2798
buta	-2799
cido	-2800
dado	-2801
domi	-2802
egru	-2803
erbe	-2804
ería	-2805
fico	-2806
ihua	-2807
inci	-2808
iper	-2809
itex	-2810
jada	-2811
land	-2812
loya	-2813
mbro	-2814
mera	-2815
mero	-2816
olín	-2817
orno	-2818
resa	-2819
rico	-2820
rome	-2821
scua	-2822
soba	-2823
tanu	-2824
ueta	-2825
vand	-2826
yera	-2827
ylon	-2828
▁Are	-2829
▁Kan	-2830
▁Lai	-2831
▁Lic	-2832
▁Mes	-2833
▁Sal	-2834
▁Ton	-2835
▁agu	-2836
▁azo	-2837
▁cem	-2838
▁cla	-2839
▁cán	-2840
▁din	-2841
▁div	-2842
▁fal	-2843
▁fue	-2844
▁gen	-2845
▁lun	-2846
▁mal	-2847
▁mmm	-2848
▁ora	-2849
▁paz	-2850
▁tal	-2851
▁tri	-2852
41?",	-2853
42?".	-2854
abinu	-2855
aniel	-2856
anita	-2857
antil	-2858
apote	-2859
aspar	-2860
brica	-2861
chivo	-2862
ctura	-2863
dilla	-2864
enenu	-2865
folia	-2866
gambi	-2867
ierba	-2868
illar	-2869
irgen	-2870
lasco	-2871
lecta	-2872
lesti	-2873
milde	-2874
niver	-2875
odine	-2876
pción	-2877
pieza	-2878
risco	-2879
siflo	-2880
staña	-2881
stila	-2882
stima	-2883
stoma	-2884
tener	-2885
tería	-2886
tilla	-2887
tille	-2888
tones	-2889
torce	-2890
uebla	-2891
ueblo	-2892
uiera	-2893
uista	-2894
vicio	-2895
vocar	-2896
▁Acan	-2897
▁Caye	-2898
▁Enri	-2899
▁Inga	-2900
▁Koyo	-2901
▁Liya	-2902
▁Luca	-2903
▁Nací	-2904
▁Nicu	-2905
▁Sapo	-2906
▁Tona	-2907
▁Toñu	-2908
▁abue	-2909
▁acta	-2910
▁agua	-2911
▁aire	-2912
▁arbo	-2913
▁arri	-2914
▁azul	-2915
▁beso	-2916
▁bien	-2917
▁deci	-2918
▁espí	-2919
▁gana	-2920
▁gaso	-2921
▁glau	-2922
▁lava	-2923
▁lona	-2924
▁maíz	-2925
▁mbas	-2926
▁mozo	-2927
▁nanu	-2928
▁obli	-2929
▁obra	-2930
▁pasa	-2931
▁piso	-2932
▁pope	-2933
▁teco	-2934
▁temp	-2935
(3)=2?	-2936
ceguel	-2937
cordia	-2938
culina	-2939
encial	-2940
erardo	-2941
idalgo	-2942
jemplo	-2943
laceae	-2944
lerato	-2945
oloniu	-2946
osario	-2947
porera	-2948
riarca	-2949
ristán	-2950
searia	-2951
tallón	-2952
tiocho	-2953
▁Amado	-2954
▁Ambro	-2955
▁Anton	-2956
▁Brome	-2957
▁Bueno	-2958
▁Carlu	-2959
▁Chayu	-2960
▁Ficus	-2961
▁Jaime	-2962
▁Julia	-2963
▁Libra	-2964
▁Mateu	-2965
▁Mundo	-2966
▁Nachu	-2967
▁Nufre	-2968
▁Sixtu	-2969
▁Sofro	-2970
▁Tengo	-2971
▁anima	-2972
▁banco	-2973
▁barda	-2974
▁batea	-2975
▁bertu	-2976
▁botón	-2977
▁burra	-2978
▁candi	-2979
▁chile	-2980
▁compu	-2981
▁comun	-2982
▁corri	-2983
▁crema	-2984
▁grupa	-2985
▁habla	-2986
▁herbá	-2987
▁horno	-2988
▁jaula	-2989
▁medir	-2990
▁placa	-2991
▁plaza	-2992
▁plomu	-2993
▁rojos	-2994
▁ruido	-2995
▁sabru	-2996
▁santa	-2997
▁tuber	-2998
avaleta	-2999
cinueve	-3000
domiano	-3001
ihualpo	-3002
lestial	-3003
lvaceae	-3004
vistado	-3005
▁Albinu	-3006
▁Blanca	-3007
▁Castel	-3008
▁Changi	-3009
▁Chingo	-3010
▁Cirinu	-3011
▁Lucila	-3012
▁Marina	-3013
▁Tonene	-3014
▁adorno	-3015
▁bachil	-3016
▁camino	-3017
▁chalán	-3018
▁cierre	-3019
▁coleta	-3020
▁cáncer	-3021
▁dinero	-3022
▁examen	-3023
▁gastar	-3024
▁gringo	-3025
▁lavand	-3026
▁líneas	-3027
▁mastra	-3028
▁mencio	-3029
▁menenu	-3030
▁pascua	-3031
▁princi	-3032
▁recreo	-3033
▁rentar	-3034
▁rojizo	-3035
▁sastre	-3036
▁seguir	-3037
▁tenaza	-3038
▁veneno	-3039
▁violín	-3040
ceguelpa	-3041
gambilia	-3042
mericana	-3043
▁Camarón	-3044
▁Chenchu	-3045
▁Chilapa	-3046
▁Chiminu	-3047
▁Colecta	-3048
▁Febreru	-3049
▁Licania	-3050
▁Maleciu	-3051
▁Modesta	-3052
▁Nolasco	-3053
▁Xóchitl	-3054
▁archivo	-3055
▁azozuca	-3056
▁botones	-3057
▁candado	-3058
▁castaña	-3059
▁catorce	-3060
▁cemento	-3061
▁cliente	-3062
▁colchón	-3063
▁cuatete	-3064
▁ejemplo	-3065
▁fábrica	-3066
▁galleta	-3067
▁grabado	-3068
▁humilde	-3069
▁interna	-3070
▁interru	-3071
▁jamaica	-3072
▁lástima	-3073
▁mensaje	-3074
▁playera	-3075
▁primera	-3076
▁tercero	-3077
iperaceae	-3078
▁Ambrocio	-3079
▁Camarada	-3080
▁Casearia	-3081
▁Cayetanu	-3082
▁Clemente	-3083
▁Connarus	-3084
▁batallón	-3085
▁botellas	-3086
▁cartilla	-3087
▁coheteru	-3088
▁concurso	-3089
▁espíritu	-3090
▁estambre	-3091
▁gasolina	-3092
▁infantil	-3093
▁istriano	-3094
▁limpieza	-3095
▁mantener	-3096
▁mañanita	-3097
▁parásita	-3098
▁popelina	-3099
▁purísima	-3100
▁semental	-3101
▁servicio	-3102
▁teniente	-3103
▁tortille	-3104
▁vaporera	-3105
erbenaceae	-3106
niversidad	-3107
▁Concordia	-3108
▁Lauraceae	-3109
▁Marcelina	-3110
▁amarillos	-3111
▁celestial	-3112
▁consejero	-3113
▁femeninas	-3114
▁ingeniero	-3115
▁masculina	-3116
▁mencionar	-3117
▁necesidad	-3118
▁patriarca	-3119
▁sacristán	-3120
▁temporada	-3121
ihualpoloya	-3122
▁Bardomiano	-3123
▁Castellano	-3124
▁Sapotaceae	-3125
▁Tonaltepec	-3126
▁bugambilia	-3127
▁diecinueve	-3128
▁nacimiento	-3129
▁noveciento	-3130
▁obligación	-3131
▁tresciento	-3132
▁veintiocho	-3133
sobalanaceae	-3134
▁Connaraceae	-3135
▁computación	-3136
▁pubescencia	-3137
▁veintisiete	-3138
▁Bromeliaceae	-3139
▁bachillerato	-3140
▁investigación	-3141
▁reventacadena	-3142
).	-3143
Tu	-3144
ap	-3145
ct	-3146
ep	-3147
fu	-3148
gl	-3149
lí	-3150
mp	-3151
ne	-3152
rá	-3153
st	-3154
tz	-3155
tó	-3156
▁í	-3157
1."	-3158
13?	-3159
14.	-3160
24?	-3161
42?	-3162
Nde	-3163
bor	-3164
cal	-3165
col	-3166
cti	-3167
ctá	-3168
deu	-3169
eda	-3170
eeh	-3171
eme	-3172
end	-3173
gni	-3174
hum	-3175
kum	-3176
ley	-3177
lsa	-3178
mey	-3179
mpo	-3180
net	-3181
ord	-3182
ota	-3183
phi	-3184
ple	-3185
pus	-3186
rig	-3187
rin	-3188
sei	-3189
sis	-3190
siu	-3191
the	-3192
uam	-3193
uno	-3194
áxi	-3195
ógi	-3196
óti	-3197
▁Ag	-3198
▁Mu	-3199
▁az	-3200
▁da	-3201
32",	-3202
3?",	-3203
aniu	-3204
bata	-3205
bole	-3206
brar	-3207
calu	-3208
caro	-3209
cial	-3210
cion	-3211
come	-3212
dato	-3213
enti	-3214
enón	-3215
ersi	-3216
erva	-3217
gera	-3218
iego	-3219
iejo	-3220
ilón	-3221
inal	-3222
itla	-3223
jaro	-3224
late	-3225
lita	-3226
ller	-3227
mamá	-3228
mbra	-3229
mino	-3230
mira	-3231
mita	-3232
naje	-3233
ndar	-3234
neta	-3235
nica	-3236
nide	-3237
pero	-3238
ravo	-3239
rián	-3240
rosa	-3241
sito	-3242
stro	-3243
teón	-3244
tivo	-3245
tiyu	-3246
tral	-3247
tzil	-3248
udad	-3249
uete	-3250
uipo	-3251
wige	-3252
ísti	-3253
▁Cal	-3254
▁Cip	-3255
▁Col	-3256
▁Cro	-3257
▁Kus	-3258
▁Mia	-3259
▁Min	-3260
▁Ser	-3261
▁Tar	-3262
▁Tri	-3263
▁aco	-3264
▁aní	-3265
▁ate	-3266
▁año	-3267
▁bra	-3268
▁dre	-3269
▁esc	-3270
▁kul	-3271
▁muy	-3272
▁nan	-3273
▁rii	-3274
▁vol	-3275
24=2.	-3276
apino	-3277
basti	-3278
catón	-3279
cerra	-3280
ciano	-3281
ctavo	-3282
darte	-3283
ecodo	-3284
epinu	-3285
estra	-3286
funtu	-3287
grama	-3288
incón	-3289
ladas	-3290
lecho	-3291
lland	-3292
mante	-3293
marra	-3294
miapa	-3295
monio	-3296
nazar	-3297
pingo	-3298
plete	-3299
porte	-3300
pulcu	-3301
rador	-3302
renda	-3303
rioso	-3304
riscu	-3305
señor	-3306
sitar	-3307
stamo	-3308
talle	-3309
talos	-3310
taria	-3311
tenco	-3312
tillu	-3313
uesta	-3314
uiero	-3315
vilán	-3316
áximo	-3317
ñorve	-3318
▁Casi	-3319
▁Chry	-3320
▁Esta	-3321
▁Fede	-3322
▁Ilia	-3323
▁Jica	-3324
▁Jolo	-3325
▁Laja	-3326
▁Mace	-3327
▁Mara	-3328
▁Matí	-3329
▁Mela	-3330
▁Misi	-3331
▁Siru	-3332
▁algo	-3333
▁alto	-3334
▁arco	-3335
▁arra	-3336
▁baya	-3337
▁baño	-3338
▁beca	-3339
▁biga	-3340
▁cafe	-3341
▁capa	-3342
▁casa	-3343
▁coca	-3344
▁cono	-3345
▁defe	-3346
▁dura	-3347
▁fuer	-3348
▁ingl	-3349
▁ligu	-3350
▁mane	-3351
▁mata	-3352
▁mena	-3353
▁nada	-3354
▁ndiu	-3355
▁otro	-3356
▁pero	-3357
▁piña	-3358
▁poso	-3359
▁prom	-3360
▁reló	-3361
▁secu	-3362
▁seda	-3363
▁suka	-3364
▁term	-3365
(4)=2?	-3366
aulina	-3367
cabrón	-3368
cencio	-3369
chahue	-3370
choapa	-3371
cinera	-3372
ctárea	-3373
cuerna	-3374
diante	-3375
eaceae	-3376
emedio	-3377
endeju	-3378
fundir	-3379
gaceae	-3380
ifaniu	-3381
mpadre	-3382
ontinu	-3383
ordina	-3384
riachi	-3385
trario	-3386
traste	-3387
tífico	-3388
uitzil	-3389
zuelas	-3390
▁Bravo	-3391
▁Celsa	-3392
▁Choli	-3393
▁Copiu	-3394
▁Coriu	-3395
▁Cuaji	-3396
▁Justo	-3397
▁Loran	-3398
▁Macía	-3399
▁Madeu	-3400
▁Negro	-3401
▁Salto	-3402
▁Saria	-3403
▁Sariu	-3404
▁Solan	-3405
▁Taciu	-3406
▁altar	-3407
▁antes	-3408
▁apodo	-3409
▁aviso	-3410
▁banca	-3411
▁capón	-3412
▁cerco	-3413
▁chivo	-3414
▁colar	-3415
▁dolor	-3416
▁dueño	-3417
▁estru	-3418
▁foley	-3419
▁lijar	-3420
▁matri	-3421
▁mecha	-3422
▁menos	-3423
▁negar	-3424
▁negro	-3425
▁pandu	-3426
▁prepa	-3427
▁rampa	-3428
▁salsa	-3429
▁socio	-3430
▁solar	-3431
▁tiene	-3432
▁trata	-3433
▁trece	-3434
▁venta	-3435
▁yersi	-3436
▁ínima	-3437
apinola	-3438
bastián	-3439
calutla	-3440
diaceae	-3441
lotillo	-3442
uincena	-3443
uivocar	-3444
▁Adrián	-3445
▁Aguaca	-3446
▁Alanda	-3447
▁Anacle	-3448
▁Annona	-3449
▁Añorve	-3450
▁Bailón	-3451
▁Benito	-3452
▁Coluna	-3453
▁Erasto	-3454
▁Erastu	-3455
▁Faustu	-3456
▁Flores	-3457
▁Mateyo	-3458
▁Mesina	-3459
▁Máximo	-3460
▁Nicola	-3461
▁Suerte	-3462
▁Tiempu	-3463
▁camara	-3464
▁cambio	-3465
▁chinga	-3466
▁cientu	-3467
▁ciudad	-3468
▁cobrar	-3469
▁duende	-3470
▁genera	-3471
▁glauco	-3472
▁gracia	-3473
▁huerta	-3474
▁karate	-3475
▁madura	-3476
▁majada	-3477
▁mancha	-3478
▁manita	-3479
▁manito	-3480
▁mañeca	-3481
▁mesero	-3482
▁millón	-3483
▁nanchi	-3484
▁octavo	-3485
▁padrón	-3486
▁pasaje	-3487
▁pastor	-3488
▁penchi	-3489
▁puesta	-3490
▁puntos	-3491
▁pájaro	-3492
▁pícaro	-3493
▁recome	-3494
▁rosado	-3495
▁soldar	-3496
▁trompo	-3497
▁vidrio	-3498
▁visita	-3499
llandsia	-3500
▁Antonio	-3501
▁Cumiapa	-3502
▁Cástila	-3503
▁Eduwige	-3504
▁Justinu	-3505
▁Librado	-3506
▁Melecio	-3507
▁Melesio	-3508
▁Nicolás	-3509
▁Silvinu	-3510
▁arriero	-3511
▁atender	-3512
▁becerra	-3513
▁caracol	-3514
▁central	-3515
▁cirillu	-3516
▁ciruelo	-3517
▁corneta	-3518
▁curioso	-3519
▁destino	-3520
▁detalle	-3521
▁drenaje	-3522
▁gavilán	-3523
▁helecho	-3524
▁informa	-3525
▁listoni	-3526
▁marisco	-3527
▁martiyu	-3528
▁panteón	-3529
▁pasador	-3530
▁plantas	-3531
▁rosario	-3532
▁rosariu	-3533
▁soplete	-3534
▁truenos	-3535
▁tubería	-3536
▁verdosa	-3537
▁zacatón	-3538
mpecadena	-3539
▁Acapulcu	-3540
▁Casimira	-3541
▁Chapingo	-3542
▁Ciprianu	-3543
▁Cochoapa	-3544
▁Compadre	-3545
▁Faustinu	-3546
▁Federico	-3547
▁Mararitu	-3548
▁Mauricio	-3549
▁amenazar	-3550
▁animales	-3551
▁arbolito	-3552
▁chamarra	-3553
▁cocinera	-3554
▁comunero	-3555
▁coordina	-3556
▁defender	-3557
▁descanse	-3558
▁director	-3559
▁hectárea	-3560
▁internet	-3561
▁mariachi	-3562
▁ndifuntu	-3563
▁palomita	-3564
▁parafina	-3565
▁programa	-3566
▁silencio	-3567
▁veladora	-3568
rendatario	-3569
xalidaceae	-3570
▁Americana	-3571
▁Arecaceae	-3572
▁Cacalutla	-3573
▁Coapinola	-3574
▁Iliatenco	-3575
▁Macedonio	-3576
▁Malvaceae	-3577
▁Melastoma	-3578
▁Meliaceae	-3579
▁Myrtaceae	-3580
▁Sebastián	-3581
▁Tolentinu	-3582
▁Tolontinu	-3583
▁candidato	-3584
▁confundir	-3585
▁contrario	-3586
▁corriente	-3587
▁dirección	-3588
▁docientos	-3589
▁estambres	-3590
▁formación	-3591
▁guadalupe	-3592
▁ingeniera	-3593
▁internado	-3594
▁liguladas	-3595
▁mancuerna	-3596
▁presencia	-3597
▁veintidos	-3598
uitziltepec	-3599
▁Annonaceae	-3600
▁anaranjada	-3601
▁aromáticas	-3602
▁cabezuelas	-3603
▁científico	-3604
▁estandarte	-3605
▁estudiante	-3606
▁lavandería	-3607
▁lavatraste	-3608
▁masculinas	-3609
▁matrimonio	-3610
▁pubescente	-3611
▁recomendar	-3612
▁trecientos	-3613
▁veintiseis	-3614
▁Acanthaceae	-3615
▁comunitaria	-3616
▁comunitario	-3617
▁seiscientos	-3618
▁tecolotillo	-3619
▁tortillería	-3620
▁Loranthaceae	-3621
▁conocimiento	-3622
▁interrupción	-3623
▁Ahuacaceguelpa	-3624
,,	-3625
Ah	-3626
In	-3627
Ke	-3628
La	-3629
Lo	-3630
No	-3631
To	-3632
Xe	-3633
at	-3634
dá	-3635
hy	-3636
ob	-3637
rt	-3638
sí	-3639
tr	-3640
ur	-3641
yi	-3642
zó	-3643
íu	-3644
▁=	-3645
1..	-3646
3."	-3647
32?	-3648
4."	-3649
Jun	-3650
ara	-3651
are	-3652
bar	-3653
bdu	-3654
bro	-3655
bía	-3656
cen	-3657
ceo	-3658
cli	-3659
clu	-3660
dro	-3661
dós	-3662
ecu	-3663
ein	-3664
eja	-3665
elf	-3666
eto	-3667
eye	-3668
for	-3669
ham	-3670
ied	-3671
ios	-3672
jue	-3673
lac	-3674
lax	-3675
lfo	-3676
lis	-3677
lma	-3678
lmi	-3679
lox	-3680
mas	-3681
mon	-3682
ned	-3683
nge	-3684
nir	-3685
oly	-3686
oso	-3687
oto	-3688
oza	-3689
pet	-3690
pha	-3691
ppa	-3692
raj	-3693
ron	-3694
sal	-3695
sco	-3696
tem	-3697
uer	-3698
ues	-3699
uis	-3700
xic	-3701
yán	-3702
zán	-3703
ían	-3704
▁..	-3705
▁Ab	-3706
▁Cy	-3707
▁Nd	-3708
▁Ny	-3709
▁Xo	-3710
▁eh	-3711
▁mó	-3712
▁tr	-3713
▁zo	-3714
▁zó	-3715
1..,	-3716
24".	-3717
41?"	-3718
42?"	-3719
43",	-3720
Manu	-3721
Ndio	-3722
Tiem	-3723
acar	-3724
alma	-3725
anco	-3726
aríu	-3727
asar	-3728
atri	-3729
aulo	-3730
bila	-3731
bili	-3732
bujo	-3733
cadu	-3734
calo	-3735
cata	-3736
cede	-3737
ceta	-3738
cetu	-3739
chán	-3740
cida	-3741
cita	-3742
ctan	-3743
cter	-3744
cuna	-3745
dium	-3746
dulo	-3747
edag	-3748
erde	-3749
eyes	-3750
fica	-3751
fume	-3752
gano	-3753
guey	-3754
gurt	-3755
hija	-3756
hyto	-3757
icio	-3758
ieja	-3759
illa	-3760
ille	-3761
ipoc	-3762
isan	-3763
laga	-3764
lear	-3765
llas	-3766
loba	-3767
lubi	-3768
lume	-3769
lusa	-3770
líti	-3771
lóbu	-3772
made	-3773
mazu	-3774
miar	-3775
mion	-3776
nath	-3777
nava	-3778
ndra	-3779
ngwi	-3780
nito	-3781
olde	-3782
oral	-3783
otre	-3784
piar	-3785
pice	-3786
pium	-3787
ptis	-3788
rago	-3789
raju	-3790
raya	-3791
rden	-3792
rear	-3793
rero	-3794
rior	-3795
rrun	-3796
ruto	-3797
scas	-3798
sefa	-3799
setu	-3800
solu	-3801
spar	-3802
tado	-3803
tano	-3804
teco	-3805
thus	-3806
tigo	-3807
todo	-3808
toro	-3809
toso	-3810
tran	-3811
tres	-3812
turo	-3813
ubra	-3814
ueña	-3815
uiso	-3816
usti	-3817
vase	-3818
velo	-3819
vivi	-3820
zado	-3821
zuma	-3822
ñoso	-3823
▁Ayu	-3824
▁Bon	-3825
▁Com	-3826
▁Cos	-3827
▁Jwe	-3828
▁Kia	-3829
▁Lan	-3830
▁Lea	-3831
▁Mir	-3832
▁Mis	-3833
▁Mor	-3834
▁Nwa	-3835
▁Sab	-3836
▁Sin	-3837
▁Xan	-3838
▁Xio	-3839
▁aba	-3840
▁abo	-3841
▁aca	-3842
▁aha	-3843
▁amá	-3844
▁así	-3845
▁cal	-3846
▁cui	-3847
▁cur	-3848
▁cír	-3849
▁def	-3850
▁dij	-3851
▁diá	-3852
▁enf	-3853
▁env	-3854
▁fle	-3855
▁fra	-3856
▁hoy	-3857
▁kin	-3858
▁lic	-3859
▁lle	-3860
▁llu	-3861
▁mez	-3862
▁mue	-3863
▁ofi	-3864
▁orá	-3865
▁pas	-3866
▁plo	-3867
▁plá	-3868
▁pra	-3869
▁sus	-3870
▁tar	-3871
▁teo	-3872
▁tío	-3873
▁vís	-3874
▁xwe	-3875
(2)=2	-3876
13=2.	-3877
adero	-3878
ancia	-3879
andra	-3880
atrón	-3881
aulin	-3882
berna	-3883
brero	-3884
brete	-3885
cadis	-3886
carpo	-3887
cerro	-3888
chila	-3889
cisio	-3890
ciste	-3891
clava	-3892
cogua	-3893
ctias	-3894
ctora	-3895
curbi	-3896
dades	-3897
derox	-3898
dicar	-3899
dicio	-3900
dores	-3901
encha	-3902
enciu	-3903
endón	-3904
ermín	-3905
ersea	-3906
ertru	-3907
estro	-3908
facio	-3909
fante	-3910
ficie	-3911
fredo	-3912
gueña	-3913
gulas	-3914
idrio	-3915
inuto	-3916
isano	-3917
jania	-3918
lanta	-3919
laxca	-3920
lenda	-3921
lende	-3922
maria	-3923
mbrar	-3924
meril	-3925
moteo	-3926
ndias	-3927
onide	-3928
orita	-3929
pedir	-3930
pillu	-3931
pinia	-3932
puela	-3933
ratea	-3934
rdina	-3935
rdomo	-3936
rensa	-3937
retar	-3938
riaka	-3939
ribio	-3940
rieto	-3941
rillo	-3942
sangi	-3943
scabe	-3944
scuta	-3945
silio	-3946
sonia	-3947
stajo	-3948
strio	-3949
sunto	-3950
table	-3951
tanía	-3952
testa	-3953
trada	-3954
uelve	-3955
uenio	-3956
uerta	-3957
untad	-3958
ustín	-3959
venir	-3960
vidad	-3961
vieja	-3962
xalis	-3963
yptis	-3964
ógica	-3965
ótira	-3966
▁Abel	-3967
▁Agon	-3968
▁Balo	-3969
▁Beta	-3970
▁Cari	-3971
▁Cata	-3972
▁Ceci	-3973
▁Chiu	-3974
▁Coco	-3975
▁Cres	-3976
▁Elis	-3977
▁Fosa	-3978
▁Ichu	-3979
▁Isid	-3980
▁Kili	-3981
▁Lami	-3982
▁Lana	-3983
▁Lion	-3984
▁Liro	-3985
▁Miló	-3986
▁Mona	-3987
▁Mori	-3988
▁Nada	-3989
▁Senu	-3990
▁Seña	-3991
▁Tabe	-3992
▁Toña	-3993
▁Tres	-3994
▁acor	-3995
▁allá	-3996
▁arro	-3997
▁aseg	-3998
▁base	-3999
▁buen	-4000
▁cari	-4001
▁cazo	-4002
▁caña	-4003
▁cena	-4004
▁chor	-4005
▁cina	-4006
▁cred	-4007
▁crio	-4008
▁cruz	-4009
▁debe	-4010
▁docu	-4011
▁edad	-4012
▁eeeh	-4013
▁febe	-4014
▁garg	-4015
▁gota	-4016
▁lapi	-4017
▁lobo	-4018
▁luis	-4019
▁mali	-4020
▁mama	-4021
▁mero	-4022
▁moto	-4023
▁moño	-4024
▁mule	-4025
▁país	-4026
▁pera	-4027
▁posi	-4028
▁pues	-4029
▁ramo	-4030
▁rato	-4031
▁regi	-4032
▁rela	-4033
▁riel	-4034
▁sarg	-4035
▁semi	-4036
▁sete	-4037
▁seti	-4038
▁suba	-4039
▁tela	-4040
▁teso	-4041
▁tien	-4042
▁tira	-4043
▁toda	-4044
▁tule	-4045
▁ulmi	-4046
▁vado	-4047
▁vara	-4048
▁vege	-4049
▁vigi	-4050
▁vino	-4051
▁viva	-4052
▁voto	-4053
▁yoyo	-4054
(4)=2"	-4055
3=2?",	-4056
4=2?",	-4057
4=2?".	-4058
Buenos	-4059
Señora	-4060
acaría	-4061
arathe	-4062
ascala	-4063
astora	-4064
bergue	-4065
caduci	-4066
canzar	-4067
carpus	-4068
cerina	-4069
chilia	-4070
ciente	-4071
cional	-4072
colate	-4073
cturas	-4074
enciar	-4075
ernida	-4076
errera	-4077
estrar	-4078
ferinu	-4079
iedran	-4080
inaldo	-4081
ioscor	-4082
liacea	-4083
linchi	-4084
liotro	-4085
lvador	-4086
lítico	-4087
menero	-4088
nathan	-4089
oaceae	-4090
oberto	-4091
onocer	-4092
ontana	-4093
ouania	-4094
panero	-4095
rilear	-4096
stacio	-4097
tísima	-4098
uercus	-4099
uiller	-4100
unales	-4101
unilla	-4102
vechar	-4103
visión	-4104
xicano	-4105
ística	-4106
▁Ascle	-4107
▁Bacha	-4108
▁Barra	-4109
▁Cappa	-4110
▁Cesal	-4111
▁Chali	-4112
▁Chica	-4113
▁Entre	-4114
▁Fruto	-4115
▁Juare	-4116
▁Julio	-4117
▁Liana	-4118
▁Litra	-4119
▁Lomas	-4120
▁Madre	-4121
▁Mamey	-4122
▁Mando	-4123
▁Mango	-4124
▁Marco	-4125
▁Maria	-4126
▁Migue	-4127
▁Minan	-4128
▁Nabor	-4129
▁Nycta	-4130
▁Siete	-4131
▁Silia	-4132
▁Tobía	-4133
▁Tovar	-4134
▁Xenti	-4135
▁Yende	-4136
▁acomo	-4137
▁adiós	-4138
▁aguja	-4139
▁arbol	-4140
▁banda	-4141
▁blusa	-4142
▁capar	-4143
▁carey	-4144
▁cargo	-4145
▁carno	-4146
▁casti	-4147
▁cinta	-4148
▁comín	-4149
▁corrá	-4150
▁crece	-4151
▁cuota	-4152
▁dicho	-4153
▁divor	-4154
▁drago	-4155
▁están	-4156
▁ficha	-4157
▁gasto	-4158
▁glóbu	-4159
▁gordo	-4160
▁hacer	-4161
▁hijoe	-4162
▁inclu	-4163
▁infor	-4164
▁juniu	-4165
▁limbo	-4166
▁llamo	-4167
▁local	-4168
▁lunar	-4169
▁marru	-4170
▁mayor	-4171
▁melón	-4172
▁mirón	-4173
▁molde	-4174
▁noche	-4175
▁orden	-4176
▁palma	-4177
▁panza	-4178
▁pecio	-4179
▁pendi	-4180
▁primo	-4181
▁radio	-4182
▁reali	-4183
▁rojas	-4184
▁saraj	-4185
▁satín	-4186
▁selva	-4187
▁siuda	-4188
▁siñor	-4189
▁super	-4190
▁talud	-4191
▁tambi	-4192
▁tramo	-4193
▁vento	-4194
▁vieja	-4195
▁viern	-4196
▁yerba	-4197
▁ápice	-4198
aulinia	-4199
bilidad	-4200
cadisco	-4201
cistema	-4202
ctaceae	-4203
ctandra	-4204
darraya	-4205
huichán	-4206
hytolac	-4207
lumeria	-4208
madenia	-4209
metepec	-4210
mioneta	-4211
onciano	-4212
orfiria	-4213
parrosa	-4214
ratella	-4215
retaría	-4216
riaceae	-4217
sadilla	-4218
siflora	-4219
stancia	-4220
ustista	-4221
utaceae	-4222
▁Acacia	-4223
▁Anacar	-4224
▁Ayunta	-4225
▁Ayutla	-4226
▁Bonete	-4227
▁Caraju	-4228
▁Chalán	-4229
▁Combre	-4230
▁Cordia	-4231
▁Croton	-4232
▁Cuesta	-4233
▁Encino	-4234
▁Fermín	-4235
▁Iguala	-4236
▁Iguapa	-4237
▁Jalubi	-4238
▁Josefa	-4239
▁Leazar	-4240
▁Liasar	-4241
▁Maguey	-4242
▁Malina	-4243
▁Nicetu	-4244
▁Soleda	-4245
▁Sótira	-4246
▁Tarzán	-4247
▁Teresa	-4248
▁Tilapa	-4249
▁Tlaxca	-4250
▁abasto	-4251
▁abuelo	-4252
▁acacia	-4253
▁altura	-4254
▁asunto	-4255
▁barrio	-4256
▁bienes	-4257
▁boleta	-4258
▁bonito	-4259
▁cabata	-4260
▁cabaña	-4261
▁canela	-4262
▁chance	-4263
▁chicle	-4264
▁comión	-4265
▁compet	-4266
▁concha	-4267
▁contro	-4268
▁cuadra	-4269
▁cuando	-4270
▁cuentu	-4271
▁curatu	-4272
▁cífica	-4273
▁desper	-4274
▁dibujo	-4275
▁diecis	-4276
▁divino	-4277
▁envase	-4278
▁fallar	-4279
▁flecha	-4280
▁fuerza	-4281
▁hojala	-4282
▁kinder	-4283
▁llevar	-4284
▁látigo	-4285
▁maceta	-4286
▁mesera	-4287
▁minuto	-4288
▁muñecu	-4289
▁naylon	-4290
▁novena	-4291
▁orilla	-4292
▁palapa	-4293
▁paraje	-4294
▁pensar	-4295
▁perico	-4296
▁pestón	-4297
▁piritu	-4298
▁prensa	-4299
▁probar	-4300
▁pueblo	-4301
▁pulmón	-4302
▁rastro	-4303
▁resolu	-4304
▁ropero	-4305
▁salada	-4306
▁sanmar	-4307
▁sillón	-4308
▁tercer	-4309
▁tierra	-4310
▁yogurt	-4311
▁zócalo	-4312
(3)=2?",	-4313
(3)=2?".	-4314
enceslau	-4315
iciembre	-4316
lendario	-4317
odofredo	-4318
onaciano	-4319
sparente	-4320
▁Allende	-4321
▁Antonia	-4322
▁Araceae	-4323
▁Basilio	-4324
▁Cascabe	-4325
▁Chencha	-4326
▁Chimino	-4327
▁Ciruelo	-4328
▁Cucurbi	-4329
▁Jicayán	-4330
▁Juanito	-4331
▁Lantana	-4332
▁Leonide	-4333
▁Lionide	-4334
▁Lucariu	-4335
▁Lusangi	-4336
▁Malecio	-4337
▁Malesiu	-4338
▁Martina	-4339
▁Milianu	-4340
▁Minerva	-4341
▁Mirador	-4342
▁Nacisio	-4343
▁Siderox	-4344
▁Silleta	-4345
▁Solanum	-4346
▁Taberna	-4347
▁Tambora	-4348
▁Timoteo	-4349
▁Toribio	-4350
▁abogado	-4351
▁acordar	-4352
▁adornar	-4353
▁amenaza	-4354
▁ardilla	-4355
▁arriada	-4356
▁blancos	-4357
▁caballo	-4358
▁canción	-4359
▁caporal	-4360
▁carrera	-4361
▁cepillu	-4362
▁chilena	-4363
▁convivi	-4364
▁corbata	-4365
▁criollo	-4366
▁cruzado	-4367
▁cuatros	-4368
▁círculo	-4369
▁decimos	-4370
▁dedicar	-4371
▁destajo	-4372
▁dibertu	-4373
▁difunta	-4374
▁dijeron	-4375
▁durable	-4376
▁esclava	-4377
▁esmeril	-4378
▁espuela	-4379
▁febrero	-4380
▁frescas	-4381
▁general	-4382
▁guazuma	-4383
▁lectura	-4384
▁letanía	-4385
▁lígulas	-4386
▁manesia	-4387
▁mochila	-4388
▁nuestro	-4389
▁oración	-4390
▁oráculo	-4391
▁paisano	-4392
▁perfume	-4393
▁planned	-4394
▁potable	-4395
▁procede	-4396
▁reporte	-4397
▁ruidoso	-4398
▁sardina	-4399
▁señalar	-4400
▁teodoro	-4401
▁ternida	-4402
▁torcido	-4403
▁verdoso	-4404
▁visitar	-4405
▁víspera	-4406
arathesis	-4407
edagógica	-4408
hamnaceae	-4409
iedrancha	-4410
ipocratea	-4411
otrerillo	-4412
piliaceae	-4413
testación	-4414
uinientos	-4415
uisocarpo	-4416
▁Agustina	-4417
▁Anacleto	-4418
▁Antonina	-4419
▁Antonino	-4420
▁Catalina	-4421
▁Ceferinu	-4422
▁Elistinu	-4423
▁Emiliano	-4424
▁Fagaceae	-4425
▁Jonathan	-4426
▁Maurilio	-4427
▁Minancia	-4428
▁Nacional	-4429
▁Nicolasa	-4430
▁Salvador	-4431
▁Serjania	-4432
▁alcanzar	-4433
▁bractias	-4434
▁calmante	-4435
▁camarada	-4436
▁caracter	-4437
▁cañamazu	-4438
▁coladera	-4439
▁cuaderno	-4440
▁descanso	-4441
▁despedir	-4442
▁diecisei	-4443
▁ejemplar	-4444
▁entregar	-4445
▁entrenar	-4446
▁especial	-4447
▁garganta	-4448
▁glóbulos	-4449
▁herbácea	-4450
▁herbáceo	-4451
▁istriaka	-4452
▁malinchi	-4453
▁mamacita	-4454
▁matatodo	-4455
▁mexicano	-4456
▁parásito	-4457
▁relación	-4458
▁sargentu	-4459
▁semillas	-4460
▁voluntad	-4461
itlaltepec	-4462
liotropium	-4463
uillermina	-4464
▁Agonandra	-4465
▁Anastacio	-4466
▁Baustista	-4467
▁Bonifacio	-4468
▁Creciendo	-4469
▁Educación	-4470
▁Lacistema	-4471
▁Lamiaceae	-4472
▁Litraceae	-4473
▁Miguelito	-4474
▁Salustrio	-4475
▁Trichilia	-4476
▁aguinaldo	-4477
▁camioneta	-4478
▁cancerina	-4479
▁carrilear	-4480
▁chocolate	-4481
▁colmenero	-4482
▁comunales	-4483
▁creciente	-4484
▁cuartillu	-4485
▁directora	-4486
▁documento	-4487
▁estaciona	-4488
▁familiare	-4489
▁lagunilla	-4490
▁malagueña	-4491
▁mayordomo	-4492
▁pendiente	-4493
▁principal	-4494
▁reconocer	-4495
▁sarajentu	-4496
▁setiembre	-4497
▁tocadisco	-4498
▁ulmifolia	-4499
▁veintidós	-4500
▁veintiuno	-4501
illeniaceae	-4502
sifloraceae	-4503
▁Cesalpinia	-4504
▁Chuparrosa	-4505
▁Crescencio	-4506
▁Florentinu	-4507
▁Miahuichán	-4508
▁Secretaría	-4509
▁Tillandsia	-4510
▁aprovechar	-4511
▁calendario	-4512
▁credencial	-4513
▁entrevista	-4514
▁fotografia	-4515
▁investigar	-4516
▁passiflora	-4517
▁resolución	-4518
▁secuestrar	-4519
▁subarbusto	-4520
▁superficie	-4521
▁veintitres	-4522
▁Alejandrino	-4523
▁Capparaceae	-4524
▁Encarnacion	-4525
▁Maríatísima	-4526
▁Sideroxylon	-4527
▁anaranjados	-4528
▁autoridades	-4529
▁blancacogua	-4530
▁carpintería	-4531
▁competencia	-4532
▁desperdicio	-4533
▁estructuras	-4534
▁guardarraya	-4535
▁información	-4536
▁posibilidad	-4537
▁rompecadena	-4538
▁Ahuacachahue	-4539
▁Ayuntamiento	-4540
▁ConstantinoT	-4541
▁Entrevistado	-4542
▁arrendatario	-4543
▁contestación	-4544
▁coordinación	-4545
▁entrevistado	-4546
▁presidencial	-4547
▁Anacardiaceae	-4548
▁Cucurbitaceae	-4549
▁Nyctaginaceae	-4550
▁Melastomataceae	-4551
▁estacionamiento	-4552
).=	-4553
Apá	-4554
Cam	-4555
ETA	-4556
drí	-4557
dío	-4558
gir	-4559
ipi	-4560
iós	-4561
mbu	-4562
mph	-4563
odm	-4564
pín	-4565
ryx	-4566
rín	-4567
róf	-4568
yth	-4569
zno	-4570
ñoz	-4571
32?"	-4572
4'".	-4573
4..,	-4574
?",.	-4575
Juan	-4576
Maxi	-4577
Tian	-4578
abel	-4579
alla	-4580
apor	-4581
ascu	-4582
bium	-4583
bles	-4584
blez	-4585
bozo	-4586
chno	-4587
cige	-4588
clip	-4589
cobo	-4590
cróf	-4591
cumb	-4592
cípu	-4593
dobo	-4594
eldo	-4595
elta	-4596
eriu	-4597
esne	-4598
feta	-4599
?,"	-4600
amo	-4601
lpi	-4602
mpi	-4603
ómo	-4604
clón	-4605
eder	-4606
edra	-4607
elón	-4608
gitu	-4609
hibi	-4610
hitl	-4611
ides	-4612
jere	-4613
lbio	-4614
ldío	-4615
lgar	-4616
lind	-4617
lium	-4618
lust	-4619
mael	-4620
mano	-4621
mayó	-4622
mbax	-4623
mbda	-4624
mpió	-4625
nimo	-4626
nium	-4627
ompe	-4628
papi	-4629
pias	-4630
pido	-4631
pozo	-4632
ppia	-4633
pter	-4634
pádi	-4635
rbor	-4636
rono	-4637
rtud	-4638
rámi	-4639
scus	-4640
seae	-4641
sifi	-4642
simo	-4643
sine	-4644
stio	-4645
thes	-4646
tras	-4647
tría	-4648
tóma	-4649
ueva	-4650
uiel	-4651
unas	-4652
urne	-4653
usse	-4654
utón	-4655
vias	-4656
voca	-4657
ygia	-4658
yido	-4659
ypha	-4660
ípti	-4661
▁,,,	-4662
▁..,	-4663
▁Cus	-4664
▁Epi	-4665
▁Esc	-4666
▁Las	-4667
▁Mou	-4668
▁Muy	-4669
▁Spo	-4670
▁Suá	-4671
▁age	-4672
▁alg	-4673
▁apó	-4674
▁bot	-4675
▁enc	-4676
▁gar	-4677
▁gas	-4678
▁gau	-4679
▁gue	-4680
▁hay	-4681
▁nei	-4682
▁ono	-4683
▁oye	-4684
▁píl	-4685
▁ric	-4686
▁ruu	-4687
▁tIn	-4688
▁val	-4689
41?".	-4690
Bolsa	-4691
Bueno	-4692
Tengo	-4693
Yolox	-4694
abrón	-4695
alent	-4696
alust	-4697
anche	-4698
aniun	-4699
bol	-4700
rán	-4701
xol	-4702
bián	-4703
dusa	-4704
edor	-4705
ncis	-4706
pcio	-4707
rill	-4708
rria	-4709
tiva	-4710
ylos	-4711
▁Loy	-4712
antar	-4713
anzar	-4714
apata	-4715
aporu	-4716
artín	-4717
atura	-4718
aublo	-4719
berta	-4720
bulla	-4721
cahua	-4722
cello	-4723
ciali	-4724
ciapa	-4725
ciope	-4726
cioso	-4727
coana	-4728
conia	-4729
corre	-4730
dador	-4731
delai	-4732
derar	-4733
dusae	-4734
dándo	-4735
eginu	-4736
einti	-4737
elera	-4738
emana	-4739
ensia	-4740
ensor	-4741
entín	-4742
erium	-4743
ernar	-4744
erril	-4745
ervar	-4746
esgar	-4747
etrar	-4748
fecta	-4749
fecto	-4750
ferme	-4751
ferun	-4752
flora	-4753
folio	-4754
gartu	-4755
giona	-4756
gitud	-4757
gpcio	-4758
guero	-4759
guito	-4760
gurar	-4761
iclip	-4762
idado	-4763
inote	-4764
intil	-4765
jando	-4766
jinsi	-4767
lados	-4768
lamar	-4769
laria	-4770
lbatu	-4771
ldeci	-4772
libru	-4773
licto	-4774
lipha	-4775
llano	-4776
llero	-4777
lombi	-4778
lorio	-4779
lpigh	-4780
lucia	-4781
lvavi	-4782
lvula	-4783
lypha	-4784
maras	-4785
migar	-4786
migio	-4787
mpanu	-4788
nacio	-4789
naciu	-4790
naval	-4791
ngela	-4792
nimos	-4793
nofre	-4794
olipo	-4795
olygo	-4796
ológi	-4797
ontar	-4798
ormal	-4799
api	-4800
bui	-4801
emá	-4802
orí	-4803
buia	-4804
demá	-4805
esmo	-4806
icto	-4807
ifor	-4808
lore	-4809
mazo	-4810
uier	-4811
uite	-4812
uito	-4813
▁eji	-4814
▁raí	-4815
daluo	-4816
demás	-4817
dente	-4818
elada	-4819
llota	-4820
nizar	-4821
olore	-4822
osoma	-4823
osper	-4824
ouvar	-4825
parra	-4826
perus	-4827
petar	-4828
phisa	-4829
phiun	-4830
pical	-4831
pilla	-4832
ptran	-4833
rabio	-4834
randá	-4835
rcito	-4836
rgani	-4837
rgano	-4838
riaga	-4839
rigir	-4840
rncis	-4841
rosor	-4842
ruela	-4843
ruesa	-4844
sabel	-4845
santa	-4846
santo	-4847
tecoc	-4848
tenia	-4849
tevia	-4850
thryx	-4851
tiana	-4852
ticia	-4853
tiene	-4854
tihua	-4855
tipus	-4856
tivas	-4857
tonto	-4858
trana	-4859
trico	-4860
uadro	-4861
udobo	-4862
ueria	-4863
ulgar	-4864
ustra	-4865
valia	-4866
viado	-4867
xilon	-4868
xteco	-4869
yeron	-4870
yrico	-4871
zuelo	-4872
ábado	-4873
ápido	-4874
ónico	-4875
ósimo	-4876
ótero	-4877
ótiro	-4878
▁Abra	-4879
▁Abán	-4880
▁Agre	-4881
▁Ajan	-4882
▁Alda	-4883
▁Aleg	-4884
▁Alma	-4885
▁Arbo	-4886
▁Azul	-4887
▁Cali	-4888
▁Caly	-4889
▁Cesi	-4890
▁Chor	-4891
▁Chri	-4892
▁Chón	-4893
▁Ciri	-4894
▁Comi	-4895
▁Coñu	-4896
▁Cule	-4897
▁Eche	-4898
▁Eeeh	-4899
pn	-4900
(3.	-4901
14?	-4902
3=,	-4903
42"	-4904
aso	-4905
fin	-4906
iga	-4907
mao	-4908
pli	-4909
rla	-4910
sit	-4911
▁1.	-4912
liun	-4913
mato	-4914
mper	-4915
mpli	-4916
muer	-4917
piun	-4918
plás	-4919
rete	-4920
rina	-4921
ueño	-4922
vían	-4923
xpli	-4924
▁1.2	-4925
▁cpn	-4926
▁lue	-4927
▁plu	-4928
▁sea	-4929
▁ses	-4930
(3.)=	-4931
bardo	-4932
gniar	-4933
jilia	-4934
mplir	-4935
mular	-4936
sitan	-4937
sitta	-4938
uemao	-4939
vario	-4940
▁Ceni	-4941
▁Escu	-4942
▁Esth	-4943
▁Fele	-4944
▁Iris	-4945
▁Jero	-4946
▁Legu	-4947
▁Leya	-4948
▁Lobe	-4949
▁Loñu	-4950
▁Luna	-4951
▁Luni	-4952
▁Mana	-4953
▁Manu	-4954
▁Mbro	-4955
▁Meno	-4956
▁Miaa	-4957
▁Mini	-4958
▁Moly	-4959
▁Móni	-4960
▁Ndwi	-4961
▁Seko	-4962
▁Sete	-4963
▁Sima	-4964
▁Stem	-4965
▁Teba	-4966
▁Tebe	-4967
▁Tecu	-4968
▁Tele	-4969
▁Teno	-4970
▁Teyo	-4971
▁Xang	-4972
▁acti	-4973
▁ambi	-4974
▁anno	-4975
▁apar	-4976
▁apta	-4977
▁ater	-4978
▁avis	-4979
▁boca	-4980
▁bola	-4981
▁camo	-4982
▁cavo	-4983
▁ceja	-4984
▁clau	-4985
▁crea	-4986
▁desc	-4987
▁dies	-4988
▁dios	-4989
▁duda	-4990
▁esko	-4991
▁esos	-4992
▁esti	-4993
▁exce	-4994
▁exte	-4995
▁fais	-4996
▁fijo	-4997
▁frig	-4998
▁habi	-4999
==	-5000
ben	-5001
lum	-5002
mac	-5003
mis	-5004
rou	-5005
sas	-5006
ína	-5007
▁3.	-5008
▁at	-5009
anto	-5010
batu	-5011
ckia	-5012
guez	-5013
ieru	-5014
kwan	-5015
lero	-5016
rute	-5017
sivo	-5018
vida	-5019
▁Fin	-5020
▁Mmm	-5021
▁cri	-5022
▁dul	-5023
▁ere	-5024
▁ojo	-5025
▁spo	-5026
▁vay	-5027
andia	-5028
chabi	-5029
ermis	-5030
gniun	-5031
lores	-5032
lumna	-5033
pulín	-5034
rouba	-5035
rutes	-5036
tente	-5037
teína	-5038
▁Elea	-5039
▁Lole	-5040
▁Meya	-5041
▁Ndwa	-5042
▁Sado	-5043
▁Yoya	-5044
▁hubo	-5045
▁kung	-5046
▁lazo	-5047
▁lune	-5048
▁láte	-5049
▁mara	-5050
▁mbel	-5051
▁mezc	-5052
▁mini	-5053
▁nive	-5054
▁oiga	-5055
▁orig	-5056
▁pelí	-5057
▁play	-5058
▁polí	-5059
▁prop	-5060
▁purp	-5061
▁rayo	-5062
▁raíz	-5063
▁real	-5064
▁recu	-5065
▁redo	-5066
▁roto	-5067
▁same	-5068
▁sapo	-5069
▁tipo	-5070
▁tono	-5071
▁tras	-5072
▁trav	-5073
▁trun	-5074
▁tuna	-5075
▁uelo	-5076
▁uera	-5077
▁ulio	-5078
▁unas	-5079
▁virg	-5080
▁vita	-5081
▁vuel	-5082
(3)=2"	-5083
13(2)=	-5084
24=2",	-5085
42?",.	-5086
4=2?,"	-5087
Cabrón	-5088
Lucila	-5089
Martín	-5090
Suerte	-5091
Sábado	-5092
acerro	-5093
aporub	-5094
ascual	-5095
bdulia	-5096
bronio	-5097
burlar	-5098
casita	-5099
3(	-5100
oy	-5101
ze	-5102
1,"	-5103
1,¿	-5104
3,¿	-5105
4.,	-5106
Ste	-5107
atu	-5108
don	-5109
ebi	-5110
ntu	-5111
uar	-5112
uta	-5113
yon	-5114
▁av	-5115
▁cd	-5116
▁ej	-5117
24?,	-5118
ebió	-5119
finu	-5120
inia	-5121
ithe	-5122
siki	-5123
untu	-5124
zada	-5125
▁Eze	-5126
▁ali	-5127
▁big	-5128
▁sar	-5129
▁sau	-5130
▁vía	-5131
▁yoo	-5132
4=2?"	-5133
cerca	-5134
dante	-5135
endra	-5136
riana	-5137
torra	-5138
uarea	-5139
ufinu	-5140
▁ESte	-5141
▁Lupe	-5142
▁bign	-5143
cearia	-5144
chillu	-5145
ciales	-5146
comisa	-5147
cotlán	-5148
cípulo	-5149
densia	-5150
doctor	-5151
dronio	-5152
dulosa	-5153
edorea	-5154
elfino	-5155
emigio	-5156
enenar	-5157
enteño	-5158
entran	-5159
ercial	-5160
ernand	-5161
fectar	-5162
ficado	-5163
formar	-5164
fortia	-5165
gnacio	-5166
híjole	-5167
iciapa	-5168
isonia	-5169
itoria	-5170
itoriu	-5171
lalate	-5172
landro	-5173
lavida	-5174
ldecir	-5175
matope	-5176
melina	-5177
mendra	-5178
mphylo	-5179
muerzu	-5180
nadero	-5181
ocente	-5182
odolfo	-5183
ompeyo	-5184
oroteo	-5185
osanto	-5186
padora	-5187
pantio	-5188
philla	-5189
psular	-5190
pádice	-5191
pífita	-5192
rachno	-5193
rbores	-5194
resado	-5195
ronómo	-5196
rrados	-5197
servar	-5198
señora	-5199
Is	-5200
2,,	-5201
ces	-5202
cum	-5203
erí	-5204
fai	-5205
nce	-5206
pra	-5207
psi	-5208
raz	-5209
rri	-5210
tró	-5211
uem	-5212
143=	-5213
afai	-5214
chor	-5215
dend	-5216
mosa	-5217
rano	-5218
rión	-5219
stol	-5220
▁Mel	-5221
▁Mon	-5222
▁leo	-5223
▁mbi	-5224
millu	-5225
razón	-5226
ronom	-5227
rrido	-5228
stera	-5229
tróle	-5230
uemon	-5231
▁Miki	-5232
▁Stra	-5233
▁bata	-5234
▁bode	-5235
▁musa	-5236
▁será	-5237
4=(2)=	-5238
dendru	-5239
elfina	-5240
ermosa	-5241
eríani	-5242
inario	-5243
sierra	-5244
sionar	-5245
stegui	-5246
sterio	-5247
strera	-5248
surero	-5249
tarina	-5250
titlán	-5251
trella	-5252
trulla	-5253
tróleo	-5254
tígera	-5255
tómago	-5256
uisito	-5257
utilia	-5258
vencer	-5259
verría	-5260
vieron	-5261
vuelve	-5262
yamazo	-5263
ylosma	-5264
yphisa	-5265
ábrete	-5266
álvula	-5267
íjoles	-5268
ístico	-5269
ómulos	-5270
órgano	-5271
▁Allio	-5272
▁Andre	-5273
▁Anona	-5274
▁Banco	-5275
▁Biana	-5276
▁Bisca	-5277
▁Bueva	-5278
▁CBETA	-5279
▁Calix	-5280
▁Cantó	-5281
▁Caryo	-5282
▁Chama	-5283
▁Chelu	-5284
▁Chico	-5285
▁China	-5286
▁Chore	-5287
▁Ciano	-5288
▁Clito	-5289
▁Comit	-5290
▁Confi	-5291
▁Convu	-5292
▁Corní	-5293
▁Costu	-5294
▁Culea	-5295
▁Cupan	-5296
▁Cuscu	-5297
▁Cándi	-5298
▁Escru	-5299
,"	-5300
.4	-5301
3)	-5302
Ey	-5303
dó	-5304
rí	-5305
Con	-5306
jor	-5307
mia	-5308
vía	-5309
xio	-5310
yar	-5311
▁"=	-5312
▁MM	-5313
▁ac	-5314
32".	-5315
dira	-5316
inus	-5317
uear	-5318
uedó	-5319
▁Cen	-5320
▁Jun	-5321
▁fin	-5322
huaca	-5323
ludis	-5324
paris	-5325
tante	-5326
tento	-5327
▁Acho	-5328
▁Brun	-5329
▁Mami	-5330
▁Mika	-5331
▁abrí	-5332
▁acci	-5333
▁bron	-5334
▁cuer	-5335
▁depo	-5336
▁moro	-5337
▁muse	-5338
▁nota	-5339
▁seca	-5340
▁uste	-5341
▁yoli	-5342
3=(2)=	-5343
Consta	-5344
bertad	-5345
ritura	-5346
▁Astro	-5347
▁Bruno	-5348
▁Jeliu	-5349
▁Jueve	-5350
▁Kaila	-5351
▁Langi	-5352
▁Lascu	-5353
▁Laura	-5354
▁Leoni	-5355
▁Letra	-5356
▁Linda	-5357
▁Liona	-5358
▁Lucía	-5359
▁Mende	-5360
▁Merre	-5361
▁Mesón	-5362
▁Mikai	-5363
▁Minga	-5364
▁Morin	-5365
▁Mouri	-5366
▁Mular	-5367
▁Nacle	-5368
▁Naliu	-5369
▁Navar	-5370
▁Nopal	-5371
▁Nurio	-5372
▁Sebia	-5373
▁Serra	-5374
▁Sianu	-5375
▁Sibru	-5376
▁Siera	-5377
▁Simon	-5378
▁Sosto	-5379
▁Tambi	-5380
▁Tapia	-5381
▁Tauni	-5382
▁Tebet	-5383
▁Tecla	-5384
▁Tepan	-5385
▁Tetra	-5386
▁Tichu	-5387
▁Tilio	-5388
▁Trich	-5389
▁Xangí	-5390
▁Xanth	-5391
▁almac	-5392
▁ancho	-5393
▁anona	-5394
▁aplan	-5395
▁aptas	-5396
▁arilo	-5397
▁armar	-5398
▁avelo	-5399
Je	-5400
Tá	-5401
hh	-5402
io	-5403
uh	-5404
"'4	-5405
ege	-5406
lta	-5407
shh	-5408
ske	-5409
uuh	-5410
xis	-5411
áre	-5412
ínu	-5413
▁ij	-5414
▁jJ	-5415
bida	-5416
kwue	-5417
lama	-5418
liti	-5419
maya	-5420
moya	-5421
riya	-5422
sket	-5423
vinu	-5424
árez	-5425
▁oxi	-5426
▁ten	-5427
▁tub	-5428
(3).=	-5429
Ierra	-5430
blico	-5431
empre	-5432
gatun	-5433
lenta	-5434
metro	-5435
racia	-5436
stico	-5437
ísica	-5438
óhitl	-5439
▁Erig	-5440
▁Exis	-5441
▁Meke	-5442
▁cope	-5443
▁encu	-5444
▁inye	-5445
▁sabi	-5446
▁sshh	-5447
(2)=24	-5448
aumeri	-5449
camaya	-5450
eodoro	-5451
lamate	-5452
myrico	-5453
rabatu	-5454
racias	-5455
sidium	-5456
▁aviva	-5457
▁baile	-5458
▁barco	-5459
▁barri	-5460
▁brasi	-5461
▁burbu	-5462
▁burla	-5463
▁canal	-5464
▁canto	-5465
▁casos	-5466
▁chale	-5467
▁champ	-5468
▁ciego	-5469
▁clase	-5470
▁clave	-5471
▁clavo	-5472
▁consi	-5473
▁conso	-5474
▁copia	-5475
▁crota	-5476
▁cruda	-5477
▁crusi	-5478
▁cuide	-5479
▁curso	-5480
▁cuscu	-5481
▁decir	-5482
▁diana	-5483
▁diese	-5484
▁diálo	-5485
▁dobla	-5486
▁dolio	-5487
▁donde	-5488
▁ellos	-5489
▁exper	-5490
▁falda	-5491
▁falla	-5492
▁fondo	-5493
▁fuera	-5494
▁fumar	-5495
▁funda	-5496
▁garza	-5497
▁grati	-5498
▁hecho	-5499
),	-5500
Mu	-5501
py	-5502
2..	-5503
Tio	-5504
Tun	-5505
icu	-5506
inó	-5507
iri	-5508
yui	-5509
▁Aí	-5510
▁yi	-5511
143.	-5512
loco	-5513
tara	-5514
turi	-5515
uevo	-5516
uizá	-5517
▁Ita	-5518
▁eli	-5519
▁era	-5520
abino	-5521
alado	-5522
arota	-5523
doris	-5524
lauca	-5525
lizar	-5526
ludar	-5527
pynda	-5528
tarab	-5529
yunda	-5530
▁Aída	-5531
▁Lelo	-5532
▁capu	-5533
▁fina	-5534
▁gato	-5535
▁yuno	-5536
(3)=21	-5537
itlala	-5538
▁Enero	-5539
▁Nuevo	-5540
▁capuc	-5541
▁gozar	-5542
▁hacen	-5543
▁herra	-5544
▁imper	-5545
▁india	-5546
▁injin	-5547
▁inver	-5548
▁jacar	-5549
▁jolín	-5550
▁kachi	-5551
▁lagar	-5552
▁leyes	-5553
▁linde	-5554
▁lingu	-5555
▁llave	-5556
▁luego	-5557
▁lunes	-5558
▁macha	-5559
▁marco	-5560
▁maría	-5561
▁mejor	-5562
▁meses	-5563
▁miles	-5564
▁milpa	-5565
▁misma	-5566
▁motor	-5567
▁mucho	-5568
▁museo	-5569
▁móvil	-5570
▁negra	-5571
▁neilo	-5572
▁nivel	-5573
▁opera	-5574
▁otras	-5575
▁otros	-5576
▁oxida	-5577
▁pachi	-5578
▁pepsi	-5579
▁picar	-5580
▁plazo	-5581
▁pluma	-5582
▁pocho	-5583
▁posta	-5584
▁prese	-5585
▁produ	-5586
▁puede	-5587
▁rayar	-5588
▁rayos	-5589
▁resid	-5590
▁resul	-5591
▁ronda	-5592
▁ruuun	-5593
▁sabes	-5594
▁sabor	-5595
▁sacra	-5596
▁sakan	-5597
▁salón	-5598
▁sarna	-5599
▁'	-5600
''4	-5601
1,.	-5602
ada	-5603
avi	-5604
chy	-5605
ote	-5606
upe	-5607
zas	-5608
▁tá	-5609
avid	-5610
bora	-5611
cuya	-5612
odrí	-5613
otec	-5614
rchy	-5615
uele	-5616
uelo	-5617
vila	-5618
▁Aní	-5619
▁Fla	-5620
▁Jac	-5621
▁exp	-5622
▁ini	-5623
▁pez	-5624
chada	-5625
culos	-5626
daupe	-5627
dizas	-5628
hibir	-5629
peada	-5630
pinas	-5631
uente	-5632
▁Nata	-5633
▁abre	-5634
▁cual	-5635
▁lími	-5636
▁moli	-5637
▁sacu	-5638
▁sean	-5639
achecu	-5640
edizas	-5641
rculos	-5642
rámide	-5643
uecina	-5644
▁Flacu	-5645
▁Laxan	-5646
▁Muñoz	-5647
▁Trino	-5648
▁aires	-5649
▁calle	-5650
▁campo	-5651
▁citar	-5652
▁difer	-5653
▁huele	-5654
▁matan	-5655
▁plano	-5656
▁rosas	-5657
▁sauco	-5658
▁saxol	-5659
▁secas	-5660
▁sellu	-5661
▁senna	-5662
▁senti	-5663
▁seren	-5664
▁signi	-5665
▁sonso	-5666
▁tallo	-5667
▁tanke	-5668
▁tarde	-5669
▁targo	-5670
▁tenía	-5671
▁traje	-5672
▁trapo	-5673
▁trasl	-5674
▁trató	-5675
▁treci	-5676
▁tusor	-5677
▁tában	-5678
▁usted	-5679
▁vayan	-5680
▁verga	-5681
▁ánimo	-5682
(3)=2."	-5683
Chiminu	-5684
abellón	-5685
astrana	-5686
atricio	-5687
banthus	-5688
cahuate	-5689
calizar	-5690
cantado	-5691
canthus	-5692
cepción	-5693
cigerun	-5694
cionada	-5695
ciopela	-5696
coanapa	-5697
crófono	-5698
datario	-5699
dil	-5700
kil	-5701
nel	-5702
oco	-5703
rey	-5704
3=2"	-5705
anda	-5706
arra	-5707
ciar	-5708
dian	-5709
litu	-5710
losa	-5711
lote	-5712
reya	-5713
sada	-5714
tida	-5715
xtla	-5716
▁Anu	-5717
▁Niu	-5718
▁feo	-5719
▁flo	-5720
▁lon	-5721
bante	-5722
entor	-5723
ertas	-5724
iacea	-5725
ndida	-5726
rrate	-5727
tunda	-5728
▁,,,,	-5729
▁Andi	-5730
▁Arnu	-5731
▁Esca	-5732
▁lápi	-5733
▁pare	-5734
▁peti	-5735
▁tiña	-5736
elfinu	-5737
jilote	-5738
▁Adian	-5739
▁Expli	-5740
▁Señal	-5741
▁Solox	-5742
▁calar	-5743
▁entor	-5744
▁flojo	-5745
▁trono	-5746
▁valor	-5747
andente	-5748
dendrum	-5749
derarse	-5750
empresa	-5751
enteani	-5752
ermería	-5753
erminio	-5754
ertrudi	-5755
esticar	-5756
gadores	-5757
icionar	-5758
initivo	-5759
inotepa	-5760
irginia	-5761
lefante	-5762
lifolia	-5763
lionide	-5764
lonizar	-5765
ludismo	-5766
madante	-5767
misados	-5768
montana	-5769
mpetero	-5770
natural	-5771
navalia	-5772
negocio	-5773
odmania	-5774
ológico	-5775
omaliun	-5776
ospermu	-5777
otecnia	-5778
outeria	-5779
parrabo	-5780
pendeju	-5781
peracha	-5782
permiso	-5783
peronia	-5784
pintero	-5785
puestas	-5786
ritorio	-5787
rnciscu	-5788
roblema	-5789
ronomía	-5790
rymaria	-5791
sikiera	-5792
sitamos	-5793
sitando	-5794
tarraya	-5795
tativas	-5796
tecocte	-5797
termina	-5798
tiaceae	-5799
4?.	-5800
son	-5801
▁Bo	-5802
▁ár	-5803
13".	-5804
14",	-5805
4=?,	-5806
cula	-5807
fula	-5808
guro	-5809
lech	-5810
roga	-5811
▁Edi	-5812
▁bro	-5813
▁dar	-5814
▁hon	-5815
▁jos	-5816
▁reg	-5817
▁sin	-5818
Buena	-5819
llito	-5820
ndale	-5821
ufina	-5822
utita	-5823
▁Nene	-5824
▁Taki	-5825
▁copu	-5826
▁nido	-5827
▁sale	-5828
daluoe	-5829
entavo	-5830
▁Autón	-5831
▁Blech	-5832
▁Bomba	-5833
▁Misei	-5834
▁audio	-5835
▁cochi	-5836
▁droga	-5837
▁hongo	-5838
▁kachu	-5839
▁mamey	-5840
▁regla	-5841
▁señal	-5842
cisiete	-5843
culosis	-5844
dándose	-5845
tinguir	-5846
turista	-5847
uadaupe	-5848
urísima	-5849
usselia	-5850
viembre	-5851
xiflora	-5852
ípticum	-5853
▁Achote	-5854
▁Ajinsi	-5855
▁Aldama	-5856
▁Amador	-5857
▁Andira	-5858
▁Andres	-5859
▁Arturo	-5860
▁Basket	-5861
▁Benchu	-5862
▁Bernar	-5863
▁Bonita	-5864
▁Bouvar	-5865
▁Cabrón	-5866
▁Carica	-5867
▁Ceniza	-5868
▁Centro	-5869
▁Cesión	-5870
▁Chechu	-5871
▁Chente	-5872
▁Cirila	-5873
▁Clicto	-5874
▁Consta	-5875
▁Corrín	-5876
▁Costan	-5877
▁Cuacha	-5878
▁Cuatro	-5879
▁Cuenta	-5880
▁Cámara	-5881
▁Estado	-5882
▁Esther	-5883
▁Fabián	-5884
▁Fatoso	-5885
▁Felici	-5886
▁Franco	-5887
▁Inaciu	-5888
▁Isabel	-5889
▁Isidro	-5890
▁Isidru	-5891
▁Ismael	-5892
▁Jacobo	-5893
▁Jicama	-5894
▁Juárez	-5895
▁Kintil	-5896
▁Laxanu	-5897
▁Lejand	-5898
▁Lippia	-5899
Xu	-5900
Mmm	-5901
del	-5902
sos	-5903
Tomá	-5904
pale	-5905
yuji	-5906
▁Ese	-5907
▁Swe	-5908
▁Twa	-5909
▁bos	-5910
▁jMm	-5911
▁lis	-5912
▁van	-5913
drito	-5914
inchi	-5915
▁Cana	-5916
▁Myrs	-5917
▁Natu	-5918
▁Sang	-5919
▁cada	-5920
▁cala	-5921
▁case	-5922
▁grab	-5923
▁hier	-5924
▁ibru	-5925
▁inte	-5926
▁joco	-5927
▁kwer	-5928
▁lupa	-5929
▁menu	-5930
▁muru	-5931
▁pepo	-5932
▁pise	-5933
▁tacu	-5934
▁tapa	-5935
▁usar	-5936
▁yeso	-5937
gional	-5938
iforme	-5939
rockia	-5940
▁Abril	-5941
▁Fidel	-5942
▁Kapul	-5943
▁Lianu	-5944
▁Macha	-5945
▁Ticha	-5946
▁ardor	-5947
▁caliz	-5948
▁careo	-5949
▁dedos	-5950
▁grabó	-5951
▁indio	-5952
▁pinza	-5953
deabila	-5954
riacado	-5955
tinosos	-5956
uitecto	-5957
▁Adelai	-5958
▁Alegre	-5959
▁Encana	-5960
▁Loncho	-5961
▁Lucida	-5962
▁Malito	-5963
▁Manciu	-5964
▁Marcel	-5965
▁Marcos	-5966
▁Marias	-5967
▁Mariya	-5968
▁Mastru	-5969
▁Munici	-5970
▁Mónica	-5971
▁Nacido	-5972
▁Nanche	-5973
▁Niculá	-5974
▁Nosetu	-5975
▁SIerra	-5976
▁Salvia	-5977
▁Sanche	-5978
▁Seguro	-5979
▁Semana	-5980
▁Severo	-5981
▁Sonido	-5982
▁Stevia	-5983
▁Sósimo	-5984
▁Tanchu	-5985
▁Tanciu	-5986
▁Tarina	-5987
▁Tebety	-5988
▁Tengog	-5989
▁Tenoch	-5990
▁Tierra	-5991
▁Todoro	-5992
▁Tourne	-5993
▁Yoloso	-5994
▁acerca	-5995
▁acostu	-5996
▁además	-5997
▁agenda	-5998
▁agente	-5999
ite	-6000
iza	-6001
baza	-6002
ceso	-6003
ctas	-6004
kuta	-6005
rupo	-6006
▁Jum	-6007
▁Lim	-6008
▁Tin	-6009
4=2."	-6010
china	-6011
chuza	-6012
edoro	-6013
enbre	-6014
inada	-6015
lones	-6016
perar	-6017
reina	-6018
ñasco	-6019
▁Lyth	-6020
▁Maña	-6021
▁Nile	-6022
▁juta	-6023
▁olor	-6024
▁papa	-6025
▁pesi	-6026
▁tele	-6027
▁toma	-6028
elascu	-6029
gueroa	-6030
lombia	-6031
madaji	-6032
papicu	-6033
▁Koriu	-6034
▁Metia	-6035
▁apoyo	-6036
▁casar	-6037
▁ceder	-6038
▁congo	-6039
▁curva	-6040
▁hijos	-6041
▁lecho	-6042
▁líder	-6043
▁narco	-6044
▁pangu	-6045
▁sueru	-6046
▁tocar	-6047
▁tonto	-6048
▁veite	-6049
iturinu	-6050
orífico	-6051
seudobo	-6052
sificar	-6053
temente	-6054
▁Maritu	-6055
▁Morenu	-6056
▁ajuste	-6057
▁alados	-6058
▁amigus	-6059
▁andira	-6060
▁animal	-6061
▁annona	-6062
▁apachi	-6063
▁apoyar	-6064
▁arrear	-6065
▁arroba	-6066
▁arroyo	-6067
▁asesor	-6068
▁austra	-6069
▁avispa	-6070
▁baldío	-6071
▁bebida	-6072
▁bignon	-6073
▁bilbio	-6074
▁bilosa	-6075
▁birria	-6076
▁bocina	-6077
▁bodega	-6078
▁buelta	-6079
▁cabeza	-6080
▁camote	-6081
▁candil	-6082
▁cargar	-6083
▁cariño	-6084
▁casado	-6085
▁casero	-6086
▁checar	-6087
▁chicli	-6088
▁chiste	-6089
▁ciclón	-6090
▁cierto	-6091
▁cocido	-6092
▁colind	-6093
▁coliti	-6094
▁collar	-6095
▁colore	-6096
▁comand	-6097
▁compra	-6098
▁consom	-6099
▁Ito	-6100
▁glu	-6101
▁codo	-6102
▁glan	-6103
▁pies	-6104
▁Milia	-6105
▁látez	-6106
▁sesto	-6107
▁chitra	-6108
▁copete	-6109
▁copiar	-6110
▁corola	-6111
▁crucis	-6112
▁cuerda	-6113
▁cuidar	-6114
▁cuminu	-6115
▁cutera	-6116
▁cámara	-6117
▁dabila	-6118
▁dejada	-6119
▁desblo	-6120
▁diablo	-6121
▁diesel	-6122
▁doblez	-6123
▁docena	-6124
▁dolore	-6125
▁dorada	-6126
▁dulcen	-6127
▁encino	-6128
▁escaso	-6129
▁espata	-6130
▁estilo	-6131
▁estoma	-6132
▁exacto	-6133
▁faisán	-6134
▁famila	-6135
▁finado	-6136
▁fragua	-6137
▁frasco	-6138
▁futuro	-6139
▁física	-6140
▁genero	-6141
▁glauca	-6142
▁gratis	-6143
▁grosor	-6144
▁gruesa	-6145
▁guanco	-6146
▁guerra	-6147
▁hierva	-6148
▁hierve	-6149
▁jueves	-6150
▁juicio	-6151
▁leñoso	-6152
▁ligera	-6153
▁limpia	-6154
▁llanta	-6155
▁lluvia	-6156
▁luchar	-6157
▁límite	-6158
▁maduro	-6159
▁mandil	-6160
▁manera	-6161
▁marrón	-6162
▁mañoso	-6163
▁mbelón	-6164
▁mendra	-6165
▁mezcla	-6166
▁millar	-6167
▁mismos	-6168
▁moneda	-6169
▁monera	-6170
▁morale	-6171
▁mucuna	-6172
▁mueble	-6173
▁mulínu	-6174
▁módulo	-6175
▁normal	-6176
▁novios	-6177
▁nterru	-6178
▁nueves	-6179
▁oficio	-6180
▁organi	-6181
▁ovario	-6182
▁palomo	-6183
▁pastel	-6184
▁pecera	-6185
▁pecumb	-6186
▁pedida	-6187
▁pedido	-6188
▁peyido	-6189
▁piedra	-6190
▁piñata	-6191
▁ploste	-6192
▁popote	-6193
▁posada	-6194
▁posoli	-6195
▁precio	-6196
▁raíces	-6197
▁rebozo	-6198
▁receso	-6199
▁rápido	-6200
▁sabios	-6201
▁sandia	-6202
▁sapiun	-6203
▁sereno	-6204
▁sidero	-6205
▁sintru	-6206
▁sombra	-6207
▁sueldo	-6208
▁sámara	-6209
▁taller	-6210
▁techar	-6211
▁tejido	-6212
▁tesoro	-6213
▁tienen	-6214
▁tijere	-6215
▁toalla	-6216
▁torito	-6217
▁tratas	-6218
▁trazar	-6219
▁trenes	-6220
▁triste	-6221
▁tumbda	-6222
▁tábano	-6223
▁vacuna	-6224
▁varita	-6225
▁verdad	-6226
▁vierne	-6227
▁virgen	-6228
▁virtud	-6229
▁vivían	-6230
▁volteo	-6231
▁vuelta	-6232
▁vuelve	-6233
▁ábrete	-6234
▁ándale	-6235
▁árnica	-6236
▁órgano	-6237
(4)=2?".	-6238
Maximinu	-6239
alustris	-6240
atriarca	-6241
cialista	-6242
cinaceae	-6243
ertrudis	-6244
esmodium	-6245
fermedad	-6246
gniartia	-6247
iolaceae	-6248
ioscorea	-6249
iósdoris	-6250
matopeya	-6251
minación	-6252
minoseae	-6253
odríguez	-6254
orcasita	-6255
ospermum	-6256
tentador	-6257
tihuacan	-6258
uadaluoe	-6259
uemontia	-6260
vocativo	-6261
ybanthus	-6262
▁Abrazar	-6263
▁Acaceae	-6264
▁Albertu	-6265
▁Amphylo	-6266
▁Arachno	-6267
▁Arnulfo	-6268
▁Arriaga	-6269
▁Bautita	-6270
▁Bernand	-6271
▁Campanu	-6272
▁Capitán	-6273
▁Castilo	-6274
▁Cigarru	-6275
▁Ciruela	-6276
▁Colonia	-6277
▁Corrión	-6278
▁Crispín	-6279
▁Cristro	-6280
▁Crocata	-6281
▁Culeata	-6282
▁Cupania	-6283
▁Cyperus	-6284
▁Cándido	-6285
▁ESteban	-6286
▁Eleazar	-6287
▁Emyrico	-6288
▁Epífita	-6289
▁Estamos	-6290
▁Esteben	-6291
▁Existen	-6292
▁Fabacea	-6293
▁Flomeno	-6294
▁Ignacio	-6295
▁Inermis	-6296
▁Jamaica	-6297
▁Juliana	-6298
▁Librada	-6299
▁Lobelia	-6300
▁Machiti	-6301
▁Malpigh	-6302
▁Marcela	-6303
▁Maurito	-6304
▁Melchor	-6305
▁Melesiu	-6306
▁Miconia	-6307
▁Modestu	-6308
▁Montana	-6309
▁Mouriri	-6310
▁Myrsine	-6311
▁Nacletu	-6312
▁Ndesetu	-6313
▁Sapynda	-6314
▁Solanun	-6315
▁Stramon	-6316
▁Tepango	-6317
▁Xylosma	-6318
▁afectar	-6319
▁ahorita	-6320
▁algunas	-6321
▁anzuelo	-6322
▁apartar	-6323
▁apuesta	-6324
▁apóstol	-6325
▁arbores	-6326
▁arboris	-6327
▁avanzar	-6328
▁bajilia	-6329
▁becerro	-6330
▁bellota	-6331
▁belorio	-6332
▁bigueta	-6333
▁boteyon	-6334
▁brasier	-6335
▁burbuja	-6336
▁campaña	-6337
▁cantori	-6338
▁capilla	-6339
▁caridad	-6340
▁carnoso	-6341
▁carreta	-6342
▁castigu	-6343
▁castila	-6344
▁cduadro	-6345
▁centavo	-6346
▁chaleco	-6347
▁chancla	-6348
▁chimoya	-6349
▁chingau	-6350
▁chinitu	-6351
▁citrico	-6352
▁clavelo	-6353
▁columna	-6354
▁comunis	-6355
▁control	-6356
▁copular	-6357
▁corazón	-6358
▁corrido	-6359
▁cotorra	-6360
▁crianza	-6361
▁cuidado	-6362
▁cumplir	-6363
▁desvelo	-6364
▁difuntu	-6365
▁dirigir	-6366
▁diálogo	-6367
▁domingo	-6368
▁donJuan	-6369
▁durazno	-6370
▁empresa	-6371
▁entorno	-6372
▁entrada	-6373
▁enviado	-6374
▁epífeta	-6375
▁erectas	-6376
▁eskolta	-6377
▁espacio	-6378
▁espinas	-6379
▁estampa	-6380
▁estatal	-6381
▁experto	-6382
▁fachada	-6383
▁formato	-6384
▁fumigar	-6385
▁gaumeri	-6386
▁guerril	-6387
▁guindas	-6388
▁gustoso	-6389
▁hermana	-6390
▁hielera	-6391
▁híjoles	-6392
▁incluso	-6393
▁incluye	-6394
▁intento	-6395
▁korrido	-6396
▁lagarto	-6397
▁lechuza	-6398
▁lefante	-6399
▁libertu	-6400
▁linderu	-6401
▁lluvias	-6402
▁madurar	-6403
▁malvavi	-6404
▁manchas	-6405
▁manejar	-6406
▁marandá	-6407
▁mataban	-6408
▁matanza	-6409
▁mediana	-6410
▁medusae	-6411
▁miendra	-6412
▁mirador	-6413
▁mismomi	-6414
▁mixteco	-6415
▁morados	-6416
▁muebles	-6417
▁muestra	-6418
▁navidad	-6419
▁negpcio	-6420
▁nombrar	-6421
▁noticia	-6422
▁novillu	-6423
▁oficina	-6424
▁orillas	-6425
▁orrilla	-6426
▁pantano	-6427
▁partido	-6428
▁pasanto	-6429
▁pastila	-6430
▁peciolo	-6431
▁peñasco	-6432
▁pimaria	-6433
▁pintura	-6434
▁plancha	-6435
▁plátano	-6436
▁pollito	-6437
▁polucia	-6438
▁posteba	-6439
▁potente	-6440
▁produce	-6441
▁propina	-6442
▁puertas	-6443
▁pílbora	-6444
▁redondo	-6445
▁remedio	-6446
▁ricinus	-6447
▁rojizas	-6448
▁rosadas	-6449
▁saludar	-6450
▁samaras	-6451
▁seguían	-6452
▁serrano	-6453
▁serrote	-6454
▁sesgado	-6455
▁siempre	-6456
▁silbatu	-6457
▁simular	-6458
▁soltero	-6459
▁soporte	-6460
▁tambien	-6461
▁tatarab	-6462
▁tecomas	-6463
▁tendida	-6464
▁terminó	-6465
▁todavía	-6466
▁velador	-6467
▁venimos	-6468
▁viajero	-6469
▁viernes	-6470
▁vigilar	-6471
▁vigilia	-6472
▁válvula	-6473
▁yobante	-6474
▁yogante	-6475
Campanero	-6476
cellobium	-6477
ciopelado	-6478
comisario	-6479
egetación	-6480
hytolacca	-6481
icliptera	-6482
ictoriano	-6483
piadaceae	-6484
ptranthes	-6485
rabiolium	-6486
riormente	-6487
roubaceae	-6488
uacachabi	-6489
uesadilla	-6490
ulgarcito	-6491
xtlahuaca	-6492
▁Acalipha	-6493
▁Acalypha	-6494
▁Adelaido	-6495
▁Aguacate	-6496
▁Albergue	-6497
▁Anacletu	-6498
▁Arbolito	-6499
▁Arellano	-6500
▁Autónoma	-6501
▁Cacearia	-6502
▁Caliente	-6503
▁Calixtru	-6504
▁Callejón	-6505
▁Castilla	-6506
▁Catarina	-6507
▁Celerina	-6508
▁Clitoria	-6509
▁Cocoloba	-6510
▁Colombia	-6511
▁Cristinu	-6512
▁Erigeron	-6513
▁Escalera	-6514
▁Estancia	-6515
▁Evaristo	-6516
▁Febronio	-6517
▁Figueroa	-6518
▁Frnciscu	-6519
▁Igualita	-6520
▁Leobardo	-6521
▁Leonides	-6522
▁Luraceae	-6523
▁Margartu	-6524
▁Meliacea	-6525
▁Merremia	-6526
▁Monstera	-6527
▁Moricata	-6528
▁Salustio	-6529
▁Santiagu	-6530
▁Seraniun	-6531
▁Sidronio	-6532
▁Spondias	-6533
▁Swetenia	-6534
▁Tabebuia	-6535
▁Tiliacea	-6536
▁abuelita	-6537
▁abuelito	-6538
▁acomodar	-6539
▁agronómo	-6540
▁albergue	-6541
▁alimento	-6542
▁almendra	-6543
▁almuerzu	-6544
▁asegurar	-6545
▁basurero	-6546
▁bautista	-6547
▁caedizas	-6548
▁calabaza	-6549
▁canalado	-6550
▁canónico	-6551
▁capparis	-6552
▁capsular	-6553
▁carnaval	-6554
▁carnosas	-6555
▁cavocado	-6556
▁cayamazo	-6557
▁chapeada	-6558
▁chapulín	-6559
▁chingadu	-6560
▁cilandro	-6561
▁cocoloba	-6562
▁colmillu	-6563
▁consejus	-6564
▁consulta	-6565
▁convivio	-6566
▁convivir	-6567
▁cosechar	-6568
▁creyeron	-6569
▁cuadrado	-6570
▁cuadrill	-6571
▁cuchillu	-6572
▁decisión	-6573
▁defensor	-6574
▁devuelve	-6575
▁dieciete	-6576
▁direcion	-6577
▁división	-6578
▁divorcio	-6579
▁diámetro	-6580
▁elefante	-6581
▁elictica	-6582
▁enfrutes	-6583
▁espitoso	-6584
▁espádice	-6585
▁estrella	-6586
▁estrudio	-6587
▁estómago	-6588
▁excesivo	-6589
▁exterior	-6590
▁femenina	-6591
▁fidencio	-6592
▁frutería	-6593
▁garabatu	-6594
▁guachuña	-6595
▁inflores	-6596
▁informar	-6597
▁inocente	-6598
▁inpantio	-6599
▁invitada	-6600
▁kachucha	-6601
▁karateka	-6602
▁lapicero	-6603
▁lavadero	-6604
▁leonardo	-6605
▁libertad	-6606
▁licencia	-6607
▁licótero	-6608
▁licótiro	-6609
▁longitud	-6610
▁maestría	-6611
▁maldecir	-6612
▁manadero	-6613
▁manguito	-6614
▁maracuya	-6615
▁marrisco	-6616
▁meserear	-6617
▁millones	-6618
▁molestar	-6619
▁noviakan	-6620
▁panadero	-6621
▁pasamano	-6622
▁pastoría	-6623
▁patrulla	-6624
▁peciolos	-6625
▁película	-6626
▁petición	-6627
▁petróleo	-6628
▁pirámide	-6629
▁platillu	-6630
▁platipus	-6631
▁plástico	-6632
▁política	-6633
▁político	-6634
▁postrada	-6635
▁prevenir	-6636
▁prohibir	-6637
▁proteína	-6638
▁provocar	-6639
▁pulgadas	-6640
▁rastrera	-6641
▁rastrojo	-6642
▁reclamar	-6643
▁reformar	-6644
▁regidora	-6645
▁regional	-6646
▁registro	-6647
▁respetar	-6648
▁rotoplás	-6649
▁sapapicu	-6650
▁segurito	-6651
▁soldador	-6652
▁spondias	-6653
▁terminal	-6654
▁tesorero	-6655
▁trabajar	-6656
▁tratados	-6657
▁tropical	-6658
▁truncado	-6659
▁tuvieron	-6660
▁uniforme	-6661
▁vacación	-6662
▁valentín	-6663
▁veintitr	-6664
▁vitamina	-6665
apilionide	-6666
cionadakan	-6667
corrección	-6668
eintinueve	-6669
eintisiete	-6670
licenciado	-6671
melinaceae	-6672
phillaceae	-6673
rchydaceae	-6674
rimulaceae	-6675
▁Agregatun	-6676
▁Alliodora	-6677
▁Asclepias	-6678
▁Astronium	-6679
▁Bernardia	-6680
▁Biscaceae	-6681
▁Bouvardia	-6682
▁Cactaceae	-6683
▁Canavalia	-6684
▁Caperonia	-6685
▁Cascabela	-6686
▁Clictoria	-6687
▁Combretun	-6688
▁Cornígera	-6689
▁Costumbre	-6690
▁Crecencio	-6691
▁Crissanta	-6692
▁Curatella	-6693
▁Escrufula	-6694
▁Feliciano	-6695
▁Felicianu	-6696
▁Laxiflora	-6697
▁Marcelinu	-6698
▁Margarita	-6699
▁Mirtaceae	-6700
▁Morisonia	-6701
▁Municipio	-6702
▁Navarrete	-6703
▁Nectandra	-6704
▁Nicotiana	-6705
▁Noviembre	-6706
▁Severiana	-6707
▁Soloxóchi	-6708
▁Suástegui	-6709
▁Tabebulla	-6710
▁Tecoanapa	-6711
▁Tetrapter	-6712
▁Yolosochi	-6713
▁abrecerro	-6714
▁accidente	-6715
▁actividad	-6716
▁agronomía	-6717
▁ambicioso	-6718
▁americana	-6719
▁arriesgar	-6720
▁aserrados	-6721
▁cacahuate	-6722
▁cactaceae	-6723
▁campanero	-6724
▁campesinu	-6725
▁chilamate	-6726
▁colonizar	-6727
▁comercial	-6728
▁comisaría	-6729
▁compañera	-6730
▁concursar	-6731
▁conseguir	-6732
▁conservar	-6733
▁controlar	-6734
▁convencer	-6735
▁coperacha	-6736
▁creadores	-6737
▁cuajilote	-6738
▁curatella	-6739
▁depositar	-6740
▁descontar	-6741
▁discípulo	-6742
▁distancia	-6743
▁divorciar	-6744
▁dobladora	-6745
▁elípticum	-6746
▁enclítico	-6747
▁envenenar	-6748
▁escritura	-6749
▁estomakil	-6750
▁fumarrosa	-6751
▁fundación	-6752
▁gastígera	-6753
▁guacamaya	-6754
▁habitante	-6755
▁herradura	-6756
▁iniciales	-6757
▁injinieru	-6758
▁inyección	-6759
▁jacaranda	-6760
▁llamadaji	-6761
▁localizar	-6762
▁malvaceae	-6763
▁materiale	-6764
▁mezclilla	-6765
▁micrófono	-6766
▁naturista	-6767
▁nectandra	-6768
▁nisikiera	-6769
▁operación	-6770
▁organizar	-6771
▁paludismo	-6772
▁permisoji	-6773
▁permisoni	-6774
▁permisoti	-6775
▁pesadilla	-6776
▁pestónero	-6777
▁pitecocte	-6778
▁pobrecito	-6779
▁preparada	-6780
▁presentar	-6781
▁presionar	-6782
▁propuesta	-6783
▁realizada	-6784
▁recuperar	-6785
▁residente	-6786
▁restaurán	-6787
▁resultado	-6788
▁secuetrar	-6789
▁subcaduci	-6790
▁tamarindo	-6791
▁taparrabo	-6792
▁terminada	-6793
▁tratadora	-6794
▁trecienta	-6795
▁trepadora	-6796
▁zoológico	-6797
▁zootecnia	-6798
Yoloxóchitl	-6799
caducifolio	-6800
eliotropium	-6801
esneriaceae	-6802
olygonaceae	-6803
rompecadena	-6804
seudobombax	-6805
▁Acantaceae	-6806
▁Bernandino	-6807
▁Cannavalia	-6808
▁Caricaceae	-6809
▁Carpintero	-6810
▁Cascabella	-6811
▁Comandante	-6812
▁Concepción	-6813
▁Constanciu	-6814
▁Constantin	-6815
▁Costantino	-6816
▁Cyperaceae	-6817
▁Echeverría	-6818
▁Encanación	-6819
▁Encarnacón	-6820
▁Epidendrum	-6821
▁Lejandrinu	-6822
▁Lythraceae	-6823
▁Machaerium	-6824
▁Mandeabila	-6825
▁Secundaria	-6826
▁Tecuiciapa	-6827
▁Tresciento	-6828
▁Xanthosoma	-6829
▁Yolosóchil	-6830
▁Yoloxóhitl	-6831
▁abundantes	-6832
▁barriguera	-6833
▁bilbioteca	-6834
▁brillantes	-6835
▁camposanto	-6836
▁carriacado	-6837
▁castillero	-6838
▁centimetro	-6839
▁chingadazo	-6840
▁compadrito	-6841
▁compuestas	-6842
▁coordinado	-6843
▁crotalaria	-6844
▁crucigerun	-6845
▁crusiferun	-6846
▁cuarenteño	-6847
▁definitivo	-6848
▁distinguir	-6849
▁domesticar	-6850
▁ejidatario	-6851
▁encuentran	-6852
▁enfermedad	-6853
▁enfermería	-6854
▁escandente	-6855
▁escritorio	-6856
▁experencia	-6857
▁falsificar	-6858
▁generación	-6859
▁glandulosa	-6860
▁glutinosos	-6861
▁hojalatero	-6862
▁imperfecto	-6863
▁informante	-6864
▁interesado	-6865
▁intervenir	-6866
▁invitación	-6867
▁menudensia	-6868
▁ministerio	-6869
▁motosierra	-6870
▁originario	-6871
▁pecumbente	-6872
▁preseantar	-6873
▁presenciar	-6874
▁presidenta	-6875
▁principale	-6876
▁principiar	-6877
▁sacramento	-6878
▁seisciento	-6879
▁septienbre	-6880
▁seteciento	-6881
▁televisión	-6882
▁tillandsia	-6883
▁trabajando	-6884
▁traicionar	-6885
▁trompetero	-6886
▁vegetación	-6887
▁ventinueve	-6888
asifloraceae	-6889
enteaniaceae	-6890
ioscoreaceae	-6891
ipocrateacea	-6892
olipodiaceae	-6893
sittacanthus	-6894
▁Adiantaceae	-6895
▁Blechnaceae	-6896
▁Bombacaceae	-6897
▁Chamaedorea	-6898
▁Cuscutaceae	-6899
▁Eliotropium	-6900
▁Emyricoides	-6901
▁Esculifolia	-6902
▁Estemadenia	-6903
▁Explicación	-6904
▁Mircinaceae	-6905
▁Moringaceae	-6906
▁Myrsinaceae	-6907
▁Santalaceae	-6908
▁Sapyndaceae	-6909
▁Stemmadenia	-6910
▁Teotihuacan	-6911
▁acostumbrar	-6912
▁amarillenta	-6913
▁aplanacerro	-6914
▁australiano	-6915
▁colindancia	-6916
▁comandancia	-6917
▁compraventa	-6918
▁contentador	-6919
▁crecimiento	-6920
▁cuscutaceae	-6921
▁diescisiete	-6922
▁diferenciar	-6923
▁doliocarpus	-6924
▁frigorífico	-6925
▁fuertemente	-6926
▁guerrillero	-6927
▁hojalatería	-6928
▁informativo	-6929
▁interrumpió	-6930
▁invernadero	-6931
▁ligeramente	-6932
▁linguística	-6933
▁llamaMartín	-6934
▁malvaviscus	-6935
▁necesitamos	-6936
▁nterrupción	-6937
▁ochocientos	-6938
▁onomatopeya	-6939
▁parasitando	-6940
▁provocativo	-6941
▁pubescentes	-6942
▁restaurante	-6943
▁rrendatario	-6944
▁sentimental	-6945
▁sideroxilon	-6946
▁significado	-6947
▁tatarabuelo	-6948
▁tortilleria	-6949
▁trasparente	-6950
▁vegetativas	-6951
assifloraceae	-6952
hytolaccaceae	-6953
ithecellobium	-6954
lantaginaceae	-6955
▁Aguacachahue	-6956
▁Amphylophiun	-6957
▁Arachnothryx	-6958
▁Combretaceae	-6959
▁Confirmación	-6960
▁Cuachalalate	-6961
▁Flacutiaceae	-6962
▁Jicamaltepec	-6963
▁Leguminoseae	-6964
▁Lonchocarpus	-6965
▁Malinaltepec	-6966
▁Malpighiacea	-6967
▁Tenochtitlán	-6968
▁Tournefortia	-6969
▁acomodándose	-6970
▁arborescente	-6971
▁bignoneaceae	-6972
▁bignoniaceae	-6973
▁brongniartia	-6974
▁considerarse	-6975
▁cuatrociento	-6976
▁especialista	-6977
▁fotografiado	-6978
▁internamente	-6979
▁lavanderíani	-6980
▁licenciatura	-6981
▁nacionadakan	-6982
▁periódicokia	-6983
▁transparente	-6984
▁tuberculosis	-6985
▁Calyptranthes	-6986
▁Campanulaceae	-6987
▁Commelinaceae	-6988
▁Convuvulaceae	-6989
▁Melastomaceae	-6990
▁Simaroubaceae	-6991
▁Stramoneaceae	-6992
▁Trichospermum	-6993
▁anteriormente	-6994
▁aproximadante	-6995
▁aterciopelado	-6996
▁brobablemente	-6997
▁compromisados	-6998
▁contaminación	-6999
▁plobablemente	-7000
▁Aguacaceguelpa	-7001
▁Asclepiadaceae	-7002
▁Tabernamontana	-7003
▁Xentixtlahuaca	-7004
▁característica	-7005
▁característico	-7006
▁cuatroscientos	-7007
▁devuelvelavida	-7008
▁enfrutescencia	-7009
▁inflorescencia	-7010
▁investigadores	-7011
▁pitecoctegniun	-7012
▁subcaducifolia	-7013
▁Caryophillaceae	-7014
▁Lacistemataceae	-7015
..,	-7016
BTA	-7017
ast	-7018
bác	-7019
clí	-7020
eas	-7021
him	-7022
ith	-7023
rne	-7024
sís	-7025
tho	-7026
thr	-7027
yrs	-7028
óbu	-7029
▁,,	-7030
acer	-7031
ahui	-7032
assi	-7033
bulo	-7034
cant	-7035
cifo	-7036
colá	-7037
cono	-7038
cual	-7039
culá	-7040
cund	-7041
dsia	-7042
eble	-7043
emás	-7044
erar	-7045
erbá	-7046
erne	-7047
esis	-7048
eñai	-7049
fini	-7050
geni	-7051
geta	-7052
graf	-7053
gógi	-7054
hisa	-7055
hual	-7056
hylo	-7057
icli	-7058
ilte	-7059
izar	-7060
jani	-7061
lavo	-7062
lmón	-7063
lpin	-7064
lvia	-7065
mani	-7066
mifo	-7067
neli	-7068
noth	-7069
odin	-7070
odol	-7071
olas	-7072
onif	-7073
onoc	-7074
osal	-7075
pani	-7076
pini	-7077
pífe	-7078
pífi	-7079
rath	-7080
rgan	-7081
rgin	-7082
rmar	-7083
ronó	-7084
scan	-7085
term	-7086
terí	-7087
than	-7088
thry	-7089
udio	-7090
upar	-7091
uvar	-7092
vene	-7093
xper	-7094
ylop	-7095
zcla	-7096
zále	-7097
zóca	-7098
ábri	-7099
aje	-7100
fec	-7101
uño	-7102
yph	-7103
ífe	-7104
blem	-7105
chev	-7106
itra	-7107
lini	-7108
rium	-7109
riño	-7110
trap	-7111
trar	-7112
uitz	-7113
íbri	-7114
íspe	-7115
ñani	-7116
ñeca	-7117
ñera	-7118
ñori	-7119
ósdo	-7120
▁Alb	-7121
▁Asc	-7122
▁CBE	-7123
▁Cef	-7124
▁Est	-7125
▁Eup	-7126
▁Feb	-7127
▁Lio	-7128
▁Lip	-7129
▁Tec	-7130
▁Tep	-7131
▁Teó	-7132
▁Tov	-7133
▁all	-7134
▁ard	-7135
▁cáp	-7136
▁goz	-7137
▁hab	-7138
▁hac	-7139
▁ord	-7140
▁páj	-7141
42?",	-7142
4=2?,	-7143
ampan	-7144
ancin	-7145
anciu	-7146
ardar	-7147
ardia	-7148
bería	-7149
blado	-7150
bomba	-7151
brada	-7152
brado	-7153
bulos	-7154
busto	-7155
caciu	-7156
cania	-7157
canta	-7158
canth	-7159
cariu	-7160
checa	-7161
cinue	-7162
cipal	-7163
cleto	-7164
cluso	-7165
corea	-7166
crito	-7167
critu	-7168
ctivi	-7169
curso	-7170
didor	-7171
elici	-7172
elipe	-7173
engog	-7174
ensar	-7175
entix	-7176
eonar	-7177
erani	-7178
ercer	-7179
ermer	-7180
ermin	-7181
ernan	-7182
erría	-7183
etria	-7184
feren	-7185
firma	-7186
garci	-7187
geron	-7188
gerun	-7189
grafi	-7190
gunas	-7191
gundo	-7192
huate	-7193
huich	-7194
huite	-7195
ifani	-7196
ilber	-7197
inder	-7198
initi	-7199
amp	-7200
apo	-7201
ipo	-7202
vad	-7203
val	-7204
vat	-7205
(3).	-7206
acie	-7207
amna	-7208
andr	-7209
enva	-7210
ires	-7211
nand	-7212
panu	-7213
pomo	-7214
posi	-7215
pota	-7216
poyo	-7217
ptar	-7218
raje	-7219
slao	-7220
tris	-7221
ulla	-7222
vade	-7223
vale	-7224
vari	-7225
vavi	-7226
▁Cul	-7227
▁Cup	-7228
▁Nec	-7229
▁Set	-7230
▁Tou	-7231
▁ent	-7232
▁nec	-7233
andan	-7234
ander	-7235
anula	-7236
cacia	-7237
ciado	-7238
ciale	-7239
ciatu	-7240
engar	-7241
inter	-7242
jandr	-7243
jentu	-7244
jeron	-7245
later	-7246
lauco	-7247
lazar	-7248
lchor	-7249
lchón	-7250
ledad	-7251
lesio	-7252
liare	-7253
linas	-7254
linia	-7255
llido	-7256
lobab	-7257
loniu	-7258
ltero	-7259
luvia	-7260
lásti	-7261
látan	-7262
mador	-7263
mania	-7264
marro	-7265
mbien	-7266
medad	-7267
mesti	-7268
milla	-7269
modar	-7270
nacle	-7271
nardi	-7272
nefor	-7273
neria	-7274
nieru	-7275
ogado	-7276
olito	-7277
olteo	-7278
oluna	-7279
onaci	-7280
onand	-7281
onene	-7282
oneta	-7283
ongni	-7284
onita	-7285
onoma	-7286
ordar	-7287
orenu	-7288
orera	-7289
ormar	-7290
oscor	-7291
oteca	-7292
parro	-7293
parru	-7294
pecia	-7295
pecie	-7296
perfe	-7297
permu	-7298
phylo	-7299
amb	-7300
aub	-7301
dín	-7302
fir	-7303
mín	-7304
not	-7305
rva	-7306
yel	-7307
ales	-7308
aura	-7309
elio	-7310
erfi	-7311
fiar	-7312
fici	-7313
filo	-7314
iano	-7315
iscí	-7316
nifi	-7317
olio	-7318
stín	-7319
tífi	-7320
tíne	-7321
▁Amb	-7322
▁Tob	-7323
▁lín	-7324
▁mom	-7325
antes	-7326
ficio	-7327
firia	-7328
firio	-7329
gadas	-7330
liodo	-7331
lioni	-7332
mbaca	-7333
mpeyo	-7334
ortón	-7335
pocra	-7336
promi	-7337
prove	-7338
proxi	-7339
ptien	-7340
rable	-7341
ranth	-7342
rasco	-7343
rcina	-7344
recie	-7345
recto	-7346
regar	-7347
rella	-7348
renar	-7349
rgini	-7350
ricoi	-7351
ridad	-7352
rigor	-7353
rilio	-7354
ringo	-7355
robab	-7356
roble	-7357
rompe	-7358
ronio	-7359
roton	-7360
sidro	-7361
sitam	-7362
stial	-7363
stris	-7364
stumb	-7365
sulta	-7366
tacto	-7367
tecto	-7368
temma	-7369
terna	-7370
thoso	-7371
ticin	-7372
tolac	-7373
toriu	-7374
trera	-7375
trevi	-7376
triar	-7377
trimo	-7378
tudio	-7379
uania	-7380
uelas	-7381
uenos	-7382
uerre	-7383
uille	-7384
umeri	-7385
vador	-7386
vatra	-7387
veriu	-7388
yetan	-7389
yrsin	-7390
álido	-7391
áncer	-7392
ífico	-7393
íneas	-7394
íritu	-7395
ófono	-7396
ónimo	-7397
▁Ahua	-7398
▁Ajin	-7399
amá	-7400
epi	-7401
isc	-7402
omá	-7403
opi	-7404
pit	-7405
rpi	-7406
ygi	-7407
gica	-7408
hora	-7409
híjo	-7410
illo	-7411
isco	-7412
migi	-7413
máti	-7414
ongi	-7415
orag	-7416
piga	-7417
pigh	-7418
pili	-7419
pito	-7420
rigi	-7421
risp	-7422
rist	-7423
ropi	-7424
tlah	-7425
▁arb	-7426
▁bom	-7427
▁cit	-7428
▁ciu	-7429
ancía	-7430
cegue	-7431
ciete	-7432
cillo	-7433
clíti	-7434
ergue	-7435
everi	-7436
evero	-7437
gilar	-7438
gueli	-7439
lague	-7440
licía	-7441
lpolo	-7442
orali	-7443
padre	-7444
pilia	-7445
rigue	-7446
rucis	-7447
tillo	-7448
uerte	-7449
uvula	-7450
yunta	-7451
▁Arbu	-7452
▁Arce	-7453
▁Artu	-7454
▁Beju	-7455
▁Camp	-7456
▁Cant	-7457
▁Canu	-7458
▁Capi	-7459
▁Cesa	-7460
▁Chal	-7461
▁Coap	-7462
▁Cori	-7463
▁Corr	-7464
▁Crec	-7465
▁Cucu	-7466
▁Cumi	-7467
▁Cura	-7468
▁Elio	-7469
▁Euph	-7470
▁Faga	-7471
▁Ferm	-7472
▁Jeli	-7473
▁Jesu	-7474
▁Jona	-7475
▁Jovi	-7476
▁Leza	-7477
▁Luci	-7478
▁Meti	-7479
▁Muño	-7480
▁Máxi	-7481
▁Neja	-7482
▁Sapy	-7483
▁Seba	-7484
▁Serj	-7485
▁Sofi	-7486
▁Soni	-7487
▁Sóti	-7488
▁Tamb	-7489
▁Tapi	-7490
▁Tibu	-7491
▁Tori	-7492
▁Tour	-7493
▁adiv	-7494
▁adió	-7495
▁agos	-7496
▁alba	-7497
▁altu	-7498
▁apos	-7499
aus	-7500
ghi	-7501
hus	-7502
igh	-7503
lme	-7504
mel	-7505
mod	-7506
moe	-7507
omo	-7508
smo	-7509
ume	-7510
ust	-7511
áme	-7512
como	-7513
domo	-7514
egua	-7515
guaj	-7516
guaz	-7517
lamo	-7518
maed	-7519
mena	-7520
mend	-7521
ramo	-7522
rans	-7523
rant	-7524
rime	-7525
stum	-7526
uran	-7527
ásti	-7528
▁Big	-7529
▁Sid	-7530
▁Sim	-7531
▁Six	-7532
▁aho	-7533
▁ced	-7534
▁vac	-7535
destu	-7536
funta	-7537
gastu	-7538
guaca	-7539
guada	-7540
guala	-7541
guali	-7542
iecis	-7543
leciu	-7544
lusti	-7545
marin	-7546
orado	-7547
ragua	-7548
ranci	-7549
rante	-7550
rastu	-7551
renes	-7552
stica	-7553
stigu	-7554
stilo	-7555
ustin	-7556
xiflo	-7557
yordo	-7558
ítica	-7559
▁Baus	-7560
▁Buen	-7561
▁Chil	-7562
▁Chim	-7563
▁Cype	-7564
▁Mame	-7565
▁Sian	-7566
▁Side	-7567
▁Suer	-7568
▁apue	-7569
▁arbu	-7570
▁ardi	-7571
▁arma	-7572
▁arre	-7573
▁auto	-7574
▁bole	-7575
▁boni	-7576
▁cent	-7577
▁cier	-7578
▁ciru	-7579
▁civi	-7580
▁copi	-7581
▁corn	-7582
▁corr	-7583
▁cump	-7584
▁cáma	-7585
▁cífi	-7586
▁diab	-7587
▁dibu	-7588
▁dici	-7589
▁diec	-7590
▁diri	-7591
▁doli	-7592
▁espá	-7593
▁expe	-7594
▁figu	-7595
▁fole	-7596
▁futu	-7597
▁gavi	-7598
▁grue	-7599
bán	-7600
dán	-7601
hol	-7602
mán	-7603
oló	-7604
sán	-7605
ódu	-7606
aria	-7607
aril	-7608
bino	-7609
bril	-7610
choa	-7611
duci	-7612
echo	-7613
edri	-7614
erdu	-7615
eril	-7616
fino	-7617
gino	-7618
ibru	-7619
icho	-7620
idar	-7621
iria	-7622
iril	-7623
lino	-7624
ocho	-7625
olen	-7626
olin	-7627
olon	-7628
olun	-7629
pino	-7630
rias	-7631
rodu	-7632
rril	-7633
sino	-7634
tián	-7635
tria	-7636
unil	-7637
unio	-7638
unis	-7639
uniu	-7640
vino	-7641
zool	-7642
▁Cab	-7643
▁Cap	-7644
▁Cay	-7645
▁bol	-7646
▁leñ	-7647
daria	-7648
drinu	-7649
dulia	-7650
inola	-7651
inose	-7652
landu	-7653
males	-7654
maril	-7655
onino	-7656
reril	-7657
riale	-7658
rille	-7659
rradu	-7660
saria	-7661
tados	-7662
xylon	-7663
yutla	-7664
áculo	-7665
▁Caca	-7666
▁Cape	-7667
▁Capu	-7668
▁Cara	-7669
▁Case	-7670
▁Muni	-7671
▁crey	-7672
▁cria	-7673
▁enva	-7674
▁guaz	-7675
▁hele	-7676
▁jard	-7677
▁limb	-7678
▁limp	-7679
▁láti	-7680
▁lígu	-7681
▁madr	-7682
▁madu	-7683
▁mañe	-7684
▁maño	-7685
▁medu	-7686
▁mene	-7687
▁mism	-7688
▁mone	-7689
▁mueb	-7690
▁muni	-7691
▁muñe	-7692
▁módu	-7693
▁nava	-7694
▁nego	-7695
▁otra	-7696
▁pard	-7697
▁perf	-7698
▁peyi	-7699
Bol	-7700
pol	-7701
uia	-7702
uil	-7703
uip	-7704
uit	-7705
uiv	-7706
zoo	-7707
zoz	-7708
anav	-7709
ario	-7710
ccio	-7711
elas	-7712
gela	-7713
jizo	-7714
laye	-7715
lazo	-7716
olte	-7717
sang	-7718
sano	-7719
ssan	-7720
tias	-7721
tizo	-7722
tram	-7723
trio	-7724
uich	-7725
uisi	-7726
urio	-7727
usan	-7728
zoli	-7729
▁gló	-7730
▁let	-7731
▁vig	-7732
▁vir	-7733
anero	-7734
arrio	-7735
atros	-7736
banth	-7737
bente	-7738
bicio	-7739
ciolo	-7740
diana	-7741
enero	-7742
entes	-7743
enteñ	-7744
etros	-7745
gente	-7746
inero	-7747
lacio	-7748
lecio	-7749
lente	-7750
liana	-7751
niero	-7752
pacio	-7753
pticu	-7754
rario	-7755
recio	-7756
ricio	-7757
riero	-7758
rocio	-7759
sario	-7760
trali	-7761
ámara	-7762
ónero	-7763
▁Cole	-7764
▁cani	-7765
▁esme	-7766
▁lech	-7767
▁licó	-7768
▁pied	-7769
▁popo	-7770
▁pren	-7771
▁prog	-7772
▁prue	-7773
▁puer	-7774
▁purí	-7775
▁rope	-7776
▁sapi	-7777
▁somb	-7778
▁suel	-7779
▁sába	-7780
▁sáma	-7781
▁tije	-7782
▁traj	-7783
▁tram	-7784
▁trap	-7785
▁traz	-7786
▁tubu	-7787
▁tumb	-7788
▁unif	-7789
▁viaj	-7790
▁vigu	-7791
▁viol	-7792
▁visi	-7793
▁zagu	-7794
▁zapa	-7795
▁zool	-7796
▁zóca	-7797
▁ángu	-7798
Steban	-7799
jM	-7800
nw	-7801
Car	-7802
Cor	-7803
Fla	-7804
arí	-7805
elu	-7806
emó	-7807
lah	-7808
lai	-7809
lap	-7810
lav	-7811
lid	-7812
lut	-7813
oja	-7814
ore	-7815
orn	-7816
oru	-7817
pil	-7818
pla	-7819
sla	-7820
ulu	-7821
áte	-7822
íne	-7823
▁Au	-7824
▁oc	-7825
▁ot	-7826
▁oy	-7827
Inga	-7828
acea	-7829
alor	-7830
chen	-7831
dazo	-7832
eman	-7833
flor	-7834
iese	-7835
lala	-7836
laya	-7837
lepi	-7838
lula	-7839
luso	-7840
oran	-7841
orna	-7842
orni	-7843
orti	-7844
pica	-7845
rali	-7846
rich	-7847
risó	-7848
sari	-7849
soli	-7850
undi	-7851
▁Ina	-7852
▁cli	-7853
▁hig	-7854
▁min	-7855
▁rem	-7856
anela	-7857
bacea	-7858
cacea	-7859
chili	-7860
eazar	-7861
forma	-7862
gacea	-7863
irinu	-7864
loren	-7865
lutin	-7866
macea	-7867
nacea	-7868
pache	-7869
racea	-7870
rathe	-7871
steba	-7872
tacea	-7873
taneo	-7874
▁faji	-7875
▁jama	-7876
▁kara	-7877
▁paya	-7878
▁vari	-7879
andela	-7880
anilla	-7881
anizar	-7882
anjada	-7883
anjado	-7884
antale	-7885
antana	-7886
aranja	-7887
arenta	-7888
bellón	-7889
bernam	-7890
calera	-7891
cativo	-7892
cciona	-7893
celina	-7894
ceptar	-7895
cesita	-7896
chever	-7897
chocar	-7898
ciolos	-7899
ac	-7900
ib	-7901
ih	-7902
sw	-7903
ami	-7904
ati	-7905
dsi	-7906
ega	-7907
enz	-7908
ení	-7909
gav	-7910
iki	-7911
inz	-7912
lay	-7913
liá	-7914
lso	-7915
luo	-7916
mid	-7917
nav	-7918
ola	-7919
ope	-7920
rso	-7921
rul	-7922
sur	-7923
tir	-7924
tit	-7925
tiz	-7926
umi	-7927
unc	-7928
viv	-7929
xal	-7930
yri	-7931
yso	-7932
▁Sp	-7933
▁Só	-7934
▁rá	-7935
anso	-7936
barb	-7937
▁	-7938
a	-7939
4	-7940
n	-7941
i	-7942
3	-7943
1	-7944
u	-7945
k	-7946
2	-7947
=	-7948
t	-7949
d	-7950
'	-7951
o	-7952
y	-7953
b	-7954
e	-7955
r	-7956
)	-7957
(	-7958
,	-7959
x	-7960
s	-7961
j	-7962
c	-7963
h	-7964
-	-7965
w	-7966
ñ	-7967
m	-7968
.	-7969
l	-7970
p	-7971
T	-7972
"	-7973
g	-7974
Y	-7975
N	-7976
S	-7977
A	-7978
¿	-7979
?	-7980
I	-7981
ó	-7982
K	-7983
B	-7984
v	-7985
M	-7986
f	-7987
C	-7988
J	-7989
á	-7990
z	-7991
E	-7992
í	-7993
F	-7994
X	-7995
L	-7996
