▁vender
▁2010,
▁Tiesa
▁пот
▁יהיו
▁mbok
▁concentración
▁plat
ulad
▁캠퍼
닿
ίδια
▁Mist
▁సహజ
bes
▁ነበር።
对
▁Ohio
▁nii
▁салу
▁هەنگ
ësim
ernde
▁제목
igų
アメリカ人の
usest
zne
▁isikute
▁Remember
odina
▁zelfs
чкој
▁ligi
▁ئەمەریکا
▁mugenzi
toar
▁위치한
▁کھو
लेम
▁sgt
▁tokį
▁gevolge
▁ウィ
▁dauz
ىلەرنى
本書
▁suiv
Ча
របស់គាត់
चल
▁үзенә
▁travay
▁bắc
▁compres
▁tẽng
▁sentir
żil
▁ST
dawn
▁భయం
fall
xä
ացին
▁Cuɛ
▁أسر
▁novada
ávali
▁général
▁ketu
▁Kans
▁gide
ίας
:,
▁የብ
▁vakabauti
ໃຫ້ທ່ານ
ებების
▁मेहर
▁سیکھ
鲁
▁गेला
▁पढ़ा
▁մասնակց
▁तर्
▁educati
дарә
たら
ператор
▁dín
▁андай
▁nhất
រាប់
▁Eleanor
agga
▁Više
▁मँ
▁마스터
inik
inojo
就是
▁তোমরা
▁serez
▁صاحب
wĩe
piar
seamnă
▁imposible
▁egu
▁କଣ
▁вико
tikai
▁kategorijas
▁kanser
리를
ทธิ์
▁aktiviteter
▁외
▁Arewa
▁جانب
ચ્
▁tadila
▁шушы
ствените
amelo
▁බලමු
▁kéng
▁galaksi
видно
դ
ˈ
▁náklad
▁굶
▁vücud
▁transparent
▁iper
▁cwi
▁컴퓨터
混
▁pytanie
▁dúró
▁जिआ
▁블루
తుంది
면을
ཞབས་ཕྱི་
▁kesepakatan
▁ክርስትያናት
▁tshia
▁nowach
chto
家族は
▁폭발
▁onyalo
▁assicur
▁kënd
▁ତାରିଖରେ
Kũ
ron
▁पाए
▁تمام
▁chilo
▁그렇습니다
▁ohu
▁Buff
▁2000,
▁auzi
をもたら
▁suuda
▁বাকি
▁geomet
यारी
ऩ
▁پروژه
▁gevo
▁nyi
を訪問
▁sarakïnwa
ార
了他
▁छिन्
ത്തിന്
▁Year
HP
kho
偈
▁kuThixo
▁แต่
cre
▁좋다
▁жағдайларда
▁arkadaşı
▁ഞങ്ങൾക്ക്
빠
▁bhain
▁گت
ua
▁கிடைக்கும்
▁chlár
është
▁inmedi
▁Ez
▁suba
իշտ
▁vuod
fyld
▁kyakkya
▁thats
ಡಿಯಲ್ಲಿ
▁ಆಸ್ಪತ್
▁ఇతరు
▁gwir
द्व
▁еще
తున్నా
▁comhar
▁Dawu
ၢမ်
▁mbajtur
ኹን
äsi
ོའི་
▁nevo
▁futures
▁bicik
▁Algun
ombie
жели
▁Այսպիսով
▁Affa
▁bhi
▁خار
▁sapi
▁tore
හාර
ליך
▁pobūdžio
▁seksua
▁கொடுத்த
▁actualmente
▁PLE
▁تۇرى
▁власти
▁غریب
oston
▁Themba
饿
▁межа
▁쓰는
ാല
တဲ့
କାର
▁wonder
▁keju
▁这些
▁circular
▁robí
▁izindaba
▁pumasok
når
nuta
嘗
▁લીધો
érique
nogaeth
deen
ikinti
жение
▁kekayaan
▁fremskridt
▁excit
らを
▁kako
itosť
▁могао
ਡੀ
▁Entry
anamh
џе
▁16:
▁değiş
▁гледаме
▁Boże
▁Μπορείς
hazikitsidwa
▁изм
▁sang
시가
▁изпол
▁そこで
▁ఆసక్తి
인에
▁táimid
▁પરંતુ
▁coe
tutto
▁cris
▁ohi
▁nomon
指揮
▁၍
જાર
îë
йне
ogrà
ense
▁BAT
lát
ìa
edden
▁ګټ
▁produce
▁எம்
オープン
으로서
müş
рао
▁යා
ланган
▁Cah
这一
▁része
སྒྱུར་
داسې
▁dekk
agano
inao
▁قه
▁Chiuta
▁viene
▁mev
▁balang
אום
umva
▁네
▁bhindamena
▁njikọ
▁lutsandvo
ଯୁ
OMO
▁revid
joh
BE
▁bosembo
hatja
วะ
▁मां
▁삶의
▁ага
▁trabayu
▁حمه
เปลี่ยนแปลง
▁sabyr
是至
ভাৱ
ାମ
▁saran
ibā
کی
▁شای
সমূহৰ
▁endzela
臘
?!"
ҳем
▁новца
▁menyelesaikan
▁vaim
▁khái
તમ
▁saiatu
▁offisi
▁ukuziphatha
▁stebė
ḥeɣ
र्वा
▁decirte
സ്റ്റ
▁பார்த்து
たび
ędz
结果
▁συσκευ
Itu
▁perkara
ალური
▁කලේ
▁اینترنت
ืน
▁децу
મિક
▁Traba
▁jésù
▁것이요
▁غال
▁Ŵa
▁оё
▁ის
启示
▁يكون
yawandiikibwa
ģiju
▁високи
▁중대한
▁හර
ರಂದು
▁kasnije
мите
▁Nghymru
flu
lization
▁рецеп
ानां
▁onipa
▁dades
▁عوامل
່ນອນ
πεται
▁यहोवा
の多くは
▁África
宣伝
▁સમજી
ர்ம
▁kuptuar
▁tilb
▁шекара
▁gatatu
▁Lisolo
▁Nero
▁заў
▁dönüş
▁wolonwula
ཁོང་གི་
▁συμπ
ለም
म्मे
▁globali
▁dirisiwa
ພັດ
▁كىتاب
hlabeni
▁الجز
▁bantfwana
▁qüestió
▁ambil
▁պատկեր
▁Lily
▁nath
そのことを
の一部
▁шақы
▁yanaweza
▁Zim
▁छोड़
भुत
▁perlindungan
▁లో
тарма
ന്ദ്ര
▁apó
▁tarbi
კავშირ
がある
▁megide
▁Hör
▁beru
▁之後
▁lokelang
11,
▁ìmọ
Kako
▁nakeuh
▁hedder
atar
▁Volim
▁naba
▁दिया
unen
▁нар
▁ಪ್ರಯತ್ನಿಸಿ
жээ
ু
учы
ena
▁ҡайта
વો
▁muncul
የው
ྨ
▁ಎನ್ನುವುದು
運動
▁fólki
III
▁लड़की
▁eloko
▁ಏಕೆಂದರೆ
▁ನಿರ
▁વી
▁بىرىگە
▁arit
arty
▁principale
öra
▁fons
པ་ཡིན་
stil
▁jaote
▁난민
▁pagarigan
▁approximately
を観
▁uabha
▁agored
▁kugona
▁اولا
▁колдонуп
▁laissé
▁Тут
▁meni
fið
▁мільй
▁سالگی
▁farlig
▁Júù
Tu
▁ಕಂಪ
លែង
쁠
othi
▁chok
▁ati
▁ممنوع
▁matanga
Iza
ដំណ
▁ఆఫ
▁telewi
▁கூறிய
▁Tighearna
▁कल्याण
▁Καλά
▁Canon
ກ່ຽວກັບ
▁walad
▁בהם
▁Үк
▁कुर
ವನ
冠
▁pakeng
штыра
▁Ruk
OR
交通
▁boro
▁ري
▁צייט
▁totas
хаж
ಲ್ಪಟ್ಟ
につ
▁Dip
▁ŋuwò
▁Rose
aminifu
政府の
ង្ហាញ
▁sistēma
▁줄을
▁מיני
सुस
▁classic
번째
ท่าน
▁kösz
▁pamenepo
zyj
▁discre
philo
▁amio
▁jith
▁சிறி
▁natürlich
lihi
▁wiy
▁suno
ګر
▁wsz
巴
enskom
▁thabo
▁materials
▁molaong
Ѓ
▁moral
És
▁નમ
▁تجربه
▁koncentr
ardı
▁iyyan
님을
▁pugui
▁dispozícii
▁ҷой
▁үтәргә
▁camino
▁ચાલી
ียด
ጽሑ
tività
▁gedo
▁nabasa
▁Spoločnosť
▁માગ
atament
dic
▁zave
▁start
▁기회
▁angkanna
▁kugera
▁қарап
▁byona
財政
žia
نهم
ıklı
▁tunn
ゆえ
▁deposit
entenan
uhusu
▁MH
▁badu
▁hac
▁Majalisar
▁reporter
atota
ütün
etei
ørs
▁사고
ave
▁punkts
▁yiman
▁kevandaka
▁rusange
apón
▁bedrifter
▁spia
▁picio
▁rakstu
▁ਹਾ
▁షా
▁vietā
▁kanssasi
▁жагдай
əsən
olto
▁၎င်း
▁의하면
ਬਰ
elos
▁etan
▁তাক
eres
▁grunnleggende
réck
▁पूछे
▁வரு
Ά
▁ድዩ፧
əli
▁ਲਾਗੂ
usten
chea
価値を
▁dynam
իռ
充分
▁evolución
ところです
ök
遜
▁nada
Os
ontolo
▁Raja
กัน
ght
▁botsa
▁периода
▁അത്യ
注意
Gén
яка
▁집으로
經濟
▁gcás
शं
▁Ուր
ज़ी
▁zuri
▁предви
ũngalu
▁ପୀ
▁wyglą
،،
▁gafe
▁ອອກ
গীয়া
кової
.........
▁Uran
▁tloha
▁tụ
▁أنها
렸
誰
▁អ៊ីស្រា
▁세대
▁Setelah
▁زیبایی
alubongan
▁kwosa
▁cờ
臆
တို့သည်
ftir
дних
bairt
▁cabelo
▁يق
▁rayuwar
udumu
মূলক
چوب
▁Tē
രിച്ചു
▁చంప
padala
inzu
▁usług
▁gɔ
ールド
▁Yeni
▁прозо
ðinu
▁ژیانی
р
əri
訓練
▁옷을
▁szyb
▁dør
▁televí
▁hekk
▁ключ
fruntiera
▁tà
▁medžiagos
▁आयल
▁omhandlede
▁તરફથી
▁ដ្បិត
▁ඔහුට
▁វិន
▁савр
▁dihl
▁موس
▁కీల
дора
▁molem
ֹ
گین
▁katawan
▁հան
▁keyi
▁Nous
zzák
stės
▁kanneen
▁nzi
▁insa
▁cheqa
jelser
▁цілком
الص
amaki
▁elab
▁τ
եկան
▁पच
▁كانی
ojn
▁ৱাফম
▁MD
▁Rĩrĩa
▁Tv
▁sinda
▁stóra
ⵜⵜ
▁పొందు
ືອນ
▁을
▁μελέ
couver
▁қатар
▁liwat
▁Florida
▁voks
▁később
▁tāpēc
▁ئون
▁Sawise
తులు
形の
bavu
▁болушубуз
▁yethu
▁Geoff
قد
▁Stadi
▁विकास
ңа
▁economic
ජන
▁nazari
ీల
▁alguém
▁አላህ
▁kuban
▁luyantiku
▁тама
▁отбасы
▁death
▁customers
▁razie
▁kým
世界中
▁jedhamu
▁ಗುರುತ
စောင့်
िक
▁spent
▁ула
▁ლთ
していたが
▁pejabat
??
wakha
eie
▁ноември
ຕ່າງໆ
▁үҙгә
▁nhwɛ
gja
▁wszystkim
egy
လို့ပါ။
ัมภีร์
▁Ən
కార్
▁ajll
തായ
impan
▁sniedz
▁забезпечити
▁shun
▁білікті
▁yupaychañ
66
məli
▁wys
▁concent
▁معمولی
▁phata
▁ዜጋ
▁(2007)
tagħ
▁אַנ
▁ազգային
▁tesi
▁galimybių
▁yankho
▁chạy
▁مەز
▁ტი
ەوتن
▁Đất
▁matern
▁調査
▁nginya
▁ажиллах
▁ಉಳಿದ
▁надво
▁stórt
▁družba
▁அதிகார
쁜
▁prop
▁cridhe
▁merrni
▁stroškov
▁dc
▁એકલા
▁випад
▁نئون
▁hvørja
▁এতে
▁मरा
లోకి
umelela
janiw
ฐ
▁ଆଧାର
▁esame
ێرن
ຈະບໍ່
▁Lefoko
▁passare
規
▁အလင်း
▁Ngeke
ljan
▁obubi
▁Gotta
▁تمہ
зам
fundisho
hemmin
tile
چۇ
▁재료
▁گاہ
tak
▁Yem
▁amama
onakalo
мө
▁مامۆست
▁mehani
▁sameeyey
zulu
▁ís
映画の
▁qualcosa
šķ
▁նույնիսկ
▁ይገባ
ကစား
▁sē
▁(2).
вээ
▁جلسه
▁gevaar
▁wëssen
ƆL
য়া
▁njegovih
と語った
▁okug
σσα
ículu
▁asu
▁Barn
▁Tingnan
▁생길
▁ojos
तील
čilo
▁Wap
▁supplement
▁நன்றாக
▁قايتىپ
▁nangoku
ביר
细胞
권
Ґ
mali
▁עלטער
▁recep
▁Rá
▁gbọ
▁заңды
▁ئىل
▁mamanah
يور
▁Βασ
▁verkeer
▁Ook
したという
▁cakuti
ekate
▁вве
コスト
▁américa
mol
▁夫
kulungwane
▁vaksin
▁kesulilo
sɩ
da
▁маанил
ตาม
▁ألف
▁soňky
▁৫০
▁żona
▁মী
:2
▁memproduksi
ቻለ
▁너희의
▁않아도
▁супраць
xa
▁お
▁uute
▁wouldn
▁prodotti
論文
atib
▁Jewova
▁paziņoj
▁gulak
aición
சம்
▁gbě
▁môžem
ဖြစ်နိုင်
▁ŋutsu
▁badiri
логик
សម្រាប់
▁ditaba
ونم
▁cishe
ingiye
▁どちら
üm
▁лоша
▁X
▁inor
شفى
త్యా
👁
örd
▁გსურთ
чно
ਾਲਰ
gidere
ਾਦ
kang
▁degişli
ڈن
larin
▁summas
▁voldoende
▁virinoj
▶
ísticas
աղաք
▁لگے
▁រី
chaw
प्रै
▁Så
所
▁šport
ုပ်
▁tn
▁అక్క
▁从
▁pesar
もまた
ম্ম
5]
innya
anana
▁គឺជា
▁Беҙҙең
▁җи
チームの
▁kár
▁manehna
▁Tabata
ályság
▁teikia
▁gæ
pong
แข็ง
зг
ātnes
▁पारित
སོ་སོའི་
▁чейин
лігі
▁നിമിഷ
lendir
ဘုရင်
▁aai
embeki
▁miyo
きっと
体は
▁chamada
▁잡
▁पोर्ट
▁Dự
▁аппара
ែត
▁並且
▁dårlig
▁ରଖନ୍ତୁ
▁giản
▁יעדער
▁abangama
▁jedino
▁segle
▁ریا
▁איפה
राधना
▁ఆయ
्रल
▁تسل
ykite
▁ձեռ
▁niyan
▁पुस्तका
vame
▁ماری
▁궁극적으로
▁ছেলে
ったら
▁ipakita
▁правиш
▁pagkaka
▁posizione
usut
▁wagty
й
Apr
וג
▁wuce
▁เน
samt
ŷ
▁ગ્રા
▁Xapón
▁ଏଠାରେ
▁gj
iroo
仮想通貨
▁alcan
resa
ха
хі
▁Tug
alist
▁전화
▁union
ammwe
▁prie
▁grazie
▁autob
երտ
▁profesi
▁두번째
чують
▁Taba
▁ఎన్నిక
▁dòng
▁بىكار
▁netaik
слам
と呼ばれる
▁Oto
чына
▁христиан
▁laboratori
泣き
▁Sathana
inx
ڠ
тората
▁cif
▁hwako
ovatno
Kom
▁nzọ
ста
▁سەرکەوت
▁cáo
▁مساف
▁misambu
▁مناف
ეები
▁μετα
▁places
▁Һ
▁теңге
▁jono
▁thuair
首
้อมูล
▁156
▁cher
atizo
は私の
કામ
▁चर्च
führt
▁કઈ
▁قاز
▁impu
▁참석
▁বক্ত
འབུལ་
▁nunna
▁планета
▁EL
▁groupe
▁бога
ਹੋ
▁ਬੈਠ
▁neats
▁ম্যাচ
理
▁filanan
▁orgánov
▁segmen
▁ئۆت
intų
▁도울
▁Cl
ībā
▁ຂ້າພະເຈົ້າ
▁хтось
።
▁సాధారణ
▁Mivel
▁kãadem
▁poter
▁jāie
▁πρόκειται
▁छल
akarurama
▁τρόπος
▁potrebne
ነስ
▁aproxim
▁riziką
▁został
ვნთ
▁жүзеге
▁Close
▁tabşyr
▁gali
▁피조
ることです
▁хуп
▁keyiic
▁පුදුම
▁olgeta
ስተ
▁आख
대는
▁دارم
▁jec
▁byar
ónia
掂
ऑ
▁gebi
▁गुणा
▁geme
zazi
aktwa
▁vyk
▁használat
▁arrangement
▁sigira
êlô
▁tržiš
LV
▁zauwa
▁Athens
総
▁сән
♫
합니다
▁Quindi
▁Doctor
▁འབད་དེ་
usaga
▁uâ
legar
▁umbombe
өрө
ུང
▁City
ĩa
▁പേര
▁miembros
▁ໃນ
iteľa
▁miara
anyong
▁sadur
jave
하다는
▁kosòn
▁ucajj
▁巴
▁ムー
▁tilby
▁төрөл
▁радика
▁Mong
چىپ
▁Βλέπ
▁видим
▁langs
▁kugwa
▁järjest
вајући
šku
▁kilometer
▁agụ
▁zangu
▁ខ្
▁الأمر
▁aki
Job
▁ຕ່າງ
▁ăla
▁кыла
繰
▁amel
▁Kentucky
▁නැ
▁ସରକାର
shia
ستخدم
▁iva
▁babeli
▁sigaret
▁بص
▁있음
▁klassisk
▁Така
▁meaning
மல்ல
▁енгізу
टिंग
flo
نان
足を
w
▁Пере
▁ক্র
▁nĩwat
▁mwam
VO
▁ягъни
▁widzi
▁სტუდენ
laku
عش
Бо
▁דאָ
▁Sab
Prot
▁контрола
መለስ
善
▁čás
▁голов
▁sosai
▁κατάλλη
▁halua
▁Segundo
▁tiyak
▁Pick
▁मिळेल
▁tàn
▁모릅니다
▁کیسا
▁gok
▁erforder
ishima
undang
▁Kuidas
න්ද
▁риба
▁őt
▁sciis
είμενο
▁સ્થાન
▁مكت
त्
કાળ
▁સંકે
▁бу
▁ichi
дия
ほとん
▁koleka
▁rules
йде
རྒྱབ་
▁टेस्ट
▁लग्न
ということである
ukako
खंड
▁сооп
▁Nabal
▁ଅସ
▁ვფიქრობ
▁Ата
▁шари
▁ستت
▁widzę
▁һөҙөмтә
缅
irawarawa
▁ཨིན་རུང་
.[6
ặp
▁Duitse
▁Anteil
▁banag
▁indak
▁հարց
тивних
▁Egypti
bir
▁완벽한
존
▁संरक्षण
Sing
misa
▁þú
སྨོ་ཟེར་བ་ཅིན་
chejta
▁Karalyst
▁daik
▁ነኝ።
niye
▁celles
▁جستجوی
▁caused
▁तत्काल
▁pràctica
mɛn
▁caption
▁mohuta
▁scenari
зня
▁شاد
▁աշխարհը
▁suwa
siet
▁sehar
jesù
కోవాలని
薪
▁pamp
糖尿病
▁फिलहाल
▁jikelele
བསྙེན་བཀུར་
ंभ
anné
andleni
▁transa
សហ
▁Unedig
▁ვიცით
▁оның
ապ
▁Asturi
▁tend
▁ذهب
▁налазе
פחה
▁služba
にその
Hena
udes
ково
▁newidiadau
ულს
▁cenn
си
▁ваҡыт
κής
▁verða
▁olaj
▁limanena
▁رہی
▁장례
ekül
贸
likha
হৃত
▁Zir
▁dzim
▁ст
▁širdies
▁හැර
▁afeha
▁cement
idaes
▁Viņi
▁verks
▁sht
usab
▁szórako
▁posu
▁nửa
▁péicha
▁stroške
իրոջ
▁Nyɛ
▁siquiera
▁gadier
▁кроме
▁omma
▁عهده
ของมัน
ordning
▁fala
▁мэт
▁barutwa
▁succe
▁თქვა
▁sego
ભવ
రాలు
hlas
ekse
सौ
▁waje
▁atoro
nako
mú
▁საკითხ
▁zuten
▁ariza
▁faneleke
▁baada
▁циљ
▁contain
▁друго
▁vang
▁dever
▁karakteristik
ওঁ
▁nesen
▁ота
19
▁ар
▁proven
▁উন্নয়
▁Biasanya
▁यहूद
▁Supreme
伝統
iseas
ىل
▁riz
▁کہہ
тарлық
ڪت
▁དང་
تلرئن
▁помер
▁મને
▁billion
▁Questi
ంద
だな
真に
▁rawn
▁좁
enske
▁vinaka
▁Хе
▁խաղաղ
▁無
▁cât
▁dany
веро
ఆర్
▁ట
▁බැහැ
ម្បី
▁Ezek
年間で
ཨིན་ན་
▁toile
▁путе
ђене
ేష
▁donya
▁башка
▁woava
ཡ་ཧུ་དཱ་པའི་
▁ndik
▁혹시
रूप
stw
▁פעמים
▁CIT
▁Vasta
▁කෑ
▁marketing
▁alwora
һеҙ
ตัว
chalik
▁hollarda
ږد
▁whi
aŋ
دیه
▁administrative
▁reglamentas
候補
▁bopa
▁batek
▁pʋsẽ
ebda
▁अमेरिक
▁faavavau
▁hətta
▁157
▁اورشلئمده
▁menyuruh
ዷ
ójában
▁Улы
-2
▁manharhu
▁takoj
▁ies
▁результати
isenä
▁ভালোবা
chito
▁yi
onda
▁सांग
дәре
▁küçük
▁Bari
▁išsam
▁ödə
▁ಮಾನವ
ኚ
isio
▁வார்த்தை
▁задр
ທິດ
▁Gonz
ársaság
աւ
▁paqallqu
▁걷는
▁incorpor
cul
▁আমাক
实
かで
▁kpeng
引っ越
▁Абду
▁ზოგი
▁هیچ
Bang
▁European
▁curu
▁warm
▁thus
▁Rossi
▁guera
ճար
▁Jɛn
▁takim
▁["
:26
▁Tarybos
▁эффек
▁Menn
ंह
ınızın
ikalı
ማ
པ་ཡིན་ན།
▁kyerɛkyerɛ
▁yagona
▁matendo
▁nggo
▁edhe
▁sameyn
▁strani
▁panui
▁tydens
▁місце
▁Spo
里的
yns
搶
łą
▁٤
yninta
▁للإ
▁reson
▁صن
▁stip
landse
њени
▁Yadi
ابق
дење
asachd
▁يمكننا
▁1782
▁ဘုရား
▁znamená
▁xul
▁550
荣
危機
ንዳ
ⵢ
mier
▁likely
ण्यात
ལེ་
ంబ
jente
령
▁altijd
▁cubi
▁tę
▁criar
nou
kro
▁judge
▁axi
▁kaiba
يما
▁nisem
▁Mongo
▁iyẹn
▁وقال
ম্প
▁odds
ካ፡
▁zabra
▁постоян
▁fragment
स्वरूप
idlo
▁Himmel
▁especially
хаба
wix
▁Ngwa
▁Axɔ
▁الا
▁پورې
ལུས་
▁esika
▁хаты
▁자들에게
▁Rådets
▁reun
▁farà
▁iyyanaritu
▁vlastné
刻
▁umumnya
▁strane
▁jinan
▁товаров
halidwe
oloo
▁अस्त
▁pananisia
อา
▁embri
llen
▁আজ
▁நடவ
▁ithu
▁җәнн
▁창조
ファ
▁bahu
▁luokaliye
▁uzu
▁بأ
▁imiBhalo
▁жылдық
▁riik
mahịa
▁ምሥ
▁збира
▁yuqori
▁lenne
ivos
үк
▁hone
▁도구
▁makap
▁ajjsaramti
ravi
▁Kord
▁Nuna
▁Zá
▁দিশ
▁possibile
▁پێ
дид
▁ball
őr
▁jam
▁থৌ
ையா
니까요
▁bhakula
▁qarat
ubeh
endela
낸
ומן
▁המי
▁tygod
▁social
▁pregled
κει
▁college
▁arun
▁ა
▁Оста
▁معنا
▁buge
▁bunun
▁kiku
▁muhtemelen
ებოდა
▁shite
▁پ
splan
地域の
ለና
▁ያንን
嫲
ỹva
▁бөлім
ご存じ
sk
歳
▁चलता
itain
▁ɔbea
▁habari
ỳ
学習
▁kertoa
▁xanis
idler
ネ
upay
imisa
මේ
▁ánh
▁Thứ
▁hará
▁կանչ
Bitcoin
gov
▁Kran
engua
▁Scientific
▁লক্ষ্য
▁tambuile
▁arrived
▁yaba
▁bekas
▁bamuny
бызда
确认
▁धर्म
მთ
▁adesua
šeditše
▁giấu
oq
▁སློབ་
▁pobi
օ
নিক
▁سری
▁vehículos
▁mendrika
ški
▁કૃ
éns
tajās
मिन्
кий
inglés
ency
Чи
▁Farm
▁Jehovan
mháil
깝
ٛز
▁kaka
▁kuso
ၸိုင်ႈ
らし
▁хоті
orta
▁terr
étek
סיס
스터
▁поло
ديك
▁ʋɛ
пар
kpaɣ
▁erosi
ཞུ་ནུག
▁йәй
ırsan
өнө
▁ਭੂ
▁आपकै
症状
▁දන්නෙ
ودو
▁noge
▁awanan
▁73
▁ردگاری
▁σω
pogau
រយៈពេល
▁добие
▁rilaleng
ayyuu
▁neno
▁Sitan
▁želijo
ргә
▁Někdo
sichtig
▁aju
▁راحت
▁ചോദിച്ചു
▁Уи
сул
1-
▁എഴു
条項
ⴱ
asik
imisaki
futha
▁ខែ
eliselt
▁tunggil
▁Studios
▁prova
ཨིསི་རཱཨེལ་གྱི་
▁техникалық
emeli
▁koske
▁ntoma
▁suntem
ဖြစ်လာ
เดินทาง
▁kulut
▁kawa
▁těžké
▁ફરી
▁amasezerano
ण्या
▁Наистина
ikorwa
▁ханым
▁capaces
亜
▁3:11,
рту
▁անոր
貝
ዎች
▁父
hiriki
дности
▁môžeme
▁ayi
mít
▁vegada
▁Жаңы
מל
ສຸດ
▁Liboso
כטיק
▁കൊല്ല
▁çawa
▁सुद्धा
▁dalk
▁παρο
▁nikdo
▁miedo
▁fyonse
▁정확하게
▁limanna
wij
▁Mir
▁खिला
דרה
▁adolat
▁kereta
▁kəla
Kɔ
▁lesik
▁പു
esco
▁leho
▁každý
ंद
funda
ཡིན་ནོ།
んと
▁Jėzus
▁фили
amtu
▁Konse
ונס
ৎ
lalo
▁Vocês
▁Αν
▁etilgen
engwe
ନ୍ତୁ
▁的
▁PV
▁qhip
lawulo
▁treaba
▁nanti
▁விமான
110
▁स्क
halb
▁Panang
▁whiriwhiri
▁інше
ondzi
pal
פֿן
▁rre
чаць
lassi
▁mienhu
▁እተ
▁شخصی
▁ዕድል
▁उद्या
▁দিয়া
inaha
ರಲ್ಲಿ
▁پێدە
台
umbulwile
▁são
ვენი
这些
▁Koninkryk
▁efatra
ṣí
▁njengoba
▁বন্ধ
▁интереси
ódó
్వ
▁44
▁sokat
▁חייבת
vali
▁Bola
▁könnyű
▁afwaya
▁متعارف
ovei
imit
▁सै
アカウント
大陸
hileng
▁controllo
▁ଜଣାପ
ρά
▁الي
▁कर्त
angel
▁ምርት
▁beto
གྱོགས་
▁Hura
ера
▁tíu
▁jonka
▁abɛ
ďte
▁ovqat
ビット
▁Ось
ו
▁ਅਜੇ
▁olunaku
感到
entyn
▁gebeurd
預言
Jehovha
աղմ
රාධ
ೇಶನ್
▁ಮದು
▁sinir
▁komissi
▁bosakhut
лад
ashim
▁($
어가
▁Babam
ம்ம
▁ат
▁kuwo
▁некалькі
▁dvoma
▁Kweniso
▁다녀
▁хезмә
▁mans
лығында
黄
▁Udin
▁խոսել
गाव
ảo
▁Sek
ផ្សេង
▁koll
anar
чән
▁треба
▁кожна
▁posred
gapi
▁λέ
▁hộp
▁Lin
▁ło
▁sauƙi
▁szent
▁Potser
▁bandum
▁적이
▁okaň
▁ddunit
▁opnieuw
වේ
▁besk
gade
▁berken
▁чум
▁Ọma
ika
▁voj
に入って
ಟುವಟ
చేసి
▁Кудай
▁Prof
▁ночью
▁ଆସି
▁divul
▁mogopolo
▁not
wiada
▁setšoantšo
īgs
▁יק
jons
bikolwa
關
▁joalokaha
นอน
▁konferen
▁ತಂದ
▁cieka
pran
▁memasukkan
階級
したと
ǎn
▁Vedno
▁ringe
▁towe
15
▁karier
▁Коли
eang
ල්ප
▁djecu
▁Chrétien
▁դիտ
▁ukutya
▁дү
▁gitimo
ិបាក
ποίηση
regel
咒
cane
▁talab
▁dometɔ
֑
▁American
γγελ
вел
▁परमेसर
▁ನ್ಯ
usẽ
ឲ
▁totul
▁iyaya
ীয়ে
▁segítség
াদ
▁темпера
▁નિષ્ફ
બાદ
ляють
착
▁kungo
hang
▁دیگر
▁oedd
겟
▁почина
ordin
根本
▁siame
rafo
▁indicat
▁đỏ
▁použitie
▁ομο
unnut
tuje
jjel
▁drugog
▁ئافر
▁बहुत
▁kapatid
csát
▁स्वचालित
▁උත්තර
▁مەد
:.
ဋိ
の前
▁حداقل
▁ukuenje
ulumko
▁mēne
▁niyo
▁ትኽእል
▁berm
akar
▁cã
▁Verhand
പ്പെട
▁ପ୍ରାଣ
▁(5
insu
метри
Mus
▁khoa
▁sumaž
▁yashash
▁liberdade
▁කරපු
▁Olim
ازت
▁punika
ೆಯನ್ನು
▁sxi
▁온갖
▁ئېرى
▁погла
ಿಯಲ್ಲಿ
▁khăn
籍
▁wï
▁quanto
▁Suda
▁ĝis
▁ewe
▁מנסה
ས་
▁israe
ሉን
egel
▁meeldib
성은
▁parçası
▁battu
má
▁ukkh
ような気が
크
▁pavyzdžiui
▁своє
▁održa
▁restu
▁générale
▁vuos
▁आने
▁ٻيهر
қайсы
▁objekti
と言い
wó
umbu
laşi
▁مهاج
▁وليس
▁Account
▁програма
▁بهترين
▁teroris
utaw
▁ibe
▁Olsem
▁boemo
▁ស្រុក
▁masamba
rostát
▁kinini
▁ئۆلتۈر
▁опита
도의
大量
▁məqsəd
▁charge
▁בב
▁برد
ਿਕ
▁reke
▁Ego
enela
טוב
یہ
a
▁horo
▁funguje
▁kiến
▁көб
▁tipos
ೇಖ
▁بکەیت
adara
▁کہنے
▁တႃႉ
에있는
▁சொன்னார்
▁Websä
▁ولك
▁својом
▁Eebahaa
▁guma
▁polisie
▁verwag
بەند
▁čisto
istil
ваа
wui
▁kobebisa
akany
ћена
ښ
▁îl
yapt
▁oma
edara
сыңар
▁Laik
▁תש
▁שומ
▁blema
выт
vue
▁بالای
hagije
▁ተማሪዎች
▁може
▁पेठ
▁Caesar
▁Etu
ⵋⵋ
▁жоо
▁czar
▁ћете
▁ολο
пова
▁عين
▁tão
不正
▁ઓછા
▁lene
gnant
▁дайында
▁furasta
▁uyan
ကန်
лимпи
▁potlako
▁тобі
▁nibura
▁మొద
wałem
▁револу
àradh
▁Yahutu
vuta
▁defender
힙
riż
onság
▁сподіва
▁আগত
▁kontan
▁minei
utheni
▁سند
ත්තා
▁sibu
▁Sedaj
▁人々
hub
▁ясно
▁skam
▁ĉu
▁područja
ತು
lilikana
▁چي
irek
cific
ancu
▁sjek
▁ערשט
განი
념
sigt
▁모니
▁õnne
▁στή
эхийг
▁息子
▁chlor
▁ŝatus
▁профес
hina
▁críoch
▁Nya
▁onronna
▁Comitato
голя
▁yachachis
▁ìlànà
時は
▁मोठी
▁prostriedky
ੋਸ
▁प्रण
▁Teks
▁posmā
▁cuaca
ambiloko
Ord
▁shows
▁застосо
▁жетек
raum
▁front
སླབ་ནུག
ভূ
▁dezir
▁sjø
▁beting
▁운영
edral
▁ı
▁లేకపోతే
▁gonna
ەشە
▁Tše
inela
tow
oglob
▁λύ
▁hara
▁nede
▁اؤزونه
▁bedrij
boek
elmes
▁pogled
yre
▁käib
▁convin
▁betur
▁içer
▁aquí
endere
▁oca
ходит
デモ
▁dry
kusi
ائل
úká
すために
▁ہوجائے
▁kraft
▁ང་བཅས་ཀྱིས་
▁миллион
ameni
doedd
▁miesię
▁ninɔmɛ
▁σκό
▁moguć
ligvis
WP
▁zní
▁søger
▁jippermetti
▁sekaligus
▁Mār
▁psa
ଗତ
வது
▁Hog
▁vergeet
▁lefats
moč
▁молитва
▁primeiras
▁Eve
సే
▁said
?-
▁otutu
John
▁23)
▁১
官は
▁Nico
▁revista
ščiausi
▁گذاران
сао
▁hiha
のひとつ
レッド
▁informe
▁processing
▁vaihtoeh
vironment
出现
▁непри
▁rir
▁nhyiam
de
▁usab
▁hendenan
▁fjal
ellisen
ങ്ങളിൽ
▁Лу
▁തയ്യാറ
▁razen
▁زموږ
දුර
▁gjyk
▁ipapo
까지도
ক্ষা
▁ਅੰਗਰੇਜ਼ੀ
▁investigação
▁ཐག་
▁ኣብዚ
ွမ်း
▁figye
▁Trebam
▁party
當時
▁Porn
▁홀로
ayey
ındır
huti
امین
éva
▁여성이
ರಿಕೆ
▁аның
▁Psal
▁templo
vatu
▁ಮರೆಯ
▁Airways
▁widziałem
▁Ende
▁яшәү
▁مۇم
▁konania
▁ଅଲ
▁flest
qith
ってきた
▁všechny
▁Viem
▁বাকী
พา
▁เ
▁bę
▁بای
▁5:19-2
τουργ
▁амь
kið
ສັບ
▁قەۋمى
osso
▁vergon
▁desann
▁ಏನ
自分自身の
▁mpande
▁кез
▁ninja
妨げ
▁účink
▁spons
ੋਟੋ
בות
▁tikrųjų
ziale
▁štúdie
▁لەو
▁mik
▁cilat
▁اجتماعی
▁području
▁tradu
دات
▁Bac
▁UB
layimu
▁साइन
▁foko
▁باوه
▁ئاڵ
ħroġ
हइ
žel
력은
▁vašich
▁tintuża
▁উত
zók
▁gospodine
▁ụgbọala
▁árs
▁Aufgabe
મના
▁ढ
toliau
වෙලා
▁ડિ
▁şer
cu
▁llegó
▁Auk
zerá
▁HER
מלי
▁gibuhat
▁सिख
▁regolator
▁interneta
▁вероятно
先進
ніше
▁ընտր
udou
Ć
ებული
▁सोपे
▁nìkan
▁берілген
oter
áide
▁jor
▁njegovu
лява
nasi
トル
ondom
▁giận
▁올려
irse
▁atonya
▁acqu
▁нукле
emedi
liha
▁завер
ブの
▁किनकि
▁அணி
nengae
▁buaa
▁Juma
보
▁schonn
认
vimos
க்கின்ற
▁invloed
▁umma
proċessar
▁suas
േറ്റ്
▁kgonega
▁མི་དམངས་
▁behöver
▁어쩌
▁ដ
intes
chaidh
▁kéint
▁واقعیت
umaini
xɛ
▁καλύ
▁خپ
▁1500
▁तार
▁اٹھا
▁Whe
స్
▁neodvis
▁υπόψη
▁akar
тыл
▁කාර්
▁jonë
逐
▁produktai
▁עפּ
▁അതു
อิน
▁تاريخ
ຕົນເອງ
▁lëk
Де
▁ɛwɔ
▁cs
▁કાં
▁toplum
72
ዛ
μορ
በትን
▁scor
قي
▁Яҙмала
▁Կոր
▁בצורה
▁lɛ
republik
▁কয়েক
▁Iblis
▁përpar
чению
ním
▁zahte
▁ڕێگای
▁vrijed
दोष
▁Fila
▁aeg
ЕЛ
▁Minnesota
▁ठाढ़
▁ጥ
▁Bogart
▁potpuno
མ་བྱས་
▁pirmajā
▁بلو
▁여러분의
▁Yupela
の場合
▁dešimt
▁שהיה
▁dut
гнете
▁parant
▁гузашта
ansı
වී
▁trúa
▁توڑ
鸟
▁നില
▁molts
ዝ
▁gəlmə
▁mwaũ
▁అంతా
史上
▁kolela
取って
ཁྱེད་ལ་
▁Dù
xer
atig
▁אינפֿ
▁galu
▁martā
▁Ian
▁guive
ستىق
▁barangay
Ga
▁גייט
भ्य
▁bilersiňiz
▁Basque
▁type
▁wanneer
▁1:1)
用来
▁асырады
▁یتھ
ikora
ælles
▁Ivi
寸
▁бағалау
uanu
▁зони
ledně
ayogera
ལང་
▁वेग
γους
ríkà
▁17).
하느냐
▁ezint
▁fudhat
▁कनाडा
ٹنگ
▁Rə
▁akkan
ないと
▁সমগ্ৰ
uré
▁hørte
ōne
▁지식을
▁vukhale
нь
▁لېكىن
▁sanga
леп
▁Õ
▁internati
▁ఉన్న
▁amathuba
grie
▁toropong
▁biga
▁(24)
ায়
▁ampak
ŝi
▁boyfriend
ξέ
/20
éne
▁rigu
ახ
▁rupanya
▁ljubezni
々に
▁ostat
ینو
▁plūs
▁jury
▁ପିନ୍ଧ
▁మార
▁sapela
▁oven
▁силу
逆
▁ענ
◊
okom
▁nzo
그가
ফল
ରିକ
ଧ୍ୟାନ
▁ਜਾ
▁bers
áu
アメリカの
▁amiko
इया
▁musia
▁argom
▁kirin
บัน
▁sahihi
▁kullanım
ዚ፡
▁voet
▁шара
▁enorme
▁විය
ブラハ
ంలోని
▁szemb
lt
ական
▁guvo
γό
▁Yale
šanās
▁যী
▁vedeli
▁akiyesi
▁အထိ
▁dziku
▁veçanërisht
cape
штам
▁ترکیه
痺
▁цьому
еся
ଲାଇ
▁zven
▁ã
▁erbyn
▁друге
ົາມີ
▁ieros
▁транспор
▁borgere
▁작업
urg
▁iray
▁अनुमान
І
▁مره
anye
▁একাধিক
добро
▁merga
otis
時が
امع
egwu
▁ມື້
▁kapp
▁болды
▁podería
mitteln
▁ଖୋଜ
▁izstr
▁את
▁이용하여
טת
ไกล
▁lyen
राष्ट्र
្បិត
▁fhios
▁gesond
pubbliku
▁Xaq
▁барырға
▁zango
"
▁hygge
blion
јаните
▁syn
кар
▁tanlov
▁tayin
▁དང
▁ögon
▁Aƒetɔ
ɔbɛ
హ
樽
▁Ҡы
emar
uubi
케이션
▁đào
▁다음에
▁forfat
दु
▁holy
▁རྐ
hanyo
▁Ɩsɔ
不幸
únni
금이
▁zavar
▁уте
मार्ग
スカ
▁гэхэд
views
र्थ
▁Пожа
fræð
вшись
▁विन
▁ovako
고는
▁гара
▁frihet
ሰለ
рген
▁σταθε
крати
vih
▁mako
▁yabaki
▁сүй
рыс
staat
▁kibaru
ukom
▁Gall
▁будемо
▁7000
▁2009
▁münasi
▁shay
▁sihir
၊ဢိၵ်ႇတင်း
▁gatavo
▁رضا
▁9:6,
▁eski
▁harga
▁допомагає
▁Богу
▁laikā
тоци
াকায়
▁бих
▁Montana
设施
▁yiḍ
intho
▁সম্
▁ford
ନ୍ୟ
▁12).
▁kubva
▁saben
▁অভিযোগ
▁author
▁laaste
▁training
мни
由来
▁Vācijas
▁سون
ួច
▁jusqu
▁yonke
akɔ
▁ποιο
oknak
▁ngin
▁iše
▁sydäm
হা
▁expression
דש
▁renunci
▁lajan
▁može
▁ստանում
ਾਈਲ
ebenza
▁ግዜ
дарының
▁moci
anda
objectiu
adú
เล
▁ярил
▁qiziq
▁15,
▁வைத்து
cicio
かせる
ayso
▁aşağı
▁فنا
▁sets
▁руководите
বদি
▁можливо
▁investeerimis
▁zengin
▁מסת
atave
▁Biv
ankorɛ
ηγό
▁পাত
▁poročilo
anac
▁орынбаса
stige
▁सकारात्मक
сән
▁Оған
چھا
▁rabb
ewu
▁lavulula
གནམ་མེད་ས་མེད་
ँदैन
▁Urspr
▁있었지만
·
▁Wayne
▁chaitheamh
μπ
▁yidhaah
▁kiritish
hoan
changes
你应当
팅
▁आगा
områ
▁nemá
▁tijela
▁Бо
isione
▁مهمترین
zki
▁سمج
istų
▁רא
▁laengen
▁Sion
▁priority
▁деятельности
ċċa
▁ressourcer
كردنی
▁mukwano
▁सके
▁կյանք
aph
лының
▁którego
参
姓
▁مشخص
▁yaravuze
dığı
енных
ोध
ਮਤ
▁хаа
dard
itiang
▁AE
▁Eebana
▁moter
▁ਤਾਂ
لىقىغا
▁አማ
派遣
▁Менә
▁ଆ
▁πρόβλημα
ZA
▁mają
▁hif
裁判
▁Verfü
▁talked
▁kaldes
▁কই
▁reality
▁లక్షణాలు
▁gua
▁Reality
途
▁11:4
▁sistemin
▁убил
▁மூல
▁درمل
▁binoan
▁recommended
janijiet
ynuo
lands
▁väik
νατο
▁gitu
▁úrad
▁ɓuri
ෙකුට
▁kɔrɔta
▁прави
▁преко
فات
솔
▁kantun
▁kasance
народ
pelisa
ກົງ
әмәл
▁den
▁mamargi
▁Сала
стре
▁appro
▁に対
▁λογαριασ
▁reprez
ထိန်း
યેલા
▁روشنی
▁sandsyn
gihugu
▁somme
ಲೀ
▁Naya
களில்
▁Dezember
▁ដោយ
▁saludsod
ਲ
▁прет
▁зиё
zuar
ではある
▁مالیات
▁valim
itisi
▁федера
িবি
▁feels
ttar
▁ofta
▁mamá
▁jf
เปล่า
ος
ạt
ོབས་
zierung
▁өзгө
▁ብመን
syaĩĩsya
▁šetše
▁लाभ
ხედ
etic
▁ආදර
ប្រើប្រាស់
意见
込
▁valami
▁logam
▁boot
▁Við
整理
▁.:
ሁዳ
▁meta
▁està
zji
▁Θέλεις
▁fau
▁vu
▁저기
▁ཁོང་
▁kaɣ
▁맘
になれば
▁entir
wayelekile
▁duh
▁concerns
édi
▁siht
▁yhteistyötä
तरी
erungs
▁Makasar
vēt
▁Постоје
▁ଭବିଷ୍ୟ
▁seneste
lẹ
▁この場合
ཚུལ་
▁geiriau
▁hodet
▁wakatã
▁zvi
▁ārpus
▁जाँ
▁kritika
▁kínai
▁bangsaé
▁prostě
เพราะ
manifatt
eksa
▁sannsynlig
ற்
▁soalnya
▁zatlary
чә
▁aap
▁biabia
▁Thunder
▁ທະ
凝
▁thuh
彼女は
emana
љени
umayela
▁tieħu
کردنه
▁indeholder
▁Oč
▁دانشجویان
▁CAM
untas
▁entren
akasa
▁Druga
▁मित्रा
▁Lokacin
wenkwe
cados
▁बीता
▁تبا
ysi
▁korrup
▁þessa
▁ਸਾਹਮਣੇ
masından
▁fenaɣ
▁abis
▁ସୁ
iven
дыгын
▁nekünk
▁ntendelelu
日本
▁То
▁gemeente
▁இயக்க
trg
▁బహు
▁Heveru
devē
▁β
▁сурга
▁mereu
્ટ
▁ამერიკ
▁ǹjẹ
▁чогу
▁nokwasɛm
erahkan
▁hunden
▁ጉድ
▁yaye
རེ་བ་
시킵니다
лън
▁4:18)
▁haadha
▁Olúwa
▁ខ្ម
nifer
Thixo
▁siarad
adr
▁سالم
▁rikala
语言
▁दाय
▁kĩlĩ
▁rakkoo
fintu
▁nenore
▁atawa
pl
▁amalan
酔
汰
ondela
▁दि
▁ارتب
▁kór
▁වීමට
▁ngangi
ungana
▁Tok
wh
hatonga
naga
상에
用
འོག་ཏུ་
ჴ
▁можливість
idingo
▁وڏ
omami
▁wave
лове
持って
ilangang
ца
▁liiketo
▁എന്റെ
ነይ
▁arbei
▁ແຕ່
▁artt
zara
▁इकाई
คดี
ħra
▁dîyi
bare
▁필요하다
Bab
▁Dham
▁gesinn
▁Making
ባኤ
▁देल
▁kvinne
▁ɛpo
▁લેવા
▁separate
ikke
τέρ
▁ሳምንት
▁jiān
▁설명을
▁rat
ケーション
ských
ལ་ལུ་
engen
▁ভুলে
ແມ່
▁nuostat
▁boma
▁गोपनीय
▁preus
▁実際に
▁Mũth
▁фәрештәләр
▁procés
▁денег
▁nạn
ып
▁ಅವಧ
▁producir
liah
чених
ĕ
プリン
▁газап
▁غلام
▁হায়বসি
▁தகவல்
▁거기에서
▁söyleye
لاک
▁تفص
▁Robin
▁Xing
ไฟ
tives
▁Sõ
▁אוהב
центри
कल
▁хот
▁жети
пер
▁BR
▁endala
▁tirelo
▁акция
▁Carl
før
▁Felly
▁ପ୍ରତ୍ୟ
▁Orosz
lomulo
▁hiki
▁מהמ
年前
দে
Moto
▁turėtų
ಿರ
ılma
患者が
▁hnu
▁Contribute
▁21).
▁thị
▁صورتی
▁inves
tuig
▁ìsìn
▁ಸಂಖ್ಯೆ
ситет
▁Sime
ogli
ණ්ඩ
ubu
▁sefyll
▁tǝ
▁християн
uar
egas
okuqala
▁môže
ماسلىق
▁محسوس
▁개인의
寄せ
wników
▁kayat
▁חושבים
▁ikwu
บรรดาผู้
oboke
šha
▁गरिरहेका
▁Wéi
▁jari
▁راستہ
▁responsável
▁싸움
▁učinkovit
▁12,
दू
▁ફી
▁lingua
▁аял
āj
▁History
▁hiu
▁Халыҡ
▁Sembra
▁jumanakax
ләк
▁پروگرام
▁sekur
▁Көр
赤
anong
▁այդպես
▁ενα
▁inaweza
▁управување
सागर
জনা
ေန
水を
▁görmüş
iciro
ongaka
íso
뛸
かの
▁खरो
▁ప్రయో
おい
ຽກຮ້ອງ
▁айтууга
▁ресур
mista
weit
▁tikarh
▁ayǐkúngban
▁lửa
▁አው
▁ευχαριστώ
lizzazione
▁kering
▁dauv
க்கிறேன்
▁བཟ
▁అంది
▁enero
されていた
▁Чи
võr
▁Nagy
ιν
▁iṣowo
▁гледа
▁ገይሩ
▁yeniden
▁parç
共同体
▁užsi
loch
▁στεί
▁màn
▁मुलगा
တို့အား
ház
▁కాలం
▁отме
kel
▁कस
adzwa
▁հույս
watela
*,
▁фиристо
▁zodpovednosť
▁meesha
▁komib
zay
ಾಚ
▁읽기
bote
livý
▁ukuthini
▁ҡат
▁ಮರಳ
▁Ştii
▁Pohjo
▁jist
oties
▁kunjalo
quem
स्वर
▁вер
ətdə
▁ապր
罪の
▁caballer
ongoria
▁অক্টো
୍ରା
▁수상
▁bojā
▁odgov
繋が
ٍّ
▁인간을
▁tẽn
▁Thim
叫び
jjani
▁친척
▁njihovo
үнкү
中間
▁Girls
▁myn
▁спі
▁prince
▁birin
▁k
▁되었고
▁10-1
▁gelang
▁ⵢⴰⵜ
inhi
▁나라
▁Wszystko
▁rozh
▁īpa
▁Tudo
▁время
awtorità
▁minuuttia
▁Кызы
हरूलाई
ment
▁sikkerhed
▁prave
▁sürekli
▁ligean
造
▁Ҷ
ပိုင်း
▁Geujaweueb
မြေ
あく
ciją
▁invece
▁hero
▁આવરી
▁coli
▁캐나다
▁brukte
▁तुम्हे
▁[-]
▁jittie
ཅིག་ཨིན།
jande
▁bionso
▁წლამდე
▁لپاره
ویس
▁ପୋଷ୍ଟ
೩
ंदा
▁sẽn
▁Sos
▁Tong
▁iongantach
楽器
▁niran
▁emos
▁du
フィック
▁Valley
▁weliba
▁inkom
EMA
पहर
▁març
▁gịnị
ບາຍ
株
size
ması
ଙ୍ଗା
▁चाही
▁ఆహార
▁Maqed
▁mmea
▁bupusi
▁ስን
▁અભ્યાસ
▁گۆر
▁합의
▁خیابان
ज़र
▁doble
ୋଧନ
נאים
▁lä
▁Evans
▁Denne
▁اسناد
▁alternatív
▁কোৱা
▁phù
▁Gĩ
्
ཅན་
ཟེར་ཞུ་
▁ንዕ
▁Tenn
▁Loku
▁이집
▁ၵွပ်ႈ
▁Gom
▁sítt
כתי
âwng
▁μέρη
▁باوك
ള
מז
čih
▁biyar
▁చెప్పే
▁ན་
▁našega
▁پارتی
▁لىكىن
▁wep
▁здійсню
▁Полу
မိူင်း
▁sholá
ikmatan
stria
mege
▁ikada
▁Александр
ຊີວິດ
▁lê
ulla
焚
▁continente
▁Woa
zeti
燈
▁୧
▁communa
мок
dew
▁ଦେଇଛନ୍ତି
▁йөрәк
ერის
▁miditra
▁چربی
▁ئاسمانی
kitob
羊
▁kgang
▁κοινων
▁pén
тийн
▁Να
рмай
▁اوچ
▁нищо
▁Sun
▁Biziň
▁මෙන්
மில்லை
▁Հիսուսը
ურთ
లవ
▁갖게
ۈشى
▁Kapit
idda
▁reikala
▁ወራት
▁његовим
laaju
лев
▁gikk
▁बधाई
▁lidah
ਾਇਰ
▁testen
႒
▁साहस
orem
▁tax
▁rých
yse
تس
▁افسوس
▁ajje
hitaji
▁वृद्ध
アフガニ
fle
indikan
Nab
▁لەسەر
ikag
▁тагын
▁shek
▁নয়
▁ankamaroan
▁پيار
eresete
▁ಆದಾಗ್ಯೂ
▁mala
▁repet
▁oog
▁groß
▁Guest
▁savai
一致
étaire
▁trattato
▁پۇت
▁qayd
立つ
▁consig
▁inos
өнки
▁ସ୍ବ
▁tembung
▁گرن
▁брига
гәндә
▁gito
斗
▁ကူညီ
त्मिक
ージェント
▁бик
▁hva
▁Vár
▁knap
▁қойылатын
rać
▁tiawara
▁וכ
▁umukobwa
▁実は
▁Devil
Йәшлек
費や
лей
▁ნამდვილად
በየ
▁kwandiri
▁maererano
▁kuleke
▁չուն
▁ਕੋਲ
クリー
രോ
▁substitu
اسم
▁untuak
ctha
▁يوخسا
▁exista
प्रकार
▁ያገኛ
▁nejak
▁etdi
jaja
ຕື່ມ
▁keine
▁emig
▁urur
▁წევ
▁gosiri
▁શકું
▁2500
▁70,
ັນ
▁nanana
▁7.
▁amach
▁Walay
▁എൻ
▁Konstantin
▁พวกเขา
▁кардааст
▁ښار
timme
▁zapat
ījās
neď
point
あまり
▁tshik
tory
▁Hûn
mesri
▁bwin
▁escrito
▁aŭsk
▁эдгээр
чи
▁wǒ
▁ինչպե՞ս
zatsiya
碗
▁Gwasana
▁tob
yia
мының
デンマーク
▁prisi
▁ועוד
▁गीस
▁tanggungjawab
lashtirilgan
▁ഇതിൽ
▁taviwa
▁అనుభ
▁meilleur
▁барлық
角度
pele
ngay
infur
▁ağa
▁Wux
▁olvas
▁컨
▁petre
cida
▁Изра
▁öðrum
▁dettal
ɔli
▁çat
rapport
▁သူမ
zmat
▁wẽn
▁mautinoa
apaj
▁특허
▁تأثیر
शिश
▁Gine
▁поли
▁transparan
ttə
▁Muana
وز
▁तत्र
▁ቀጥ
ndandanda
▁agentes
▁ସପ୍ତାହ
ྔ
▁soleil
▁bekezdésének
▁longer
ચ્છા
▁लड़कियों
▁यसमा
Abay
▁piirkond
!.
▁মানুষকে
ــــــــــــ
▁безопасност
ಚ್ಚ
▁pudo
▁omunga
▁saal
zganga
なると
▁Hech
▁encam
▁otot
▁thigh
miyor
▁Tato
▁ruoka
プーチ
ຖະ
▁সিদ্ধ
▁одмах
与
▁sortir
▁siatavo
▁Элчи
трэл
्वं
▁тагы
เกิน
クレジット
▁αντιμετω
▁واشنگتن
▁falsa
6.
▁tangkil
▁aurkit
▁따라서
▁chinga
▁ملک
▁বি
▁tshemba
▁prijor
于
▁जखन
ிற்கு
ija
▁lover
▁Klar
▁লক্ষ
▁4:11)
▁đỡ
attı
▁மாநில
▁අන්
▁לנ
▁kutaa
wohl
▁һеҙгә
ལེགས།
irire
▁приве
バーグ
▁baie
atiang
営業
▁տեղեկ
ພ
ोऽ
ស្ចារ្យ
▁فقط
èin
inso
▁ທີ່ມີ
ზა
▁avaliação
abka
ほん
▁peurintah
▁mengej
▁Aborahame
▁lífið
▁මච
▁eller
▁جر
ਨਾਮ
וזי
້ວງ
ийг
fed
▁minnu
▁scola
▁दूत
inander
▁خدای
ໃນ
▁아니하고
▁ngora
▁melainkan
▁знать
▁παρουσιά
▁ànd
▁Хто
▁//
▁Mased
aguma
okolon
▁ds
▁ശബ്
▁clasificación
šanu
▁파일을
チャンスを
▁vakabauta
▁prud
▁생겨
▁رع
bera
டியா
▁Stephanie
ანი
▁وکار
àn
tq
vela
▁Libri
府
me
▁၂၀၀
▁ئارام
ముగా
▁Алек
▁ඉන්
▁Though
▁ແລະ
្វាយ
jný
▁iep
▁ಅಪರಾಧ
▸
▁계속해서
ၼပ်ႉ
▁വിശ്വാസ
▁google
સિક
▁šķir
▁discussione
▁iyaré
▁vực
šeng
ljub
▁Če
قىيامەت
bac
诱
▁ਖੇਤੀ
았습니다
▁Ruhu
▁pwod
asyny
▁ειναι
ítésére
▁secteur
▁siki
ัจ
▁evigt
▁guter
rung
▁ئارا
▁manampy
རང་ཉིད་ཀྱི་
oju
ราบ
▁ordförande
▁ბან
▁esmės
▁bermeli
기도
▁Cer
ду
▁vyuma
antill
▁Gobern
▁umjesto
▁pinis
ཐེངས་
bilu
▁inam
ICC
▁верес
▁Aun
▁menurunkan
ńtì
ંભીર
▁آموز
▁mhaka
ekwe
▁nepas
▁kounga
nál
▁dari
▁zvinokosha
▁[3
▁Að
▁výroby
୨
▁নিয়
▁Gand
▁갖는
ეთი
▁chéile
▁መጀመር
▁miso
▁isteye
etaan
вало
τικών
▁सृ
▁lét
▁dezakegu
▁ерҙә
권은
▁listahan
▁kaugaling
▁любові
▁temple
นึง
▁nayat
▁طل
orsch
▁व्
ナチ
▁Manuel
త్మ
▁kalibotan
▁መታ
▁گلم
▁Франк
▁اللع
▁virksomhet
▁Fis
▁avatu
ཟ
▁искаше
▁ћу
stoles
cf
yard
▁yakwa
▁pyst
òc
ishiwe
▁aii
▁Efr
qada
ameze
শিংনা
▁riser
▁страх
▁рі
ဖြစ်သည်။
▁suksess
七
▁ympäri
műkö
ært
hlophe
▁wusste
▁وعد
▁dator
▁changé
▁گتدي
usane
▁cumha
তের
▁defensa
iranti
▁etip
▁найви
▁пог
▁stil
▁vola
▁기후
ยังไม่
巴西
▁जाणून
▁nnukwu
▁eit
▁svarar
▁kupar
▁Тэгвэл
ፎች
▁ਸਿੱਖ
▁Тәғәлә
집니다
▁bll
▁ҳал
▁সম
▁तस्वीर
▁ترقی
likus
▁නිදහස්
verte
▁svake
wydau
頭を
▁అదన
▁arada
▁Dick
▁tẹle
▁presque
▁berapa
▁നൽകി
▁Kin
▁"3
▁Ngemva
▁Tot
▁lovitangi
▁Vel
▁Τί
დან
者たちが
▁740
▁1848
▁Πό
вок
бур
ሽተ
леме
▁بخشش
▁Rocky
žeid
▁beekama
▁jard
案
▁multid
▁સમગ્ર
r
ገና
▁Â
▁એને
şi
▁kaysa
保険
canya
▁Davídi
श्यक
▁situa
▁oloneke
▁bet
▁பக்கம்
▁įtak
ennem
yathi
ritos
▁እነ
کش
ы
▁ਰਿ
▁finner
duk
▁selatan
ствовать
скіх
▁söyledi
▁dǒ
▁tlholego
▁အကျွန်ုပ်
暮らす
▁egg
▁sayt
ّٰ
▁sonras
▁betal
▁نگی
▁beschikking
▁projectos
▁2006.
мес
▁lalake
▁faicinn
▁leutik
ադարձ
andzela
▁ekipo
▁22-
▁politischen
▁पत्नी
кка
▁møte
▁必要
luvit
▁fanehoan
▁ukrad
▁кил
▁ry
▁wlí
▁халыҡ
限定
vatiti
▁tinggai
▁bağım
▁دوران
▁mikr
ogelu
▁ონლაინ
▁ramp
amental
▁obja
▁نییە
▁rekomend
盲
▁Iji
▁تاي
▁himaya
▁haqiqat
▁సాధ్య
یاں
▁državo
chin
вај
であ
▁ohenda
▁whakamar
▁tumani
▁турму
▁galite
jore
pakatan
▁Gayunpaman
▁Return
▁REG
▁rolero
ကေတာ့
▁сик
▁પૂર્વ
МО
▁publicada
▁процесс
▁reachta
▁raso
▁selwer
atsɔ
▁Балким
ريون
つが
▁पार
▁hubungan
གླང་
ርክ
▁Yosevu
▁persoane
▁এজন
asuk
▁hangin
▁ooh
▁Edwin
▁vakasama
▁solat
ፈጸ
▁ókè
▁Ը
▁umbuzo
▁vice
割り当て
▁ngen
କାଶ
▁לתוך
∀
वेदन
▁termé
▁Pol
▁xente
▁Go
पाल
▁δό
▁juist
baɣ
▁bilenge
wĩa
ژی
РО
主義
ብረተ
▁altid
▁NFL
Pun
▁Rahayu
wikk
honze
▁ቤ
лок
▁yembr
▁peji
ரிக்க
R
▁된다면
▁റിപ്പോർ
▁kaliwat
▁ଛ
嫌
▁όλους
▁{{[[
▁Ғайса
▁nasa
▁mici
▁forskel
▁درواز
ίνα
拣
▁solia
útbol
ოვა
▁saat
asino
ခြား
▁eigenen
▁request
一定
▁কিমান
ടുത്തി
▁bertahan
▁ವಿದ
▁გამ
হিত
▁határoz
ostan
▁Ely
▁qol
▁tonn
бәҙәт
▁gacanta
▁luftë
▁hason
▁اوغل
orinto
უფ
▁darr
▁legalább
▁Ամերիկ
ķu
▁خوانه
▁lock
▁如果你
▁ಎಲ್ಲವನ್ನೂ
▁Buon
▁ನಿಜವಾದ
னுடைய
▁அனு
▁ionad
▁વ્
▁сведо
վեստ
umbana
踊
▁histor
▁gargaara
alibwa
▁تخ
▁испу
▁až
代の
▁chescj
▁برع
éck
isako
▁semester
mg
杭
នាក់
verd
EC
婴
pung
▁ahu
ള്
ŵetera
▁dent
▁kú
Meunyoe
သလို
▁Yari
▁Рабо
▁ગ્રાહકો
hambana
Como
▁mentioned
▁ଦ୍ବ
jenesten
▁dzɔ
▁okuku
▁ሞተ
▁সমা
▁tlhaho
▁Mmadụ
ಾನದ
▁dasa
▁laleng
på
גש
▁घेतली
лыштагы
▁eini
GE
▁poo
▁Црква
▁momo
▁krit
▁posar
▁BIOS
дар
ンが
▁možemo
▁оне
▁Herbert
nne
▁آمده
▁kommentar
▁dun
パイ
फि
▁مجبور
ithí
▁Treba
▁cantidá
▁ଦାୟିତ୍ୱ
็บ
улах
aduate
័ន្ធ
▁ஈடுப
hathu
ເວົ້າວ່າ
lics
▁hemat
るかに
▁byak
唄
▁incur
▁حامل
▁муноси
ચર
Hei
लांकि
▁ажлын
▁sek
шни
▁संस
內容
Rep
Казах
▁сапраў
diy
ული
▁ҷавоб
▁makarantar
▁obchodu
▁które
▁feit
જુ
▁보았
こだ
warawa
▁vinte
▁intege
▁strengthen
▁Ziur
▁엔
▁астам
чувати
ွား
▁daw
ጠሩ
▁жаш
▁դիմ
▁ڪيا
▁teoll
▁Зако
neur
▁ئاسمان
▁အဖ
▁Amarga
亦
തിന്
▁Джей
ائد
▁صدا
のような
▁Paro
зді
▁dando
▁faailoga
▁Звичайно
eroon
▁սեն
ାଣି
▁kõt
▁sip
도에
▁asraa
▁almenys
antai
▁gốc
▁Sumber
uté
mağa
▁oFakazi
சோ
▁decembrī
v
▁phezu
▁pranaš
▁چاہتا
▁зачем
▁دیاری
ོན་ལམ་
лината
▁देवे
بات
▁Talaga
▁ଜୀବନର
▁веда
▁스타
Yoa
amura
ingcwele
▁آغاز
wut
▁своите
▁Můžete
▁нөлөөл
▁بئرلئکده
▁temperatūra
日本人
▁зазвичай
▁origen
▁ribet
ılış
தான
サーバー
ulungiseleli
kuy
éba
യില
▁Таби
▁omnye
inə
▁tasuta
ོན་པ་
▁นัก
▁कदाचित
ATT
▁ನಿನಗೆ
yaya
▁manaraka
▁шляху
banga
▁Ji
▁pequeñu
itaj
▁divert
νγκ
નને
▁मनखे
▁espe
▁vhiki
Ш
ገልገል
ungunaphakade
erezwa
▁FIFA
▁runakunata
Ē
ckä
ádùn
▁ebak
ণত
اؤ
kaņā
▁sovelletaan
фил
했다
לים
▁پەرۋەردىگارىنىڭ
пло
▁Йәһвәнең
▁ҡора
▁দেশে
▁kungiyar
▁практично
▁Lung
доочу
letšwa
▁आमचे
▁Sabat
▁буйы
▁charakter
▁nomuni
rough
心臓
▁отговор
aleni
▁Firwat
▁Hiina
▁kažeš
ኾ
opat
ರ್ಥ
▁invol
▁cxielo
▁タイ
▁distingu
ụwa
▁итүче
▁kritik
▁ges
▁Подо
اک
▁puoi
▁20%
cijske
▁període
の可能性
してもら
▁sier
▁tôi
▁nemt
▁bakar
ตัด
값
▁مشتریان
дерін
మీరు
داي
▁перево
ರೊಂದಿಗೆ
▁Meri
▁regulă
權
▁notí
ステップ
▁човека
▁sikato
ման
▁Panag
lekileyo
▁വരും
eji
▁seger
▁सहयोगी
otsh
เงิน
denga
▁Clinton
하다면
▁beungoh
▁omukisa
▁причин
▁anai
▁pôr
▁pokud
ईल
ណ្ដ
ekto
ウム
▁ميشه
▁Seniň
로를
▁Ve
▁бомбар
▁امپ
ĉa
ito
▁litš
냈다
▁ସେଥିପାଇଁ
▁охин
alimane
ostas
▁сабаб
тты
▁mboy
▁bolup
angiye
▁kepentingan
▁እንቅስቃሴ
▁ɛhulolɛdeɛyɛlɛ
▁chemical
▁nahita
▁vormen
▁oferir
▁ты
▁získa
▁Chineke
日は
▁Exact
▁کمپ
▁ଫୁ
▁bhonzele
કાશ
▁niekoľkých
▁højere
▁གི་
▁gelten
▁profes
ਟੋ
▁Ян
▁buena
otaka
▁igice
▁3:15;
langa
▁ମୁକ୍ତ
▁okres
▁näeb
하였고
▁هاوڕ
▁dhahabu
מיים
▁ocipango
espiritu
lustus
▁kovo
▁beslutet
ísticos
रील
menin
ហើយ។
其
▁explain
ุ
lenlɛ
▁కాలే
▁એપ્લિકેશન
儿
ጵ
漲
▁setembre
មួយចំនួន
жде
▁প্ৰধান
toan
▁mēr
▁Youtube
▁ਗਲ
ċċess
▁početi
▁माझ
ལེགས་ཤོམ་
▁Ց
▁gini
ásáról
▁maksaa
പ്പോൾ
▁xis
▁ohunkohun
▁Ambeni
msa
▁uchun
قتە
▁kuña
▁28;
▁teenuste
▁kaɲa
▁lalim
▁ເວລາ
▁забы
aluk
▁പേരു
ította
чила
▁byd
igkeit
ッピング
▁ameti
▁sab
▁publ
▁rongonui
ಿಯನ್
▁szerencs
AK
▁Bisho
▁ⵓⵎⴰ
▁imond
▁развити
ช่วง
▁သစ်
▁କହିଛି
▁dionso
стен
idzwa
▁forges
ટન
▁صاب
dájú
受害
▁ingabo
▁ਕੁੜੀ
▁برو
▁vec
ĩrĩro
▁dumneavoastră
ବେଦନ
▁অনুস
▁tempoh
▁بدلون
年の
▁ähl
▁përpjek
▁시편
ungah
վար
▁faz
▁ಕಠಿಣ
▁nǎ
▁گفتوگۆ
▁Č
▁memang
▁terra
▁esterna
ట్లా
▁gehört
▁асууд
ర్కొ
▁ዝግ
έργ
▁puikiai
▁புரிய
к
▁ఉంటే
正しく
揃
▁ول
▁kaot
▁служи
uluzi
▁שהיא
दान
▁حص
neamh
warwa
zin
▁أصبحت
▁Verb
▁huống
lere
▁tane
ཤུལ་སྦེ་
▁olur
▁Џон
▁agar
uldigen
▁비용을
半数
▁daly
kemuka
сре
▁porządku
▁4:7
▁katatu
▁بری
aggio
ರಿಯಲ್ಲಿ
▁yath
に上
▁рады
▁matka
▁مبتنی
恕
定
▁自分
▁ቪ
ikai
▁ɣet
▁previ
▁Vosa
▁spoločnosť
▁hobi
▁directiva
cede
ما
ផ្តល់
▁ayu
▁diante
▁باڵ
▁сине
▁દસ્તાવે
▁Chaymanta
▁Habang
▁المدرسة
▁kurz
▁Vec
लेशन
mæ
▁δεδομένων
داشت
ର୍ଡ
▁לכ
▁증가
▁आत्
▁mère
▁munggah
ardan
▁proġetti
ိၼ်
μοί
-30
ա՛
▁Постоји
▁mukulu
▁дүйнө
▁মাজ
ហ៊ុន
▁የሆኑ
▁बद्दल
lož
lire

言葉を
▁उत्सुक
▁دستورالعمل
▁ngombo
obten
▁delik
▁rõ
qab
永久
▁Abr
▁लंबा
▁тыуҙы
อยู่แล้ว
▁amount
▁それでは
▁тәүге
▁cm
▁söylüyor
ളി
environnement
yaj
▁Πε
ฮ
▁кедендік
▁ይመጣ
▁Corona
▁tumas
ieġ
▁ukapacha
▁study
▁دقت
▁zoet
్ఞ
▁빛이
蓮
ಡೆಯ
▁заје
གི་གདོང་ཁར་
σουν
▁બનાવ
▁cei
▁Iraq
astar
ৱৰ
vernig
▁karera
▁akciju
▁dostup
▁práce
▁siiski
▁ahli
▁andato
yama
ହନ
▁makuabu
ዞ
▁engu
adio
嘘
jong
ଥିବେ
▁ସମ୍ପର୍କ
omet
ního
vę
現場
pios
▁(15
ɖeɖeu
▁bary
టల్
▁جنا
štą
▁دقی
▁소
gew
asses
▁namoonni
▁ፎ
grupper
▁Picasso
▁eil
▁Oir
センター
nich
يهجک
▁raff
▁Krieg
nkɔ
ତ
▁көрс
▁ཆ
付
▁ಟ್ರ
▁imma
▁nagkak
▁Hampir
▁maukexilu
變成
▁짓
▁былай
▁Бөгөн
▁ир
▁inguruan
isiki
▁ديئردئلر
Ewropa
andina
▁nástroj
▁produtores
▁Iako
▁zbog
lulisela
filipiya
▁rani
▁σύ
▁થવું
▁massempajang
▁cipi
▁158
▁ngurus
andang
็
▁punishment
▁muscle
▁повед
డిగా
▁Schmid
▁장치
▁sila
▁정당
▁Күбөлөрү
▁დროს
ても
▁nusprend
▁sajrone
▁พวก
ናው
▁advantage
▁visoje
▁αυτές
ၢတ်ႈ
▁відбувається
▁eiga
였고
▁iindawo
▁ґ
▁firme
▁palavras
▁ቡድን
▁მსგავსი
▁अभिव्यक्ति
vid
▁δούμε
▁ལྷན་ཁག་གིས་
▁wokim
发
▁wahanol
मन्त
▁Siberia
▁ışık
▁కాల్
āpēc
čenje
▁33%
▁선교
Krist
▁přílo
ọsilẹ
▁나아가
▁пазар
谈
5-3
▁الحقيقة
hughu
▁heescht
cza
▁最後に
▁sombong
пит
▁Yu
▁تعط
▁своєї
▁erros
▁Ска
ululu
uyo
▁अस्
▁նշված
ewere
▁aktiviti
▁vsak
▁navê
▁liikmesri
멍
▁જોડા
▁Mwan
▁mengubah
متو
ũanĩa
▁akasa
▁taane
▁salamo
▁dako
▁تحریم
▁一般
▁iim
hank
▁այնպիսի
▁vrouwen
▁deser
▁promu
▁집안
igal
▁prinsipio
▁kusen
ukoku
▁ýany
biti
▁perjodu
▁मुंह
▁момче
▁Bevölker
▁বস্ত
▁ཁོང་འཚིག
▁kleng
讨论
ceannach
▁श्रेष्ठ
▁tabatin
▁Marina
▁LIBRO
▁7:3
▁keis
▁машини
▁бірлескен
ཧ་གོ་
ཆུ་
βολή
ლის
unghana
▁haguére
▁kādi
▁nezv
▁cee
ılabilir
▁오빠
▁Bana
▁momentos
▁win
▁услу
▁Пър
▁обично
▁mafuku
▁anenge
▁ҳафта
ştig
▁dokumentų
ම
зии
▁እዋን
▁Sino
▁जीवित
ৎন
utule
▁jiwat
kort
zdas
▁ས་
▁ቦ
zera
▁gratu
▁ទេ។
ネズ
▁jupan
▁Зато
▁шот
▁הולכים
▁ချစ်
▁Princi
カゴ
▁drugimi
лити
▁ezine
▁ec
▁zohľad
▁అతనికి
▁سب
▁আগের
manụ
▁prawdzi
▁kpɔe
▁wamwaza
▁maassa
ப்புற
▁piaci
▁tenga
▁آرواد
▁Gidi
အကြောင်းကို
iklaus
▁arvo
▁20:
▁kanker
ことだ
སྲུང་
▁គ្នា
▁kaikille
▁지시
▁घेतला
▁erokamano
▁Kõige
▁diwedd
▁لگ
▁produto
hatatlan
▁Neću
angas
▁kurusha
▁चलो
▁ozbil
▁sarežģ
▁Luf
विश्वास
▁fremst
▁awtoridad
▁יצ
▁eki
▁Isaan
▁Rup
baki
▁jd
ائر
shot
▁mult
▁tyr
esei
▁arbeidet
▁ibimenyetso
雜
▁loan
▁ହଜାର
ભુ
평가
▁Dhè
▁Panjenengan
▁iako
etahuan
ட்டும்
▁სოციალური
lisz
daji
▁yetti
▁Asiri
တွင်
▁حاصل
gata
হ্ন
▁Snapchat
▁oikeuden
▁Perdana
▁jroh
▁კარგ
ათა
çin
ክርስት
▁докла
ન્ચ
ngt
▁ndiaidh
▁nitondra
▁Enh
▁നിന്നു
hulume
▁Flag
ச்சினை
▁მედი
▁berkesan
保守
▁Мөх
▁képesek
nissen
hobe
ájában
▁санаа
▁ફ
▁واو
ဆယ်
▁duyu
▁ນ້ອຍ
▁लेकिन
ctive
▁September
▁näk
▁diven
牧師
▁szczegól
▁beder
يلي
▁작동
▁했죠
ന്
されて
▁هاد
egli
▁najs
▁стол
▁llamado
▁دەوێت
▁apie
ง่าย
ൽ
̧
▁برات
ят
▁블랙
▁माल
▁ծախս
▁hizo
▁atari
▁Karai
▁koha
fasi
▁səbəb
▁သူတို့ရဲ့
▁geskiedenis
steen
週間
▁dodo
▁ಶಕ್ತಿಯ
శా
▁wuri
▁gizon
▁သဘာဝ
jag
غۇچ
▁derin
▁cierta
hlok
▁əlaq
だよ
elmet
▁ggwanga
▁Slow
我々が
લાઈ
راج
▁heile
▁추적
త్ప
ungulu
▁گزر
ഡി
▁전능
▁капита
▁되리라
▁баҡса
olweni
▁MN
digkeit
▁publique
▁Daugavpils
▁କାର
ленән
▁mug
▁منهن
にすぎ
▁marau
တိုဝ်း
▁ལེགས་ཤོམ་
の安全
彻
▁reduce
▁introduced
▁جلوگیری
▁གཙ
▁биз
▁سڃ
▁ድረስ
▁пера
▁Pasak
▁perniagaan
▁bobele
▁uywan
▁guid
দ্ধা
ལན་
▁practices
ों
▁کۆ
▁ഗു
▁kërɛɛc
▁obsahuje
▁게이
▁unna
▁দুৰ্
▁Write
埃
▁liove
匿
▁faasa
▁આશા
▁समुझ
็ง
▁など
▁člen
▁solucion
▁있으면
▁perguntas
قی
▁Dafide
▁suudu
▁PMI
▁उसका
გრამ
aktív
▁masha
▁योज
▁spur
▁laing
▁разо
▁podeu
uben
▁bansiku
enz
lhe
वला
ngani
▁Schwar
▁پيدا
▁저작
udim
▁drets
▁hack
ovano
▁Tinggi
▁støðu
▁tẹlẹ
ตรง
amak
ான்
fa
iseer
▁နံ
▁باوجود
භ
ātu
ätte
▁זוכ
ided
▁adag
하려면
▁nkɔ
▁kuwon
▁Sid
ää
▁maailmassa
▁eles
وونە
▁independencia
気候変動
▁késő
自分は
▁iarra
รัฐ
ཐུགས་དགོངས་
▁cít
តាំង
▁ክንደይ
▁ਸਮਰ
▁magagawa
▁ແນ
▁Mwene
сан
▁mb
pertimbangkan
▁생각해
▁ପୋଷ
μον
▁pfun
▁જાય
▁vsebuje
▁भन्नुभयो
▁pateikia
▁limodzi
▁һә
▁왜냐
èria
▁babo
מין
әб
▁싸
▁ऑनलाइन
▁Eupša
▁ŝajn
▁galon
▁asiane
▁äu
署
▁viisil
ILI
དགྲ་བོ་
kontenut
▁мегирад
▁विचित्र
▁dapek
▁maith
လွတ်
endeza
פתחות
▁тем
▁jämför
▁bɛbɔ
▁entrepr
চাপ
zvimbo
▁[[19
ଭୁ
amanga
ર્ગ
▁nagyszerű
እቲ
▁tolas
▁ghose
▁అర్ధం
lık
▁интегри
▁تمه
▁manda
▁لج
ciones
▁마찬가지로
ຸ
真主是
▁kabaos
▁твърде
▁Rasul
ជឿ
▁gũtũ
нис
рип
▁wayek
ስት
▁gumhpraw
▁koroni
▁niekto
社の
▁hō
▁Nui
伝統的な
从而
impe
▁Пол
čala
▁misonkhano
▁ਸਗੋਂ
▁ଶ୍ରମ
▁નહીં
pitan
▁jut
▁lapu
はそれ
engna
显
chepera
Roma
▁urta
lè
▁dikgolo
▁seguente
ыл
▁tanácsi
▁vů
▁herisetra
▁chuige
▁patēr
▁grundläggande
seba
▁kamar
▁Gift
하십니다
▁nakai
જે
▁mogo
दिव
▁அண
▁स्कूल
kaspa
サイトの
▁나은
▁mę
kliem
▁Isirayeli
▁вигляді
劇
▁åter
▁دەي
▁הט
▁책
▁wyse
▁kuphara
▁पवित्तर
▁ibsa
▁Taq
▁πλέον
▁agɔ
赏赐
▁cimaa
▁ਇ
▁εσωτερ
▁पुग
▁ኣሎ
▁ಆದರೂ
▁되찾
▁pakikipag
▁karolo
▁кау
▁Zapravo
abiso
▁यरूसलेम
▁gördüm
▁Kira
▁ڏانھن
▁comuni
▁Μ
▁(!)
▁méde
نىق
▁жу
▁БА
▁Lur
▁बिज
▁boos
▁اضافه
བརྙ
▁Hert
fundiso
ektar
▁হওয়া
▁Leis
jami
hånd
뿌
ef
▁ఉపయోగించ
য়
▁update
▁llingua
▁pagpan
▁tən
▁എൻറെ
▁vestido
ører
▁Prí
lawanan
ileanadh
jonalità
ilno
▁kehamilan
pajoh
čijo
▁ihåg
▁skatin
nená
লেম
▁ubug
ସୁ
ז
▁বিশ্বৰ
ከውን
▁cioè
▁fiantra
▁নেয়
▁Taze
త్తు
▁verteld
ψαν
▁genial
alog
クラブ
▁Dus
▁draft
▁svat
▁laikantis
▁sapuila
▁வேண்டியது
▁ಸೀ
▁navedeno
中央
▁இன்ற
▁ئاسایی
▁Ii
▁soja
▁이다
▁mukug
▁ኸም
幻
▁କହିଲା
▁ጥቕ
▁kanga
▁inza
chapha
▁kuto
▁ព្រះបន្ទូល
talelse
YS
▁presse
ാവശ്യ
әй
▁우선
ゃ
▁বলেন
▁ارسال
ëmë
▁whakamahi
▁Punika
▁Final
שטעלן
则
མ།
▁innov
▁Megjithatë
▁jaot
тип
▁વપરાશક
▁ಜಾ
▁কারণ
өөн
▁düş
▁вперше
▁চন
ྲང་
▁אני
ᅢ
▁pasākumus
ች
▁धरती
それらの
▁ඔයාට
▁Mau
▁zadnjih
▁boletse
▁ನೆ
ճառ
▁jesteś
ፈስ
▁aumento
zgl
▁conte
嘅地方
▁ania
embira
▁valiny
็ม
▁অভি
▁қосымша
▁yang
▁উপস্থিত
▁असर
▁אולם
▁boda
نھ
ર્ષિક
▁troj
▁apro
▁onderneming
▁जवाफ
▁школи
मीण
zta
▁बुध
▁үед
▁Kutollo
▁muomumue
▁soţia
▁rematar
バレ
▁zira
😥
▁ائشي
っても
▁Consider
▁deise
贖
▁puissance
ža
бами
▁todella
okw
▁місті
変わる
綴
?...
▁ლა
骤
▁hugsa
▁compared
他們的
▁syarat
▁320
വര
▁چکے
▁Һәм
xeros
▁هد
▁কল
▁Stai
omien
▁chavelela
▁nupay
ំរ
ખ્યા
▁پەيغەمبىرى
▁1940,
▁አን
▁गर्नुभएको
▁libero
▁Departamento
▁Isso
▁arcam
▁Yango
ridge
何故
văr
нына
▁teigė
▁fets
▁indian
соф
że
və
bwino
երն
ymui
sons
▁lepší
▁በቂ
▁informāciju
▁magin
▁gewe
▁muke
▁కలి
▁worden
▁torr
▁Najeriya
▁penyebab
▁vorges
skur
ອັນ
ानुसार
alit
▁ପାକି
▁žrtve
▁găsi
yifo
▁һө
▁коми
▁mwamb
窮
▁నేనే
weko
ondaka
नाइ
▁خۆپیش
▁socda
ິງ
ઇન્ટ
▁lõp
▁tahlil
▁ಕಣ್ಣ
etown
▁balans
人類の
้าง
▁kiɛ
គោល
▁সং
્રીન
పరమైన
ረጃ
▁TIM
▁Trade
▁හැබ
ମ୍
ահատ
▁lamet
▁Àmó
▁4:4
▁dzose
▁suurin
..!
ሞን
לוי
citika
▁sõ
▁हमे
▁lyenyi
▁jajajajaja
▁մակարդ
ពិស
asrɔ
хот
▁výhod
▁courage
▁سای
相手
төгөн
▁євро
▁ಮಕ್ಕಳಿಗೆ
▁àṣà
提供
疗
▁ғи
jọ
▁આં
▁mafambiselo
▁legisla
▁föräldrar
▁Speci
▁એપ્
▁кап
zować
דר
▁Gilead
ሰጥ
▁Zucker
two
▁کردنه
byt
▁Але
▁rikkum
▁merci
ٛد
▁måske
hlokweni
zual
▁ရင်
ensial
▁як
▁Máme
apat
▁upéi
▁կաս
▁tshidi
ught
▁ни
ىيەت
▁پاریس
▁dalībval
▁nafsi
네가
▁taýýar
jodu
▁Mwi
jeću
▁kẽnd
幼
처럼
ాను
дов
▁ispir
ynen
▁wuɔ
च्छा
jištění
▁ວ
ኤላውያን
▁जाएंगे
▁آرخ
▁olması
▁woo
ymme
▁wachaza
▁utk
ચ્ચે
▁Köz
▁ବର୍ଷା
ակում
▁Центра
▁gagge
▁ଔଷଧ
▁आम्हाला
▁бирү
▁daleko
nyonn
▁осум
▁ಪುಟ
itak
▁boqor
▁zod
▁mec
ذر
▁mieć
▁HDP
нээ
naan
▁tudert
▁bwoko
▁табылады
མི་འབ
▁besu
ञ्
าง
▁запла
alaha
▁Хэн
itats
▁nkaka
dawl
▁Kau
dır
သဵ
▁ngokwe
▁хиља
▁humna
َٰ
եական
▁wā
▁cố
टली
▁وانگر
よりも
ξεις
▁ringana
▁নী
▁longtemps
▁domstolen
负责
▁izraisīt
▁olemassa
入手
▁legh
▁propri
▁ماڻهن
▁ਜੀਵਨ
▁መንግስቲ
eluje
▁வேண்டும்
▁abofra
rigen
lhong
దేశ
▁Tiam
лыгы
ровали
▁කෙසේද
agwo
▁jāuz
▁fanadi
▁առաջ
sika
▁bedöm
▁લાગુ
भयो
▁chưa
▁нача
▁atbild
▁heil
▁tsoro
论
▁oju
▁Plant
▁ponisa
ڙن
▁itinye
▁तिमी
▁被
▁केहू
ኻኽ
▁вид
▁ئىدۇق
yps
base
문을
▁balingaka
opar
▁պատրաստվում
▁inder
libera
नोति
▁اؤز
▁ਤੁਹਾਡੀ
闇
▁тут
ѓето
▁ŋk
▁loolu
▁amhlaidh
密
नु
▁అమెరిక
ināšana
▁تاز
▁שב
▁fahafat
▁kach
▁ថ
▁Amay
քերը
恶魔
▁haana
ແລ
éramo
▁tattaunawa
▁apska
▁қыркүй
ແຜນ
▁чаг
▁адз
ઓની
▁هیچی
apatak
▁смртта
▁ترافی
▁bjóða
▁omat
▁dace
jern
ब्या
▁ಕಳ
▁antarane
▁powinno
▁Fem
▁සැල
स्क
▁кет
▁tafa
▁svarbi
qanchik
▁وې
▁zvyk
▁zināms
▁gallai
▁Једна
▁մահ
方で
istiú
▁Kristianina
▁noteikts
▁nayarian
▁COP
尼亞
▁for
ño
▁potrzebu
▁savais
wodd
dated
▁citu
▁gik
▁відповідає
ቺ
▁최초의
íe
▁consigo
▁Mogoče
ଚି
▁yena
āka
isaa
▁ਨਾਮ
▁کران
▁아이들이
ētos
▁naroč
▁Ingila
མི་འབངས་
范围
▁दान
▁приложи
నెట్
▁impor
▁ფილ
▁áirithiú
ność
ىمۇ
ಅ
fynu
▁వేయ
▁Saking
▁unten
▁tohu
ӯҳ
▁visto
問題
▁delu
irra
▁Uma
জনের
bih
▁caus
▁عجی
ping
▁neho
Sathana
▁حضور
▁опублі
Ndvodzana
▁sadyk
рам
igheann
▁ကစား
▁ngini
▁memperbaiki
▁اتھ
hæng
▁ভাৰ
ledik
၍၊
▁нужно
▁nahigugma
▁gwahaniaeth
ësitë
▁professjonali
ima
▁Деј
▁nyújtott
▁kwema
ポリ
でしょうか
▁pravic
ėt
likdan
▁walang
แพ
ထႆး
▁ikkonċernat
▁duomenų
▁βλέπεις
▁خوت
heter
▁car
▁kodoro
▁zra
▁governemanta
▁रह्या
▁actualment
펩
▁kertoi
▁반영
▁дәүләт
деп
▁마다
▁tuwoi
কা
atit
▁ཡོད་
▁મૂ
▁nádú
▁է
▁privac
▁বলা
▁dilong
▁guts
に落ち
▁Constitution
惊
dıñ
▁měla
zość
▁ബിസിനസ്സ്
▁jagad
▁صديق
▁vop
ことの
Enzo
▁pene
▁eure
امبر
ຕໍາ
▁Еру
▁Uf
▁prendere
▁inglese
ambilisha
udza
▁bosula
ونوز
ennie
▁gabu
ආ
бөгөн
чыць
してほしい
▁پیرو
▁கட்சி
▁яҡы
lala
にとっての
▁diko
デー
ndar
isiana
▁তোর
▁prehli
授業
enza
▁ეფ
▁week
▁ეხ
▁әрекеттер
ògùn
▁ତିନି
richt
▁것이라는
Du
▁마주
▁vzal
imany
▁imbahnya
▁scannán
ı
▁လိူၼ်
▁zim
▁confianza
▁Vertel
▁dress
szym
▁цілі
▁இத
▁ampar
ulaa
ութիւնը
▁ئەویش
▁institución
▁Tiange
▁تردید
uhte
jonen
▁sabiedris
▁rako
▁Электрон
▁विशेषज्ञ
▁státy
▁شادي
▁Lets
álkod
onta
▁ποτέ
▁མཛ
▁երրորդ
▁māt
▁maayong
נויות
▁ನಾವು
▁മാത
▁metų
Modi
▁Carmen
▁naju
བཟུམ་སྦེ་རང་
▁livro
왕
íochtaí
▁iy
▁minä
opimuksen
始め
▁начина
▁gup
ōnae
རེ་
deithas
රුව
áidí
▁alad
▁ulamba
▁जिससे
▁foreslå
ぢ
▁regards
ყვნენ
▁১৯৭
▁поде
▁ɗa
▁ასევე
▁maktab
▁సృష్ట
▁mwono
▁Tshenolo
▁hu
kok
▁ዞ
▁diep
ਸਮ
▁roupa
▁üçüncü
▁Eta
▁οποίες
▁tech
▁profilak
тымды
▁הצל
▁phoso
▁je
▁tù
ené
▁jiwas
▁ogun
্রাম
▁хле
▁reglamento
aurais
▁kpódó
цени
▁finagalo
▁Siekiant
Ho
▁ດໍາ
▁8:5
cía
▁ast
یدہ
▁نالو
▁mikenji
▁आदत
▁суну
▁kulture
▁потрібні
缶
▁proof
▁Півні
▁experience
▁שות
▁166
▁uj
▁არასოდეს
▁započ
▁രാവിലെ
▁yacana
▁chuỗi
▁срещу
രെ
▁შორის
örü
▁ستی
ለኝ
സിന്റെ
▁झील
▁তৈরি
▁ready
▁ҳамро
▁riäi
▁wac
stv
ikmati
▁phase
øring
▁վրայ
▁verdade
uturonan
holi
▁претстав
till
vako
▁izan
▁нуклеар
▁ସର୍
▁pafupi
▁먹지
ᱩᱛ
▁kozwa
▁հաջ
聞かせ
▁mecanismo
▁Сама
▁ეტ
tù
こそが
adam
▁Aote
▁pobo
▁papild
orale
▁проти
▁तभी
ቱም
nini
▁سوود
валі
▁قولاق
▁sugu
ਿਤੀ
▁합리
เป
▁nava
.!
℮
▁kummerċjali
▁2014.
ལྔ་
្ប
▁6,
▁Ahoana
▁ఎక్క
▁معماری
▁kooper
leng
▁Ami
▁ئېغ
บางอย่าง
ৰীৰ
▁pagi
larym
▁بدتر
geneem
▁ৱাহ
uston
▁니
▁voel
ambitsa
睛
▁соци
raichte
▁පාර
▁бәлә
ıldı
سه
▁daɣen
jja
umenten
isto
▁wakh
▁두지
▁eins
▁овде
▁το
▁Evropskega
▁ਜ਼ਿੰ
▁etnik
を破
ىك
▁trato
▁рә
الإ
ficas
▁Buraya
▁लिहि
▁lomba
▁āwhina
▁runga
▁nebu
▁ସମୟ
ಕು
▁ቆ
amojo
▁মুখে
▁երկ
▁ике
uksjon
▁tất
asu
▁यो
▁పరిశీల
тва
ສຶກສາ
▁luonnon
▁મોડે
utun
ляції
cail
▁pelle
bee
વર્ક
▁извън
▁teñen
▁လီ
haontú
وية
▁imara
ດຽວກັນ
▁성경
リアル
▁ડી
པས་
ଳ୍ପ
▁اضافہ
▁nebola
▁oktobrī
代わりに
眠
他们
▁kembali
ħar
実際に
ilawa
▁guztia
▁mysli
▁bôn
▁njoj
▁▼
तना
ោះ
▁طرفئندن
ন্ধ
irango
▁prezid
▁Hill
▁चढ़
▁جسم
▁atya
riften
ונים
▁վատ
▁तर
▁ఆడ
▁vëmend
োৱে
▁dumalana
▁نەخش
ikasi
▁maũndũnĩ
▁ezivela
ِّ
みます
▁prístup
▁러시아
ЕО
3)
کوں
ուն
▁پاکی
▁kotahi
▁問
▁ହଁ
▁рекла
般
▁Had
▁ಕನ್ನ
▁ýazy
▁शक्तिशाली
▁Dzidz
▁bane
▁پارا
▁sharawng
šką
lɩzɩ
▁పోలీ
ガン
▁zingo
▁የቀ
ós
াপাশি
▁Hack
▁medzi
▁Gla
upwa
瞑想
詞
ンは
▁Mpa
▁studerende
▁бъде
ိူၼ်
▁scene
redi
▁чине
▁sínum
Yise
▁نیا
▁ngif
▁vinh
▁kpɔkpɔ
▁alternativa
▁itil
ត្ត
▁megk
▁Sister
фо
asane
டியோ
huid
▁nlekọta
▁უკუ
▁rik
▁여자를
▁ہار
▁पत्रिका
▁انه
▁kif
▁today
▁diba
ට්
▁fɛ
▁vavy
▁کوچکتر
▁nainappa
ർമ്മ
ंटन
män
स्थ्य
▁sedi
▁ተመሳሳይ
▁आफू
▁איזה
▁дигаре
▁ryiwe
▁алғаш
ELA
гра
ፎም
vavy
▁아닐
▁kayanya
▁duhov
▁esihle
Efeso
ଡିକୁ
▁უსა
需
▁Spir
ǹkan
ၵေႃႈ
林
▁Nguva
▁priekšsēdētājs
ാവ്
▁پروردئگار
▁punyo
▁ennu
밧
▁هواپیما
▁хөл
▁בהחלט
▁suppos
isiais
▁mun
▁environ
ా
asihi
སྨོ་
тної
▁nagsimula
▁толку
▁흩
үшкөн
μης
zoza
▁ŵanandi
者を
▁LV
ವಂತ
بیح
▁کارگر
▁sadde
▁Wag
там
imbi
▁huga
▁Biraq
▁tjetër
▁όπως
▁تريد
▁diragala
ታት
▁ať
štvu
▁περισσότερο
▁Nanging
ிருந்து
▁kont
▁بێ
▁sekali
amhlanje
fob
▁споде
Sik
▁kamer
▁ಪ್ರೀ
▁wëë
lejte
తాయి
▁Isla
▁Амь
▁szüksége
ሦ
▁passe
بع
▁명시
▁የሚያ
баева
▁മ
▁berusia
▁གལ་ཏེ།
cciones
on
湯
▁leaving
পত্র
▁osobné
ised
ಯೂ
▁dugay
▁znanja
コンサ
▁máy
▁земјите
▁၁
ístico
▁lamb
▁pravidla
▁AI
ējis
▁sapak
ρτυ
barê
▁kokende
▁dedilər
▁metso
γά
中国
▁ngoi
େଶ
identifikasi
ウン
▁юлга
ama
▁nũseo
▁huzur
▁arday
▁eu
至
erty
▁प्
erau
▁համարում
akua
isano
▁базо
▁kooskõ
▁күчтүү
хе
▁59
okut
▁Pavlus
▁iyagoo
▁Кита
▁girt
ickú
рер
vania
▁Fund
▁можу
▁utó
▁тусламж
ttis
▁자유롭게
▁waarde
▁daima
▁показали
▁čar
▁אדם
▁претен
広
▁сказаць
▁logi
▁zabal
imama
▁familien
▁hayat
▁dört
стано
šnih
▁비즈니스
يمي
▁मुदा
▁hlola
Ì
羨
▁Jallp
▁búa
▁umndeni
གུ་
zenta
ěl
▁nøyak
▁сенім
jash
▁کنٹرول
ウ
수록
▁ndɩ
ႁႂ်ႈ
kàn
▁soneka
ปาก
▁ali
exp
өнгө
▁7.000
▁nakaka
vje
дят
ठे
に住
▁особисто
▁sòn
▁placed
▁розро
▁ڏا
forsik
▁ⴰⴽ
▁liyane
фика
ጢሞ
▁qhitinacatejj
▁libre
▁Guy
▁жүрөгү
▁Photos
▁põhjend
▁vór
ovie
isinga
▁Taky
▁چھے
ียน
前の
▁fornit
▁миро
▁liber
iso
▁Oprav
▁enfermidade
دولار
▁Bett
▁дисци
▁פריי
mahụ
▁bepaald
▁једног
▁determined
▁तमे
jesh
ns
▁Միացյալ
▁izvēlēties
깃
▁umid
▁calti
事業
计划
出生
▁פארק
▁lulamisa
银
▁маңызды
གསུང་
▁경찰
▁حرکت
▁שלום
észt
▁hoteli
བར་ན་
٢
ҙаҡ
▁fakka
meng
▁wodi
ケース
ەد
▁vakabulai
▁værdier
▁hufanya
▁քարտ
▁haý
▁працює
ýr
▁Allahın
▁intsha
useks
▁ક્યાં
▁ሙ
▁loloma
▁production
シー
▁հիվանդ
▁ndesh
▁dipaké
▁װ
▁богатство
▁қолданылады
▁веро
coutez
▁xuddi
rún
beit
▁protsenti
넉
ualalo
▁típ
्रीम
▁ë
▁داشت
▁침
▁xiriir
ально
▁সল
ينة
▁پٲ
licar
▁upya
を呼び
ことはありません
▁בטח
▁ھەر
▁qullqi
▁вой
▁Samtang
kalain
▁kubab
ຢ່າງ
▁ኣካ
▁réc
ekani
▁instant
2.1
▁Vždy
▁význam
▁포
▁елларда
▁látt
▁дарга
Ƒ
emani
▁ruhy
lis
▁ማእ
शो
▁nenn
▁zwar
ũmwa
▁heko
▁Kurdistanê
▁скуп
▁башына
▁28:2
▁چەك
▁ငြ
▁pramonės
lakan
▁ancient
▁nsimu
halwe
調査では
нета
▁સર્વ
▁Revolution
▁buruan
▁rodas
▁무게
ିବୁ
▁ماڻھو
▁boikaelelo
enivo
কারে
▁मिथ
▁بگیری
▁alter
▁활용
ברות
ዳን
▁maksim
▁juwo
▁проблеми
andele
款
▁дола
መልከት
▁ହେଉଛି
▁forpligt
▁dës
▁prés
▁Ọkpara
▁beritahu
▁मि
एम
▁నిల
▁ḍ
biz
普通
▁nzuri
োয়া
tudlo
▁profissional
▁Бож
▁അവസ
ρούν
▁путу
▁kallo
▁ເພງ
▁گەڕ
wuo
▁cidad
▁loogu
▁reku
▁gargaare
▁медиҳад
▁Gjer
lep
▁hman
▁Kuchi
▁modific
profeti
த்தக்க
മാണ
▁bja
▁robots
▁seguro
▁turizm
▁Moseo
bwa
▁Wë
▁službu
ंश
▁الطريق
▁negos
▁ଅନ
ចំនួន
သေး
▁প্রতি
▁fiesta
äkö
WTO
▁nkoa
▁ፓርቲ
▁wina
лень
▁bulanda
▁стану
ിട്ടില്ല
▁kulak
▁Kaliforni
čiosios
专
▁protegir
muso
发展中
hala
janje
▁tirdzniecības
▁qız
▁تعالى
▁diere
▁сусі
▁המר
▁minēto
▁hojii
ಂಥ
ospodár
▁قىلىشتىن
▁ସମ୍ଭାବନା
јих
▁һатып
▁reje
солу
▁ને
ครอบครัว
▁마침
▁dalo
▁טיי
אל
ികെ
▁সকল
▁ഏതെങ്കിലും
oraa
Dim
▁территории
▁საქმე
▁Verantwort
▁savo
ẫ
halire
ᱠᱚ
▁Ι
▁nǔɖé
▁лікар
▁valors
▁नबी
гәч
▁마이크로
නී
yig
▁nanlapud
▁kopesa
▁darīt
Jesu
सेन
ayn
▁ဆိုတာ
▁borapeli
▁ప్రేమ
▁pakal
ၶူ
ήσεις
▁wyth
▁Gapuna
bilmek
▁files
rifter
динетите
▁ಇಸ
uruh
▁nove
▁ကျွန်တော်က
▁Орга
emali
▁árt
▁grúpa
▁বুজ
▁Wunpawng
នៅ
▁chilich
▁wakisi
▁38
ehova
▁Nina
▁یکه
▁IL
vènman
シーの
▁Chili
▁ভাৰত
▁buud
▁પૂરી
▁આપ્યું
▁Она
▁یابد
▁ange
▁ពាក្យ
▁učinkovito
▁भगवान्
وسه
▁צו
मय
▁ڕۆزی
ET
▁شوێنێک
▁Mona
▁денес
ankh
བྱས་པའི་
▁Probab
ਡਾ
▁kumosi
▁našao
▁isaani
▁belaela
▁ታላ
▁бөг
ഭുത
▁인종
▁Nikola
▁innoc
▁kivál
▁ആവശ്യമാണ്
ՈՒ
▁kwarewa
▁ምው
ଏସ
jącej
istab
वा
inspir
▁ɗoo
▁konuşmak
▁একটা
▁אותו
▁mota
▁Down
[10
▁kogniti
▁opps
▁fellow
tea
▁बच्चों
▁Ду
▁Ehe
▁results
▁kgoši
▁رپور
▁kewanten
▁প্রস্তাব
▁могуће
▁ဆုံးဖြတ်
୍ୟାଳୟ
pehi
▁오르
ණු
▁съответ
▁た
জনৰ
ungenna
uguni
▁úva
識別
▁nguni
jita
▁ajj
▁ኳስ
▁72:1
▁yeng
▁faai
▁Jum
gär
▁pakay
▁yubak
▁Dare
▁korábban
Бер
65
▁tænker
▁желе
▁неговите
cave
▁incapa
▁panto
реже
▁պատասխան
▁peth
▁мехоҳед
ဝ်ႇ
▁ነጥ
▁Féad
▁komepiuta
▁ಸೃಷ್ಟ
▁खात्री
agane
▁ເຮົາ
▁ent
容易に
iskrim
▁деп
▁dovoz
▁betrokke
iranje
▁ପି
▁ኣለዉ።
▁izen
ický
itsundzuxo
mawutɔ
ăng
▁gallu
▁hirma
하기도
▁krajinách
▁anbefa
▁lubatud
と話した
qot
ることができ
▁mbagħad
sev
▁ĩno
▁kadag
▁nging
▁kamili
▁then
उस
igration
իվ
▁တွေ့
▁ମାରି
▁અલગ
▁kpé
▁1;
മാവ
▁deveria
▁қолдан
cua
▁Поч
дім
腳
▁ŋugbe
ພາຍໃນ
ಬಹುದಾದ
▁ತೆರೆಯ
▁1829
▁Шуңа
▁әүвәл
▁ກອງ
форд
чала
▁capì
惩治
▁gevangenis
一人の
פר
▁njen
▁сен
▁सफलता
▁ಉದಾಹರಣ
▁પડી
▁úst
金持ち
▁izindi
▁эдийн
ായിരുന്നു
▁ಎರ
▁sadarkaa
หมาย
▁selliste
▁pjes
▁алға
▁kärlek
ಿಸಿದೆ
▁להישאר
אן
ジー
haithi
ấu
▁Ú
▁lawo
▁habt
etšo
▁bayyan
▁ພ້ອມ
▁kimakulu
▁seirbhís
மல்
▁elegant
સ્તો
▁ský
▁திற
かを
xia
ĵo
ũ
▁sõma
▁Minute
qdisho
▁застосову
▁људ
▁قويدو
▁kely
▁എന്ത
reti
ཨིན་པས།
▁1.3
Tongana
▁ikiwa
سانين
アメ
臨床
otom
▁Response
▁фара
▁Особли
▁സാധ
▁realisti
▁berlebihan
▁गोपनीयता
▁շնորհ
ovol
▁ଛାତ୍ର
▁pengeluaran
▁Abdullah
▁αποφασ
▁ساڵە
ཡུལ་གྱི་
▁qop
▁ကိုယ္
▁Бұл
▁いう
▁کاری
ष्ट्रिय
▁muanda
▁senaste
▁lip
▁따라
▁আমাকে
▁año
лё
▁nêu
itete
ιστα
▁frí
▁ସ୍ଥାନୀୟ
▁Aquesta
夥
▁империя
კვდი
,
▁келі
တႅ
▁ვიც
▁Naye
▁प्रोट
▁мебошад
akatakix
性
▁مەک
སྐྱོབ་
▁হাঁ
▁tlhoke
▁புரிந்து
▁procura
▁بسیار
adụ
irim
▁ganggan
▁dizan
▁py
▁Ibn
▁ט
▁Sumala
pomemb
▁চহি
▁kuthetha
гызга
▁քեզ
▁özel
▁įmanoma
▁سکے
ħaż
lako
▁37:
▁fihetsiketse
ədə
zzazzjoni
▁ancak
fiaw
▁ООН
▁comb
.›
を渡
勇
▁أحتاج
▁babona
▁رهبری
▁ər
▁ndih
▁ⴰⵍ
ľvek
ūdz
▁😛
▁bɛlɛ
▁Lok
▁христи
дишь
▁construcció
▁shame
گانی
▁Dlatego
isiraele
▁딸
cili
нару
▁swilaveko
bilin
▁šū
▁य
▁кабар
▁đi
▁misato
kludi
anov
▁ངོ་
isya
emblea
▁þau
▁življenje
▁więcej
шісі
▁CPU
▁tran
タイム
▁حياتي
▁baithuti
наги
chhuah
▁Kadi
▁pakiramdam
▁জ্ঞ
ビン
投票
心理学
▁encu
▁gå
▁liberi
ようになる
▁forpligtelser
▁tšweletša
▁ਤੋਂ
▁ukucila
▁kupwa
ۆژ
▁græn
pila
тым
▁зиян
▁שנות
▁TS
ილ
ร้าย
veck
▁પરિવર્
▁березня
▁بیست
ovanú
ikisa
ապես
▁kweminyaka
api
▁않을
▁gjithë
▁худалда
ស្លាប់
jju
▁আচলতে
▁berat
▁tanker
▁कवर
Gel
љив
ことでしょう
▁ኢን
석은
▁bala
▁делать
ājas
▁Tlh
▁बनवा
▁Ebu
▁näkö
ಬು
ិន
ukke
▁מאַכן
▁folkl
탑
ћина
▁Эки
dn
▁Komp
▁víte
▁నిర్ధ
▁Usk
▁Volt
▁obeh
նարկ
▁energije
odás
रत
▁жени
▁begrän
▁avessi
▁wakisk
ඬ
ben
▁opatrení
▁Eny
▁ƙarƙashin
▁produkt
sy
▁kultuur
▁manipul
vī
:20;
dụ
▁ялгыз
▁озби
żmu
▁Decisión
▁măr
rẽ
▁oriṣiriṣi
zira
▁Penting
▁conseguenza
革命
▁طراحی
▁uviali
▁سجدہ
дегі
agad
▁Krisztus
▁քնն
▁iværks
itangi
དམངས་
▁membri
sii
θως
▁સુરક્ષિત
消除
▁Corporation
inawa
मान्
hasil
̉
▁ಹೇ
▁Гри
▁ngân
▁пружа
▁דאַנק
▁કરવાનો
わけではない
bub
lambat
▁Falle
▁ଡେ
▁ହ
aneli
▁прегледа
▁συζη
▁bwose
▁مڪ
▁ierīces
تين
▁ċ
▁अगाडि
▁ئادەمگە
▁dalyje
▁Sajn
တူၺ်း
सोस
onia
://
▁претставува
ایە
óireacht
▁Maent
▁стандарт
▁računal
iseni
ནོ།
▁গেছে
▁gẹgẹ
▁ခ
ぎ
ൊപ്പം
▁άν
▁pelatih
▁ಶೈ
▁అలాగే
▁към
▁Tul
▁verse
▁ترب
▁dienų
▁tō
▁உடல்
▁드라이브
éá
ileriso
isito
▁bacio
▁arrêté
▁käit
මන්
ymt
▁ĉamb
chitidwe
▁oli
wał
omuntu
▁म्हटले
▁katere
▁făcut
▁ගැ
▁yɔnko
▁κοιτά
▁oll
ремия
▁років
▁Manau
▁aýdylýar
pasta
▁vakatu
pera
íci
얄
調査
ọrịta
ãngã
skis
эф
▁fede
▁მაინც
▁litimapim
anela
atonu
▁tartani
▁kobi
▁ìrètí
▁қаб
▁itũũra
▁öyr
▁ብም
▁түгелме
▁देखता
▁දේව
ucok
▁kũl
zajya
ඹ
lola
▁كنت
▁фактори
leɣ
▁यस्तै
ciúil
▁бештар
▁endleleni
▁කව
өнхий
▁treba
ល្អ
▁spui
क्यू
▁ཁོ་རང་གི་
▁13,
▁ɛd
▁bhind
▁stupid
▁Тады
▁ბვ
▁욕
▁жинау
▁دەرىج
enshi
▁télé
▁lạnh
ibers
▁eky
大いなる
▁پڕ
▁сайхан
▁gaarii
▁uzņēmumiem
unakan
▁comunista
▁olar
ეთს
არო
▁mažiau
hia
▁commen
èyàn
ಗೊಳ
sìn
▁உண்
▁todhchaí
紀
ুমে
▁panimalay
▁히
ຕ້ານ
▁ଟ୍ର
▁endur
▁Lane
▁kabu
非洲
▁орж
▁seasamh
▁rec
ләне
▁nasarar
▁болмаған
▁Hena
▁Thutha
▁ఇష్ట
▁Աստված
ನನ್ನ
дост
ారా
▁tutor
▁Mé
▁жерлерде
ਪਰ
▁hnenah
▁মতাংদা
ipot
▁салды
fina
▁لرئ
▁અત્ય
▁web
▁Folg
សេ
▁Kutsal
chool
ହାନ୍ତି
▁semaine
▁мр
isuudesta
▁치유
买
▁наводи
▁beskou
폰
ിച്ചിരുന്നു
▁לפ
の一
▁تھو
āšana
ヴ
厘
▁sepeda
▁kasus
">
▁esnan
onit
tkaz
▁storočia
▁ṭhen
?).
نيد
もありません
▁ପୂ
ប់
▁leen
ōt
ڊر
▁qualquer
▁incl
▁tercer
ální
▁EA
▁използва
▁үйрөн
timore
▁voneke
▁xjenti
ارن
細
▁gumii
▁felüg
▁कभू
च
नात
▁ここに
局
▁Doğru
uks
にとっても
▁ఎన్న
syao
▁ፎቶ
▁برکت
▁biki
гүүд
▁ngawe
laj
▁sheba
▁deo
池
▁leisti
aire
fsa
▁वस्त
▁nema
ɖu
ାରୀ
ālajā
▁nhasi
विषय
▁ନିଜ
▁Orleans
▁లి
neñ
▁gwych
▁Yahweh
gen
▁21:2
▁käyttö
▁görkezýär
▁button
▁둘러
▁Dita
▁rikonoxx
▁آثار
▁உறுதி
▁якості
谦
adora
ivu
▁jikkons
▁doseg
сена
▁দার
fungo
▁magaalada
ĩkorwo
▁সংখ্য
▁eB
▁једне
▁کرو۔
▁Vidiš
릅니다
▁gdzieś
▁famosa
▁sincs
▁songa
अ
▁svako
といえば
لارغا
zai
▁basol
▁ཡ་ཧུ་ད་པ་
▁wirst
ฃ
▁vesi
akop
▁ngandika
▁பொருளாதார
raman
▁funnet
▁ordet
▁šlo
▁کھلی
▁chachax
▁kurarama
▁casă
부의
▁nourrit
▁вашето
▁conclu
▁მაგალით
▁baho
sik
▁율법
য়েই
▁विकि
管制
▁Pä
▁ditir
14
োং
▁प्रोजेक्ट
▁ۋاي
▁സന്
क्षेत्र
▁масе
▁порівня
▁કેન્સ
▁Ara
▁izcīn
juda
བཟའ་
▁баъзе
▁malt
▁Stop
idium
▁پئسلئک
niñ
▁sup
▁관심이
ୀଶୁ
▁danni
▁nótt
▁ailə
ښت
▁मगर
▁1918.
Те
ैर
▁통치
▁କୌଣସି
▁искуства
▁көслө
▁disiplina
ሀ
▁selemo
▁nunku
ibva
▁3,5
▁رياست
▁kudin
ിര
្នាក់
イツ
▁mənim
▁fèt
ထွက်
▁गर्नेछ
▁آورند
▁turmush
▁शपथ
etru
▁অনুভৱ
▁ghabhail
▁आठवड
▁Blog
િલ્
▁Chrys
▁unibers
▁hơn
کننده
▁iných
▁नौकर
▁toekoms
▁Bruk
▁nuo
▁Ві
▁היינו
▁болобу
▁કાન
idaknya
▁diskon
beledi
EGA
엉
▁kaset
▁پەرۋەردىگارى
▁naim
ক্ত
Kɛ
iaus
▁директно
閉じ
▁baina
مىز
▁העל
ོན།
讀
▁veiya
ាំទ្រ
▁atansyon
▁водите
▁శి
▁teatre
▁khó
▁líne
▁apakšpunktu
▁ekskur
▁GIF
他の
▁υπό
ંડ
▁siguiente
▁Dawudyň
▁penyimpanan
▁نابن
▁елда
涵
▁Чу
ພະ
apatay
indze
▁בלויז
▁Perëndia
▁է՝
▁atom
▁ଭାରତ
▁Rwyf
്ല
▁illet
▁rozpočt
▁"'
▁négo
andard
▁нишон
▁likas
elus
4-2
▁kirish
Да
▁trest
▁େସ
▁Etazonia
್ರೆ
▁ရွိ
முற
yadi
▁ocitangi
њи
▁Gusta
▁представља
▁تأ
▁tuolla
ເຂົ້າໃຈ
եթե
▁fork
▁конгрес
▁mennesket
indar
illa
दाय
▁Dida
▁vorliegenden
▁въпро
▁wobetumi
▁চলা
▁Ezekiele
▁चुकी
ಠ
▁ოპ
▁अति
▁sgr
פּס
ќ
▁तदा
لز
▁resten
▁geçer
▁блага
▁भाऊ
द्री
▁langkah
ājusi
▁Енді
▁клиент
▁ನಾಯಕ
▁decyzji
▁בי
▁Madu
▁녹색
▁תג
issen
ገዳ
waya
kor
▁کمی
▁ankaŭ
▁વર્ષમાં
75%
ebra
▁naap
▁nasto
▁ɣli
АН
▁Prog
ំផុត
unau
▁evalu
▁多
▁Тогаш
이
▁ũsumbĩki
ོ་བཅ
▁שאנחנו
chiat
▁присуство
▁tsone
▁Chak
чүүдийн
▁ਯਹੂ
дәрен
ཧ
ætning
▁gevallen
▁μπά
ریکی
▁ಆರಂಭ
ನ್ಸ
▁tona
▁End
▁Bright
▁Altern
ستون
▁Башҡортостан
▁aip
▁deven
ກັນ
▁aron
▁tưởng
▁خوف
▁そうすれば
պ
ugian
▁oranga
▁Camp
▁okul
▁luch
▁nuinga
ىلەرنىڭ
笛
▁koneksi
▁имаат
▁soeur
▁ប្អូន
ρ
irika
ոչ
ड
ფილი
▁رئيس
▁həyata
▁famo
▁उच्
ugat
▁نیوی
чко
▁citava
ovchi
快
他に
பர்
▁ней
▁nicio
watsi
ၼိူဝ်
فقة
▁මේක
limbikitsa
▁शिव
彙
▁kn
▁kölcsön
▁uqhamaraqui
▁cë
▁नृत्य
▁مجد
barengan
▁vaša
▁اوچون
▁Яр
▁implica
▁белгілеу
arus
ందని
▁šiais
▁႐
▁Men
▁අම
▁ডা
ይነ
ኸይድ
▁верх
口座
▁공격을
uile
▁একটু
▁킹
▁ഓർ
▁difference
iq
煩
ُّ
▁олу
▁Utara
▁gyvy
стви
ólica
▁حدس
▁mnoh
▁žvaig
▁mamlaka
ری
▁siyang
▁anhte
əna
▁oħra
ues
▁jetzt
▁asasi
▁ఉండటం
責
▁सहज
▁Η
▁bels
mize
ovani
▁பய
▁pašreiz
▁муу
ûna
дэн
▁روش
qiniso
▁Не
▁Bates
▁halnya
อย่างนั้น
征服
▁sog
▁sin
▁व्याख्या
▁beperk
▁saling
一緒
▁sni
▁заради
▁пусти
▁veivakat
yose
▁eaba
လုိ
wich
▁fëmijët
viešu
▁maliu
▁Zum
▁безпосеред
昧
▁ಮತ್ತು
▁تواند
hwɛfo
▁membiarkan
▁mengen
▁krish
▁Pil
▁jūsu
▁seere
▁sodel
▁cinta
▁потребна
▁tilgjengelig
▁Tochter
▁arrêter
labena
▁jiżguraw
เรีย
▁वर्षां
▁planlagt
vallen
▁kese
▁Mumbai
스트
▁မြ
ká
Kor
မဲ့
बि
колико
今回
▁olwa
▁arman
քների
▁tajem
▁પ્રવા
▁level
ulto
▁vidite
▁بانگ
▁Dieses
လည်
▁boumeli
▁dhidi
▁tsana
▁وتی
ileachd
aloli
werken
ห้อง
▁اطلاعات
▁sefa
ਮਨ
▁sterben
を受け
▁capital
▁ਧਾਰ
▁ទេ
▁ìránṣé
▁ಪರಿಸ್ಥ
▁iPhone
▁ariba
▁నాలు
人には
ग्ने
▁isifundo
ethasya
▁پایه
τούμε
▁lehu
▁dongruok
▁zikaJehova
ଯା
▁Griekse
▁romano
▁Юк
kwọ
▁kamin
▁makosa
▁क्रेडिट
ικ
▁gökdäki
▁geunas
▁myöhemmin
siin
確認
osek
ficació
Kol
▁কারো
▁kiônge
▁toro
▁testosteron
▁ತನ
▁mortal
क्स
▁нашег
buli
पथ
다시
ที่พวกเขา
méně
▁опре
lica
▁tén
ного
▁సి
ார்த்த
▁ìpinnu
▁при
abwe
▁jiems
wege
▁europeiske
▁hõlmab
▁kinacho
ເລື່ອງ
rück
좇
ड़
▁Tũtonya
▁arma
▁noNkulunkulu
▁кой
▁mitindu
ヒト
ટી
BA
▁kawen
ekee
▁malade
用に
జిక
▁were
Ṅ
▁allweddol
Nan
▁njeriu
▁jõud
▁omo
▁juurde
җә
athon
▁կարծում
عد
ਾਲਾ
bass
▁ស្ថាន
▁neute
▁komben
▁தேடி
▁ਦੁ
ারী
▁здравје
▁હેઠળ
▁gebeuren
▁izc
▁aŭto
▁Maq
と見
▁รับ
-100
▁boitsebiso
▁საკუთარ
▁tehtud
▁MAL
▁vrátane
ۆنی
▁twala
▁identity
unge
▁እሱን
ыз
▁чә
▁acces
jutan
▁maynit
̣
▁заме
▁lɩm
ཡོདཔ་ཨིན།
▁будут
起こっている
стин
▁SOL
턱
내에
▁gobi
▁Daugelis
lagira
ۤ
▁аши
앓
顧客
▁옵
▁lūg
▁volle
▁diku
baan
▁rij
▁küsim
မော
▁naʋ
▁dejado
▁νομοθε
▁canción
cw
督
▁skaus
▁dapat
ital
▁અમેરિકન
▁ምዕራፍ
▁وعدہ
ಿದ್ದಾಗ
▁boba
ningen
скім
יתנו
ことがない
の歴史
▁होगे
▁hisa
▁Mbret
▁сказала
orse
ワールド
▁inimestele
するだろう
".-
▁ش
سىل
▁تۈ
▁Satur
▁mild
੍ਰਿਸ਼
▁җыр
▁покажа
▁သော
▁stalo
▁ард
పాటు
ربه
ുമ്പോൾ
▁договори
▁مٿي
▁qual
▁един
gnię
▁File
redno
되면
▁സമയ
▁arbit
▁Valstybės
▁ਚੱਲ
▁телото
በራዊ
བལྟས་
inoma
▁Cïmën
▁avbjóð
▁fifi
▁ଦିବସ
▁স্প
▁okuva
▁මතක
▁teagmháil
▁ਉਹ
ceba
പ്പ
ankopɔn
▁പുസ്ത
▁moteris
▁have
▁mkn
▁divès
▁રે
fumi
私は
▁guddi
بوون
magyna
▁مەھ
▁বদলে
▁aca
▁esalem
▁짓을
▁lahayd
▁प्रयास
▁दुआरा
▁गवा
▁Ode
▁taone
▁프로젝트
okaka
ເຂົ້າ
▁ಲೆಕ್ಕ
▁ئ
▁όπου
▁Resultat
ҙары
▁полі
▁01
▁visitar
▁biệt
▁ফু
fər
Islam
▁എല്ലാ
rokken
▁geweet
▁ansik
することで
ครอง
▁dhó
▁անհատ
ಲೈ
▁údajů
▁preocupa
▁novela
▁faalogo
▁poursui
▁ହେବେ
▁laso
เอ
ттау
▁인쇄
▁odva
▁zahar
ங்களே
▁tvoje
▁καμία
לעכע
홍
▁അട
▁inka
hinyi
▁หลาย
▁rika
▁mapin
▁sonur
▁Pă
▁päättää
▁ystyried
▁montrer
▁maikw
▁sentíu
▁べき
▁enfrent
▁ଅଟେ
▁geef
тати
▁ajja
▁ojapo
▁skaitu
▁jinkl
▁jkunx
▁kū
▁Suur
▁kliin
妹
▁Base
▁ത്തി
thet
▁aanga
னால்
▁વિચારો
▁здо
ଶ୍ୟ
▁vuel
▁डाल
ým
▁bēr
வில்
混合
▁kulang
ႏွ
▁intsony
chtet
گو
േശ
▁एंड
▁Alan
▁Tổng
▁inseg
레
▁reaksi
▁વાસ્તવમાં
▁oub
enhet
▁tornare
▁అసా
▁paama
挤
▁белг
nm
▁בבוקר
▁ningalin
浮
བཤ
▁sran
▁Timotheo
▁verantwort
▁wie
▁Mem
▁желите
▁suya
▁pongi
▁lisangá
▁دو
▁природно
▁প্রক
▁pojav
▁negar
▁ឬ
паѓа
ĩka
íem
▁நிமிட
▁zaljubl
▁miye
▁점을
hize
▁Sillä
▁umub
▁যাতে
▁ocht
īvu
▁kuelekea
راھ
▁digitale
irdiler
▁બેન્
ཡ་ཧུ་
ોને
▁anbe
adilu
▁spremen
োতে
價
▁theo
▁regu
孟
مى
▁اۋ
▁ସ୍ୱାଧୀନ
▁ũũgĩ
▁ире
▁ไม่ได้
కోలేదు
▁Tre
▁nkuko
▁هور
▁cauza
▁tũ
▁ຈົ່ງ
▁гээд
Car
ళ్ల
▁FBI
▁argam
▁Tart
▁Mwamb
▁kpɛɖé
▁genu
hanog
▁nổ
ቻቸውን
ắp
▁Gary
eteket
asiza
▁titlob
▁தலைவர்
▁入
▁Mg
▁Давайте
ljenja
降
▁বার
▁גוטע
▁canus
anọ
▁äri
▁आनन्द
▁angaphezu
胎
টু
▁κιν
▁ishlat
▁ერ
▁προσέ
ರ್ಭ
▁emuva
▁जला
ിയില
▁probabil
▁шундый
φαλ
▁이들의
▁ilmaan
▁لكني
▁大きな
▁pï
anz
▁سندن
▁longu
他们将
ဏီ
▁cesty
▁(0,
▁ଶୁଭ
ٕ
▁susir
▁Дак
▁બ્લો
▁ظاهر
▁pagpipilian
▁Imana
9),
▁wĩtawa
▁aján
▁vru
tension
aría
dù
해라
▁是
▁naxa
▁only
▁হৈছিল
▁Halim
▁Mwanda
▁najviac
▁littafin
▁hanze
штени
▁magazen
vise
ນີ
拐
的かつ
▁äl
▁dariya
▁Нека
kkkkk
▁usoma
▁जिस
sues
▁степени
▁শে
amm
hui
▁орон
께서
serva
anila
üü
чів
кир
ènye
民間
▁ဗ
▁jouw
צד
▁ίδιο
▁cuad
3),
▁Nua
కింగ్
▁mää
ùa
▁Между
▁స్థాన
▁pratique
ējot
▁obzir
ipu
▁सहायक
▁אית
▁kishin
▁kabutuhan
▁ག་དེམ་ཅིག་
▁sukulu
tat
▁mil
ತ್
ଳୟ
▁ehkä
▁ଧର୍ମ
▁kokoa
▁חברה
▁hidupnya
▁recoñe
мий
▁សួរ
▁თვე
▁voima
▁بەی
ශයෙන්
ቻችሁ
bud
▁ម
latura
▁करूँ
न्दा
▁Jɛ
▁پڪ
▁nov
▁bata
▁surveillance
▁rimay
▁ажыра
▁ကိုယ်တော်
tură
▁кылучы
▁ҡу
▁ਚੌ
ɖuƒe
▁64.
zīmē
▁शक्ति
uby
▁அறி
rani
▁yomweyo
▁Pris
▁BIB
▁кеңеш
▁athu
▁gaitu
▁کەر
▁ಪರಿಹಾರ
▁vervoer
▁دروست
▁Además
▁ninyɛne
▁posebne
▁چاغ
▁така
▁svima
▁yith
▁hwile
눅
▁Chyba
▁musoro
▁Nong
ekend
ა
ार्ड
▁یور
akapar
kes
▁således
▁összeg
▁موضوع
▁mogą
▁фекер
busa
▁записа
參
پێ
▁ይኸውን
웨어
▁ешкім
▁κάπου
▁Valmi
buyo
▁R
▁ହେଉ
▁zeBhayibheli
riga
讼
стали
▁Photoshop
ణ
▁keç
hops
்க
chu
▁obr
▁isu
▁4:4;
▁կող
စ္
▁tirdz
▁bilei
▁sayuran
▁ⵉⴳ
▁сессия
▁toegang
▁maala
▁ലക്ഷ്യം
čer
▁patung
▁تاریخ
▁cholinga
▁testosterone
▁4:8
▁शत्रु
▁gaisa
▁painim
ome
▁âm
ethau
▁私達は
்த
▁industri
▁palata
▁という
▁эъ
▁त्रुटि
▁sláinte
ဖက်
জ্
▁általában
▁Està
▁مع
belana
álé
▁elér
▁tg
▁Maduro
utinis
▁ኣካል
јуће
სპ
トラ
ליכע
ጠይ
▁zingaka
ulukira
nit
▁mengalami
денти
fuli
дження
▁ыр
▁than
қат
▁betumi
▁tiż
cient
▁ასე
▁께
▁muvaffaqi
сене
▁esat
▁কবিতা
▁raske
▁ವಿವ
▁pagsa
けた
▁στι
▁المكان
тілетін
▁იც
ጀመሪያ
▁Kështu
▁ngokupheleleyo
肚
▁တန်
రస్
满足
すぎ
מים
▁unic
▁tuod
▁حاق
▁justific
šām
otud
歸
▁ಯಾವುದ
온다
▁situat
▁dannaya
▁Yordan
▁ята
▁cruel
▁Prezident
▁sìn
▁ओली
मध
▁tlhole
▁indeks
▁எ
▁협
urana
пут
▁sian
▁fëmijëve
▁പിൻ
▁nurodė
▁ਦੇ
▁rende
ରୋଧ
▁agta
ınca
▁constru
▁sudaryti
▁આપે
不断
ంద్ర
قانون
ຸນາ
信士
ၤ
ציות
▁egziste
Хо
▁sinti
▁Aisye
ਵੱ
▁запа
▁hasa
zoni
▁Често
▁Sebenar
▁відно
▁volen
▁паводле
▁ondersoek
▁kizuua
▁drwg
▁yderligere
▁ስለ
▁заўсёды
тивтік
▁specie
▁կողմից
▁ဝႃႈ၊
inka
▁direttament
▁tamién
▁udvikling
▁सम्ब
▁andel
jede
▁گناہوں
ⵝ
▁අනි
ɖó
▁Gae
ဆင်း
स्या
siú
▁Olimp
▁наметавонад
需求
▁sweet
▁prefere
▁ова
ങ്ങളും
▁procent
▁નિર્
▁даими
ukakan
▁ndje
▁Uku
▁batt
▁Hibru
▁baganda
▁ajone
▁összefügg
रोज
▁välis
はまた
▁የሆዋ
ཀྲ
▁교수
▁заврши
ವಾಗಿಯೂ
alyň
▁መዛሙርቱ
▁ئاشۇ
রবা
▁નાણાકીય
▁اؤلدو
▁teles
kän
ansam
▁seta
▁어쨌든
umubiri
サ
▁sendirian
▁ज्यो
▁Casey
▁그녀의
▁Bats
▁معامله
zuwa
okholo
▁ហ
лената
▁Ekw
▁luor
▁Ferguson
gɔ
クラウド
nému
ស្ប
헥
▁들어가는
▁Gog
ប្រុស
▁artisti
għux
▁trank
velo
▁chwilio
▁radyo
▁коп
ūrā
▁ပိူင်
▁اميد
▁87
bilirsiniz
tụ
大學
▁ip
▁straks
▁snie
них
탄
▁маб
▁Шуға
▁pembelian
▁gullug
▁mũyo
▁uke
▁Uroe
Yezu
▁հաստատ
▁hindi
▁Diosasajj
配慮
潜在
▁tir
▁कउनो
▁shall
▁riqueza
ventions
▁kwenz
▁algunhas
▁ಹೀಗಾಗಿ
ekereza
▁kaye
▁көне
▁excell
▁kubu
/22
▁fanaka
▁ప్రార్థ
▁ספ
▁bite
▁즐거
iby
ầy
▁tlhama
▁พวกมัน
▁деяких
▁असतात
▁izstrādā
ुनिक
ន្ថ
▁크기
▁reports
▁дөнья
Con
理論
▁helye
यः
▁नम
▁nɔnɔme
▁leger
▁поча
▁lyaLush
▁ጉዳ
▁bebo
▁поши
urak
elsi
▁kontur
▁looks
하느
▁заходи
ਬੰਦੀ
▁taisyk
▁sustab
▁හැම
▁अवस्था
▁երեխան
▁nincsen
niet
▁inta
ásù
▁kupanga
ினி
▁kammala
žív
풍
ເສຍ
▁Узбекистан
▁детето
▁ئادا
▁recone
▁Ieova
▁פרעגן
▁Ñande
▁tlhompho
ಾಗಿದ್ದ
▁ocean
piye
័
ွင်ႉ
▁Agora
▁بەهۆی
▁koč
▁grupa
▁5:23,
oux
▁mogli
▁орхи
▁lize
▁эштәр
▁tortura
▁ζωή
▁dövlət
▁جيتوڻيڪ
ேய
▁iami
Ни
ాలనే
▁थे
▁Qaar
хәммәд
▁gibi
▁Katso
eku
▁кирәк
▁सह
▁akot
ghju
ुक्त
▁కనీసం
jia
insel
▁benzer
honga
▁Fini
▁βρά
▁penamp
と同
▁Sukuu
▁Onyankopɔn
याल
▁nchekwa
▁উ
▁asai
watwajijile
▁tsari
続く
emias
▁nañu
ặ
estel
સ્ટે
▁tighinn
▁urmă
▁פל
▁gebruik
▁gëm
▁Kasuratan
▁سمعت
▁કંઈક
▁yenhom
▁Benot
▁چۈشۈپ
▁repla
▁Xə
ENTO
Mt
আম
▁үйлчилгээ
▁conven
CH
国は
ուած
ukala
▁organisa
▁گئی
▁anledning
ጢ
▁απ
▁સંસ્ક
irian
▁Ing
▁concrete
▁store
▁contenta
zungum
▁hikuái
医療
▁তুই
▁sevir
▁வளர்ச்சி
▁nakak
ראש
▁ਦਰ
▁lata
▁bychom
eletano
そんなに
▁왼쪽
▁skirta
▁DEL
bagba
▁3).
▁අඩ
▁Það
なくなります
▁hustru
▁นํา
▁१५
ผู้ทรง
済
▁불안
站
ниципа
▁verskil
iebie
hormatan
虜
▁betydelig
▁sukar
Bo
▁다르게
▁불렀
▁darbība
▁책의
▁omiyo
表明
▁хәүе
▁Xina
▁ମୋଦୀ
ĵojn
zési
ຫາກ
▁ketek
▁सुन्दर
▁дискри
▁Mesias
▁항
yəm
▁2:44.
정을
▁destruction
calde
▁liksom
bagana
▁τέτο
▁Maloba
رار
hweti
▁tregojnë
▁tér
▁ئۇزۇن
▁ინგლის
▁gehouden
▁Çal
▁parem
啓典
дардың
sɔ
하므로
sion
гнал
▁প্রশাস
▁પરીક્ષણ
▁kuber
▁יכול
alwa
▁ብሓቂ
hasan
egeko
▁Ավելի
▁એડ
▁মম
▁tö
▁يەردە
▁पड़ो
▁menjadikannya
▁दैन
麽
cilla
▁მა
ленні
▁لاگ
係
▁خىل
▁신청
▁Twitter
▁Ciamar
atra
▁206
akamisa
îñ
eky
পোর্ট
▁mimpi
ĝa
▁ආවේ
tech
▁архитек
▁այս
▁биш
antoka
imiseks
▁Quand
ethol
▁စ
ējuma
▁trin
вест
issimo
▁crow
▁kejì
▁ntah
▁ٱح
ર્જા
न्हे
▁Memory
саа
ደግ
▁mtume
▁miliwn
▁것이기
▁bawi
▁نارو
▁Jalan
▁noms
▁худи
Mc
▁quantitat
捍
pula
▁tü
▁ვით
ებაში
▁própria
▁Gesicht
▁Tablet
▁Bonso
魚
뀌
▁20;
ینک
▁yĩu
గ
ⵄ
haza
wab
འཕྲད་
һ
▁Dih
▁classe
する予定
▁☆
uttede
▁akufaki
▁apprendre
▁lejo
▁mandato
▁ཁོང་ཆ་ཁྱབ་
▁കൃ
ပေ
▁gbí
图
▁mond
▁Phy
証明
▁փնտր
atahi
წიფ
মই
▁skúsenosti
ړه
că
▁ነበረ።
органи
▁rho
fay
▁كله
▁makkun
▁174
ויס
▁ellen
իտի
έρε
▁ketawa
onye
▁دەتوانم
σματα
▁pagrindinis
ದಾಗಿ
▁წავი
▁gwneud
ದ್ದ
▁4:8)
▁Verfahren
ɔŋ
▁felé
▁Υπάρχουν
▁облысында
harana
umuman
hats
osna
▁감사
遭遇
▁Woman
▁גענוג
ryf
▁Ingen
▁izina
▁rất
ilýär
▁yii
▁fixeron
▁குழ
▁жобасын
▁မြို့
▁Lon
▁banganga
▁kvalitat
etud
▁vertik
礎
anje
▁signora
ಾಮ
rakan
▁Kemm
▁lisusu
éhez
ێك
▁pfu
▁인터페
😂
▁življenja
▁닮
ཡོད་ཟེར་
▁sekirite
全然
ј
▁مفه
예
▁اظہار
است
▁нашей
拷
ಸ್ಕ
▁විශ්
兄
elē
فار
▁ପକ୍ଷ
▁Austra
▁Denna
▁جیهاندا
ਬ
▁videre
ll
▁tranh
▁сделали
▁cuairt
օրինակ
▁Moraš
▁तला
▁όνομα
เง
ಾಕ
▁olleet
сюда
mið
▁02
მოს
▁кало
ੱਲੇ
▁recognize
偶
▁दरवा
phant
▁محبت
▁juri
▁ରକ୍ଷା
eraga
▁propis
▁respons
▁sikkerhet
▁pianak
▁જેની
Imanas
kawża
냅
▁érvényes
▁existu
▁빼
▁asturianu
▁Vien
▁كىي
▁mann
passi
でない
▁безу
▁nzeo
▁liittyvät
▁mà
▁ũte
H
ראות
ॉप
▁presentare
偿
▁ova
▁iwe
▁앞으로도
▁öllu
▁колдону
▁atos
▁rati
ıyordum
▁yeelan
ట్టు
▁বলবে
πεί
הול
▁loatra
▁эшләү
▁verand
▁만들
▁تەك
linge
ennent
▁saseka
▁version
લ્સ
▁cilvēks
engt
жай
▁число
이야
▁chy
▁tục
▁지속적인
▁dipuku
ātiem
▁nandeha
▁liat
どのような
kla
▁हई
om
уи
▁ratou
▁tyd
▁magas
▁ndevi
▁fizikal
▁hm
▁باتیں
▁Hồi
の人口
yowa
皇帝
абыз
▁zhu
▁берун
ummaa
▁mensen
▁kas
ၢမ်း
▁conver
▁ahayd
▁anno
▁espl
▁Madison
allym
▁통합
▁minulla
ెన్
▁gesamten
▁pričom
一个
klärung
▁resulta
દેશ
гой
▁ಅಮೇ
▁справи
▁anaghị
▁Chair
▁еллар
▁可能
▁Filistin
▁kārtas
usanzwe
▁masumu
kanak
न्हा
atiounen
▁lójú
▁यसो
▁oks
ksan
▁ପ୍ରୟାସ
▁ak
レベル
ኅ
ługi
▁তথা
▁hại
▁Ε
ສັດ
▁dip
taasã
▁sʋ
▁bhita
▁engetelekeke
▁apapun
▁Ef
▁পারবে
▁ŵanyake
▁ፍረ
ዟ
▁pays
▁ندارید
床
تیک
իտ
leer
▁Everyone
一步
▁үндэс
▁απαν
ቆጣ
▁ארה
iriwe
логії
oon
▁Dieser
▁Zvapupu
▁उदा
▁legs
▁گواہی
yago
▁EZ
証言
▁chciał
▁그리하여
zot
▁Jezus
▁نيو
ፋል
▁Δημοκρα
aloobay
ian
▁Uite
▁fila
▁چاو
▁gef
▁електро
▁bilmirəm
▁тора
▁кана
あなたがたに
▁মন্তব্য
ĩĩsye
▁ήμουν
міз
▁liggja
vægt
▁نگاهی
▁μέχρι
ilna
▁saap
▁omaa
члэн
▁years
▁gyfrifol
ዳል
▁bont
▁чанд
▁Matthieu
▁뱀
▁kug
▁тәкъва
▁패션
ihana
崖
▁ɣɛ
▁ສຸກ
yasini
ëc
resti
▁Кеден
لمەيدۇ
තේ
ui
極
▁tervet
▁njegovega
▁obve
▁mēnešu
беген
วรร
부는
▁Wẽnnaamã
▁participation
íonn
циясы
കർ
▁Asta
▁यसको
กร
▁тиеш
ɔta
▁agĩ
是一种
▁ڏٺو
);
chas
cience
▁tipo
েত
ボジア
▁undir
影片
ματα
以後
▁imon
famili
▁עלינו
ህም
mọdụ
▁ኸይ
ʋlɩ
▁सुनत
▁tăi
▁іш
▁пъти
▁kweng
▁વાતચીત
▁Ilesia
гчид
▁oñe
▁mwali
▁2005
▁often
▁بوس
▁ujuzi
▁γα
ാറുണ്ട്
▁askan
▁yaron
▁दाऊ
▁אין
мола
▁바른
Ek
▁synner
▁엄마가
ቻል
▁baluk
▁கீழ
▁znal
▁Kepala
▁रिहिन
▁mũsyĩ
▁utiliz
▁konver
ũmĩrĩ
adhe
▁ziet
▁Luis
▁mengi
▁comprends
kura
▁amryw
▁Només
▁okwagala
हन
▁dɔwɔwɔ
ājus
▁wedding
▁जम्मो
해야합니다
▁bhr
ମୋ
▁esulilo
क्षित
hind
tethe
anɔ
▁ici
▁ruang
គ្រ
▁dede
▁تقل
▁omstæn
▁pet
▁aceasta
▁מב
▁climate
▁করলাম
▁Ngakhale
ཚེས་
▁bhfad
소는
▁Kar
▁Allohga
▁blogu
ilding
ুমি
▁koin
ndia
▁нивоу
爆弾
ුවෙන්
▁ቁ
▁३०
▁yote
ዕቲ
▁አሉ።
രീ
▁rochtain
र्थः
▁zinā
▁zosi
▁હેઠ
▁ઇતિહાસ
▁jadmane
ারে
▁leyinene
▁Naomi
▁Әй
▁Timor
▁भविष्य
ließlich
▁һымаҡ
ënd
▁칼
▁클
▁주님의
▁Janu
valuri
▁ml
▁маман
▁فرعون
▁Samy
▁bandua
πέλα
σατε
▁Litta
འགའ་
▁झग
▁ningkatkeun
▁bixi
▁akl
▁Pow
▁Ethan
μένο
▁ketat
▁كۈت
▁döy
▁қоспа
▁Cruise
▁қолданылатын
ැබ
ძულ
ၵ
▁dibar
կանում
▁33;
▁chayn
handiza
тау
ಿಸಿತು
▁bolella
ંતી
chh
ույն
ッフ
▁grave
▁suurepär
▁ilgsto
ldə
▁үзэх
સર
ובים
▁కలు
བསྒྲུབ་
▁կատարել
кая
▁deť
▁mfite
ियल
ဟုတ္
소가
▁खेती
▁Bamp
▁għaliha
ėlių
▁hague
▁YouTube
▁అమె
▁einsch
数の
hegofatšo
蛇
མིག་ཏོ་
বনি
জির
àmù
▁usizo
▁ascul
▁pike
▁עור
▁संपत्ति
▁tudomány
obno
hilomitara
ကလည်း၊
▁تەپ
▁languta
▁milyong
▁男
▁cio
સી
▁పూ
▁big
àm
▁markap
▁experiència
▁მთელი
ካም
▁còp
大規模
▁Որդ
▁situations
▁fundador
ĝoj
▁maybe
▁कहेस
▁naiya
▁użat
치
辞
▁los
▁espé
▁apata
▁దాదాపు
▁veic
සර
▁ශ්
ຢືນ
▁ਛੋਟੇ
▁해야
▁מ
karhi
▁szakmai
ठी
▁भर्
▁papali
inaca
▁3500
▁కేవలం
саў
ឭ
▁קול
▁ubani
FM
ારા
▁شع
▁phúc
naʋ
▁verl
дори
▁[3]
LI
ilego
olongan
▁fej
ಿ
仰せ
▁quajtur
iltä
▁bankaka
్యాప్
▁Tunde
ிக்கொ
▁afwile
▁ရည်
แก่พวกเขา
usooka
總
ໃ
▁انت
▁जम्म
▁altos
喇
emben
ast
▁dipake
▁lara
პირ
▁shkoll
砂漠
▁isaan
स्थापित
គុណ
▁Ania
নেক
▁Grà
▁килтер
▁ደህን
▁connect
quilla
▁táva
▁walima
▁punya
элц
艰
▁watapi
kusu
▁mobongisi
▁youth
▁22,
yen
▁দল
▁прилично
▁Lav
▁ọdị
-7,
▁हमले
▁때때로
▁ھېكم
▁लोकप्रिय
सर
rencies
▁ефекти
ordi
▁Entwicklung
▁Memb
▁etind
▁Ξέρεις
▁yaciye
▁своя
യ്യ
ساق
▁보지
▁составы
▁abri
jer
▁ازد
▁esalemaki
▁Lord
▁kyake
▁famílies
▁Engtin
▁tula
völ
verand
▁Swift
▁Rindza
▁okukozesa
ถ
▁sério
▁cemo
▁واتە
▁ટાઇ
▁kwangaphambili
▁ირ
▁বিস্
▁চূ
▁것
▁Grad
▁קוקט
▁сага
▁Cana
ciais
arua
▁арты
ɖʋ
▁Más
▁connaître
φοράς
โทษ
nion
▁ءبىز
hápe
▁Alleen
▁effektivt
▁uñja
ざる
▁1931
▁אדוני
▁qattiq
▁правя
▁цели
▁تەس
مي
▁proš
▁Ibulayimu
▁kiti
▁gadôh
▁Ministry
▁दशक
▁तिमीलाई
ସୀ
aliga
མ་ཟད།
រិយ
▁členských
៌មាន
ŋɔ
fù
▁világon
▁arabi
▁онҳое
やっと
▁kapin
▁რომელმაც
品
เขาม
쉴
▁למרות
ção
▁attīstību
▁compliance
▁högre
ãme
▁સ્થાપિત
▁Һа
▁vaho
▁ciudaes
▁niu
▁traviés
▁tlhahlo
▁것이라고
ալով
▁biuti
Ubur
▁lips
▁dagam
▁аҙа
▁kawis
▁بونلار
δρα
▁Piala
▁رەسىم
hrad
▁ҷам
ایای
▁Francisco
▁doprav
/15,
лька
발
▁жолау
▁sektoriaus
▁salên
▁Ам
ляли
▁ოქ
▁қамти
▁दुख
▁yenə
▁siksi
▁bermain
▁ғылыми
▁vakaukau
▁бәр
ීය
を始め
णं
▁robo
▁हन
▁llocs
▁weydi
നാണ്
тежа
ля
▁भयो
urid
▁Tirk
으니
▁diajar
ang
▁Nehem
知りませんでした
▁ကောင်း
yans
▁publikum
ାକୁ
alofeka
▁খুল
суд
inies
ටත්
ကိုယ်ကို
ປະຊາຊົນ
irithe
▁نوم
bled
ཨམ་སྲུ་
▁fahim
▁టై
▁ኣይን
▁mentah
▁üýt
ئى
ገልጽ
顶
▁정부
▁ადგი
కార
▁thung
isayo
▁lafiya
▁Ayu
ոդված
ρές
سىنىڭ
▁കമ്മ
▁Stro
timis
▁akụ
▁બની
52
▁طري
▁незакон
▁filluar
▁kũmenya
ቊ
ของเรา
▁sonde
hoyo
ంగు
▁خۆتان
▁akanak
▁kumpa
jeroning
▁יפה
されていました
▁lamp
▁yɛavi
齡
innen
▁Giovanni
▁Hod
▁våpen
▁verwo
▁gotee
▁машин
ith
▁җир
▁משת
èjì
▁czy
antaj
▁чла
▁notimo
▁لیا
▁тиң
▁masser
intambara
▁kakese
▁ለማየት
▁happy
▁alumnes
گىش
▁игри
各
▁mfano
▁kakšen
準備
шили
▁otsuse
ubhilu
▁pôc
▁мүлікті
Sí
ھيء
▁eksporto
▁beyi
▁integ
▁datos
เจอ
▁otišao
▁Bol
িলা
▁ປ່ຽນ
▁bygning
riel
ؤال
apezeka
gien
हांला
齊
খন
▁অনি
માણ
erimis
▁εάν
▁Треба
▁פּראָצ
▁ਫ਼ਿਲ
▁thöŋ
▁es
▁gwasanaeth
▁సమస్యలు
▁konsè
ଦର୍ଶ
arul
ctos
▁cɛn
▁nyore
usuku
xion
ಷ್ಯ
涂
んだ
▁kwazvo
▁hw
▁koš
ξουμε
vatel
▁입니다
pristi
▁ivyiyumviro
▁سڀ
▁انگلیسی
▁korpora
▁1972.
เถ
▁оцени
ớn
چىلىك
▁infor
▁ũũru
▁되기를
tirĩ
▁èske
▁イスラエル
▁Dep
embro
▁1990,
▁linked
▁znes
▁nyimbo
▁ಅಲ
gantung
▁სიმ
▁mvua
▁Zein
准
ti
ular
▁Dessutom
▁newe
သုတ်း
▁دوور
비
▁lidem
fuku
▁beraber
mɔne
ەتتىن
▁éle
▁లేదా
▁aatĩĩi
ួត
జె
▁gịn
▁szczególności
▁pinak
zachisa
▁چونکي
▁معی
▁Môj
▁Jelas
▁pamili
ējam
▁itzult
inkin
▁pièce
რების
ציג
▁nakup
essed
ļi
▁خور
▁ekug
ivisu
▁nene
చే
▁kvalite
▁Ṣù
▁ран
▁して
▁دير
цаа
▁аналити
▁astfel
▁Bretaña
▁matarĩ
▁prina
▁lâ
▁opp
ຂອງ
Sek
▁రాజ
▁jambo
▁novac
▁ಗಾಯ
ėjams
▁yasiyo
▁ús
抓
larga
▁आबादी
ದ್ಧ
ソーシャルメディア
廈
ೋಪ
▁Isiraeri
▁onon
▁Може
▁Vaulo
▁makkedaé
amsa
ୟରେ
chaba
ಿಸುವುದಿಲ್ಲ
▁진화
▁irit
▁ድዩ
ኩት
ċessi
ଉଛି
ମୟ
▁média
▁τύπος
нула
▁sz
यर
▁ዶ
kejja
ました
▁prefer
▁প্রে
▁পালন
▁přít
িত্ব
▁yal
▁wesent
ཨ་ནི་
▁Buru
teriormente
▁podvod
▁이용해
riwi
▁iip
共同
▁правилата
▁သိုၵ်း
▁hawaku
རྣ
oir
റെ
▁indhold
▁esigcwele
mine
Љ
음은
▁faly
▁Свя
▁orbit
▁valdyti
▁hanes
izao
▁batize
▁Ekigambo
මන
▁وحد
▁Laju
平台
▁мојата
fady
▁بولاتتى
▁хө
▁தான
▁dise
▁siirt
▁diploma
▁ασθεν
▁nent
▁අත්
▁निरंतर
▁[+]
elan
ukhul
omhair
ኛል
伯拉罕
▁эз
▁Text
▁Şu
▁දන්න
وزه
▁vijë
јем
▁ukun
llam
▁ebuna
aksin
▁ଲାଗିଛି
▁нефть
▁vides
▁copy
▁bł
▁neh
PR
▁Uistinu
▁daholo
ವೆ
▁ũtũũ
▁دل
fisha
▁Kerro
▁बनना
쎄
ႆၢ
▁Khona
▁лесно
額
▁ya
▁2:2,
▁خواهید
▁keduanya
adlo
མི་ལུ་
▁forvir
▁membr
▁быстро
▁ၸမ်ႉ၊
▁ምኽሪ
しさ
▁actual
ۋالى
▁পরের
▁турат
▁dotyczące
▁سلامت
▁Рі
▁counter
▁дол
当社の
▁극
ュニ
▁моро
▁aral
ɔfo
▁tension
ེ
▁боло
▁nood
▁Stáit
▁הבי
▁отиде
▁éh
ច្បាប់
ਜਲੀ
कुट
▁reci
▁тоҷик
▁чаро
になります
്വ
adhara
▁gover
몸
▁ekokaki
▁ଘରୋଇ
▁aksi
အဆ
viu
▁drug
program
līdzek
katan
▁diak
▁نمایش
wenziwa
likely
líì
▁Mo
▁szolgáltat
ží
▁toyebi
▁april
іне
▁kũatĩĩa
amihan
வே
ext
▁계
▁ნაბი
्वा
ЕР
▁දු
ván
▁buni
▁ಇಂದ
ใ
adaş
▁Taylor
▁tigang
raeg
▁tadi
▁veisa
▁ਅਦ
▁жөндө
ورد
tuża
▁berminat
▁imirt
▁ipot
▁Рад
▁лепо
▁ବିଶ୍ୱ
▁कहीं
▁принад
ユダ
▁արդյոք
▁દિશા
保護
दृश्य
ഹിത
▁ಮೊದಲು
子どもたち
onnement
▁حمله
▁įgūdžių
▁lua
▁ĝ
▁kũum
▁ؤ
inay
▁мисли
ulungan
ziņas
▁масо
gbɔ
▁טראַכטן
▁हजार
摂
▁dhintay
oreshwa
やる
▁مجوز
▁যিহ
▁عي
▁hrát
Ճ
なこと
▁まあ
▁pajj
▁گی
Para
▁vå
czyna
▁lojë
▁Goldman
âs
ðingar
▁wangi
▁tanto
▁father
▁Ih
エンジニア
▁offentlig
▁ဆိုင်
▁simptom
▁esperjenza
▁senisim
手は
Waa
▁ရှု
▁حصے
▁तुमन
▁hluta
▁necht
ḍu
མཐུད་
っち
▁сез
▁잊지
▁сонсо
ieux
Air
ვლა
enton
estjar
▁yɛs
eteli
מצ
నల్
lte
▁Message
...:)
ويا
▁edýärler
▁म
▁bağış
▁че
▁świecie
▁bǎ
▁blynedd
▁kawin
視
itau
▁gelombang
▁ያላ
▁노동
Çá
▁kinu
འབད་བའི་
▁seili
▁walis
▁왕의
尿
▁sipi
▁ufu
▁jumătate
▁බල
PU
▁کۆم
▁சிலர்
▁nedaudz
▁کاتێك
ovola
▁udział
зано
.),
▁ajung
isiera
▁viaggi
雕
rasyon
▁ɔne
bá
▁Malemba
양
▁జె
jmo
▁adlaw
зеге
▁그에게
▁Башҡорт
▁वाला
▁destru
▁labab
▁memor
▁jasa
никот
jumu
▁konformi
biasaan
▁berakhir
▁asɛmpa
LL
▁leva
րտ
▁bevoegde
▁kanefa
ೇತ
▁जउ
mur
▁akarom
lashish
▁होखी
▁rĩm
▁nətic
туге
मुक्त
▁nuvɔ
▁xodimlari
jifunza
ళి
▁comunitaria
nyɛ
▁හැ
▁estoy
▁proportion
ཡིན།
▁لذا
▁مۇمكىن
▁ਰੱਬ
дир
▁bayi
▁pêk
ския
usaale
▁нами
▁другу
▁بکشد
▁babâ
▁tswe
铜
▁kolmanda
oku
▁egentlig
▁Hi
▁Babuloni
러
▁ɛnna
үгүл
▁paye
छि
を知っている
▁makasi
onare
'-
གདོན་
ở
ěr
▁باپ
ymus
▁Yai
▁bringe
qanrayku
▁projektov
▁problēmu
Dij
lıyor
гот
ესო
▁voltam
imusi
천히
▁붉
▁magazini
лууд
▁naon
▁анха
afọ
▁тікелей
ρείται
총
▁lẹhin
▁پناہ
▁nurodytos
▁indispensable
▁rw
▁32:2
ുന്നതിന്
▁cla
▁Favor
▁முக
▁게임의
▁hävit
きち
otin
▁شەكىل
allem
▁FIL
peele
▁мөн
▁атмосфер
▁zréck
èron
open
▁zathu
ளம்
ॉट
▁mogła
ጥፍ
prac
aynaa
▁לגמרי
▁tusia
▁Pharlaimint
▁واقعی
▁संबंधित
▁geweld
▁chie
▁dier
▁Those
▁anka
▁আনি
▁ଗୁରୁତ୍ୱପୂର୍ଣ୍ଣ
გულ
abar
行う
▁Sampun
▁1925
▁ET
නට
▁སྤུན་ཟླ་
▁தங்கள்
zela
▁Tādēļ
▁ffordd
▁gbig
흩
▁Edwards
ïïm
ළො
▁pouaka
嘅事
撲
▁почали
▁Spider
▁greg
▁omena
▁ryhm
▁អ្នក
▁tombony
вё
မည်။
▁पावर
чес
દાન
▁ਸ਼ੁਰੂਆਤ
▁mangkono
▁kancane
▁duri
▁mendapati
▁zauna
okoliv
▁Mhux
▁Жого
しているか
▁nawedding
▁állás
▁pule
จ่าย
▁ngā
▁responsable
▁язу
▁cunta
▁diragatsa
▁подоба
tax
གསོད་
▁со
ئنجي
▁koska
▁slíkt
▁temperatures
▁Mesmo
▁abalʋ
▁feta
▁있기를
▁tatizo
vimento
вий
▁Makan
▁mantha
▁situacija
遠
木
ায়ক
▁כר
▁Namun
▁আজি
▁ئیسلام
yɔ

▁cerem
▁demokrasi
ڙا
▁మనం
▁बाबूजी
▁koow
▁інф
▁जव
▁tūt
▁transmet
tah
▁रहे
▁Қоғам
生成
biri
▁licen
▁సంద
]],
▁gatandatu
verfahren
▁སོ་སོ་ཅིག་མེ
▁Hav
▁असून
▁Keb
▁sarnak
▁folkes
ከት
གནས།
났
aray
ុម
iders
medlem
δό
▁faigh
▁অনুসরণ
istään
▁gost
èni
▁ၽြႃး
▁fogja
lés
▁perí
▁tenang
▁میل
▁хриш
▁peunoh
時間で
▁ياردەم
ของ
▁տարին
▁nianang
परमे
▁(...)
▁اغلب
▁Vaisrayele
▁employees
▁Kyokka
▁ਛੱਡ
▁Herod
ertamente
▁svěd
iep
arisito
བུ་བརྒྱུད་
པ་ཞིག་
▁ቀዳማይ
▁zoveel
▁mos
Mur
▁язылган
▁Palace
▁ಸ್ನೇ
▁bisa
▁گتم
翁
ທຸກ
hefa
▁themselves
ayansi
▁مشخصات
▁thế
▁bờ
▁ሊያ
tɔɔ
даць
விய
▁vakarautaka
▁kukonza
essa
▁formas
ober
ዬን
▁Guma
ဏ
▁Tendo
▁mobil
▁Aínda
רי
▁Superman
labora
▁ଚାଲିଛି
▁rů
▁იხილ
rar
མདུན་དུ་
目を
▁prasības
과를
▁Munich
▁třeba
veau
▁rän
▁кай
▁พร
▁ప్రయాణ
▁عملية
бите
섭
▁вивчення
▁саат
▁Кай
▁iyoyo
▁communauta
▁చేయవచ్చు
▁specializ
ਜ਼ਨ
وندي
▁тебя
чині
▁karanasan
ለል
▁machst
▁ਖੁ
vät
דרך
▁болсо
▁refuse
▁embeera
▁حیات
ори
ვით
▁рӯй
▁gihatag
▁хатыны
加入
jasta
▁vaatte
uhia
▁ગા
ôt
▁wɔnyɛ
ረጋገጥ
ուլ
тайт
вного
▁برده
ontes
▁організа
▁comprende
nìomha
▁posteriores
▁mafy
▁פרוי
חילת
pụta
▁कहना
ፍል
кач
▁маҳ
がなければ
▁ಪೂರ್ವ
leiding
گر
jedno
▁recher
▁әлі
▁activitats
▁кем
▁गैस
▁анга
▁ਵੇਖਿਆ
▁tɔɔrɔ
▁fiatal
▁údar
▁Sicilia
වෙන්න
zada
▁asua
▁auma
▁геро
▁१९
▁favor
жыл
▁memori
興
▁המכ
ũvĩ
▁ဆိုး
▁otom
▁Έχει
akụ
댑
Sama
цийн
iapa
талі
▁ọnụ
▁સમી
▁serais
ပျ
▁1973.
etében
erius
▁praneš
χους
cy
▁chwazi
▁Linɔ
Matteus
▁mbote
▁semoyeng
▁હાલ
liz
espère
ርእዮ
▁등록
umpulkan
▁gyvū
唔同
委员会的
▁Domstolen
▁2:9
들에
েরে
بێ
▁ря
bod
▁ମାନବ
▁Հայ
zia
▁පැහැ
▁kostnader
▁Zed
תיות
▁ಮೊದಲ
▁جاري
▁દર્
▁링
▁ਚੁੱਕੇ
ሞች
coj
▁kàddug
▁12:3
▁babatda
▁ఉండ
▁Lefatshe
▁nom
dɛ
▁dereito
▁doim
▁Atau
لص
сећа
鈍
shore
▁dispens
puta
▁бұйрығымен
のですが
▁타고
▁өнөөдөр
▁lelit
▁Organ
ټه
矢
▁кандайча
▁ഉണ്ട
肝
▁એની
▁առողջ
▁प्रोत्साहन
▁Por
té
▁тобы
न्धान
чим
▁هێشتا
βαση
▁एखा
▁успех
▁प्रोग्राम
▁skol
▁damn
፬
▁Abat
ത്തും
ૈ
▁በታ
▁paýhasly
▁zoek
겪
▁पेरिस
▁HPV
▁Žmonės
ovihandeleko
ateľov
▁grate
▁otrā
yscy
キリスト
ეცი
तल
дөл
▁เราได้
atè
ട്ടുണ്ട്
▁lluita
▁ndeto
▁eri
▁미치는
စီး
امات
▁liwek
▁belang
▁exile
▁mũrũ
▁tum
шени
エジプト
eram
▁ຊື່
esig
awit
▁mekaa
▁пов
▁हमें
▁ویند
▁듯
ćen
šwego
▁nemaju
גו
▁чада
▁देवता
▁eċċessi
▁उहे
▁zeer
陷
▁ಕಥ
ısın
▁lleng
المايدۇ
likte
▁ئۆل
ath
▁lisu
▁მაქვს
▁haig
▁blame
ების
▁70%
▁मद
ehold
某
צ
▁изрази
▁charu
ɔm
qanki
ექტი
▁súnnu
▁واز
prinċipju
▁두렵
▁አመለ
▁trận
▁Darba
elek
▁مرا
▁phat
▁اولدوغونو
▁ken
▁Эл
▁dvak
ザ
▁ਯਕੀ
sto
ୂର୍ଣ୍ଣ
▁дитя
▁どのような
▁Said
འཐུང་
▁వల్ల
▁ukulele
▁СП
wski
▁חזק
biq
▁at
ności
▁stie
▁síni
ଲି
ekwa
▁umie
▁Cum
تري
▁mír
▁Regulation
▁voglio
Nuk
▁moabut
▁muvo
ཡཱ་
лену
审
▁সাধাৰণতে
সূ
▁tipu
▁satisfè
▁cámara
▁zakono
▁मोड
મને
▁себя
ର୍ଟ
▁നിൽ
nila
▁sabat
▁piepr
▁믿고
▁អង្គ
▁राज्यों
▁الأقل
▁iwang
▁zeggen
baran
航空機
▁կյանքում
▁ayı
▁mee
▁Jeb
▁생각하고
▁bude
▁obdobje
ื่
▁galā
▁gitar
nɖɛ
▁)
wienia
▁ey
▁amta
▁1992.
הר
tenti
▁Нам
▁olsay
▁här
▁очекува
▁башлай
เศษ
▁Iswid
▁міг
amber
▁Ğ
なっている
▁Kae
▁ababe
ദേശ
▁ihmis
▁pretend
▁فصل
ینت
ਸ਼ੀਲ
▁Түб
zionale
irways
្រី
▁ໂດຍ
▁kļūt
▁তাইৰ
▁βαθ
▁күч
▁deyə
▁bee
▁વજન
▁त्यसले
itti
▁svojih
▁תוכ
▁Rot
ministrat
▁amaç
බ්
▁مطبوع
τσια
ເທດ
▁বঁ
▁αισ
▁Proses
되는
▁sekolah
▁семь
▁कशी
▁krzy
▁অপ
▁medlemsstaterne
▁bête
▁mumu
ႆ
▁כיצד
▁ገብ
θέσεις
engeni
▁পব
▁zonga
SD
▁hinaspa
▁ilkinji
▁Мені
eriz
interess
角色
▁נוצן
▁муж
unut
ნება
▁زی
▁ọg
▁mám
ブラ
頃に
ットは
/24
लोकन
ôh
▁나서
▁kukaNkulunkulu
unua
é
▁기사
▁capitán
▁هذه
▁asiaan
ଦର
amos
▁Nihče
▁валю
▁هٿ
▁iepirk
▁maakt
▁αύξη
▁Dywed
bika
▁hoćeš
▁versions
方案
▁здається
么
▁Hunyo
딧
▁láàárín
astri
inkan
▁menghil
izvo
▁जग
▁leida
æd
ത്തിന
擦
▁kolokota
ليس
▁andam
▁berbagai
▁शूटिंग
ចឹង
ovic
▁ziemlich
▁Иль
すぐ
ⴽⴰⵏ
▁Minun
ოლ
▁நல
താ
▁duu
できると
▁begra
adele
ishni
▁Finanz
▁Най
vitha
▁porozmawiać
▁amintsika
▁buv
▁оешма
▁preto
ቦት
你
heti
▁fandra
poor
▁kabelo
▁pitahãla
▁yãka
чө
チェック
▁ಇದರಿಂದ
egg
▁Yerusalema
▁أني
▁1/2
▁উদাহ
▁ਪ੍ਰਭੂ
▁הפע
ందే
▁ደጋ
ഷ്ട
▁физи
▁चेतावनी
▁godkendt
lizm
▁dejjem
▁ଜଣା
▁mpila
taka
▁Erk
▁ამიტომ
▁uden
For
▁bolok
▁շարժ
▁მსოფლიო
▁përmba
▁जीत
▁tvoju
▁nepie
òmet
▁មុខ
▁tersen
プレー
▁injur
▁دیکھ
шту
▁మరణ
▁Nuhun
ندىكى
сны
fiq
▁ପ୍ରତିଶତ
árt
▁দুটো
▁מלא
▁အစိုးရ
▁pera
人の
▁остави
▁شاگرد
▁любов
vå
密接
▁gullukçy
adee
▁ነ
▁взе
▁kigonsa
faina
▁লোকে
▁panzvimbo
▁chèf
▁Agian
▁پێناوی
▁Läh
▁Survey
▁пәйгамбәр
▁ندی
▁żgurata
▁ناوەڕ
▁Mỗi
▁goreng
▁સર્
▁साँच्च
▁trè
▁рано
忙しい
▁मूल्यांकन
ંદ
frunti
▁hoja
▁поне
▁సంగ
▁thiëëc
▁좋아합니다
▁mub
ེག་
ሣ
▁izmaksas
ಹಾಸ
▁ọh
▁cüm
▁tfal
▁mnoge
▁सम्भावना
intul
▁virksomh
▁טא
ghachi
alahan
τικά
▁огро
▁Adunay
다운
ŵ
lembe
われわれ
▁kumbuyo
▁discapac
▁askin
▁જાઓ
▁weißt
▁گۇۋاھ
▁minētās
mas
▁폭력
▁jom
▁kash
▁awatay
▁dhagge
▁कभी
Donald
ക്കള
▁nere
▁하지만
addamu
▁tiya
યન
▁ziur
layıcı
▁rs
▁involved
ših
▁kobela
лса
▁ເຈົ້າ
ñatakiw
писа
▁সন্দেহ
▁optimal
▁Onlara
▁Nebuk
▁ଗୁ
▁twam
:28
▁dadurch
▁ត្រូវ
▁sjell
▁འཇ
▁mêsu
▁خریداری
▁marary
கிறார்
▁રાષ્ટ
▁평생
oger
gangng
▁muganga
ედ
▁داریم
apakah
▁atlikti
▁למות
켈
ֿ
▁Baga
లం
▁güçlü
▁માનવ
limi
▁hodně
▁брен
▁מײַן
▁expla
թեր
ታት፡
▁일종의
▁suosit
話
を追加
တွေရဲ့
-1.
ukli
▁Бер
▁siga
haraha
skimi
▁வள
▁Zaman
▁organizácie
▁straipsniu
▁அளி
▁myi
▁झो
িক্ষণ
▁복잡
まったく
erad
▁giống
▁አም
▁каты
랐습니다
▁straně
oloha
كة
гува
▁Baar
▁ринок
▁301
▁Baeb
▁چيخ
ındı
▁Госпа
▁사라
ดู
▁wẽ
▁rieko
ĩkie
שרה
โม
▁ರ
▁эш
▁phiên
近
▁hala
кани
ავლ
▁seli
▁Ville
▁urqu
ules
▁uş
abe
▁varför
▁else
hethekile
▁исемендәге
▁líta
▁གྲ
▁znaleźć
▁كثير
koodii
▁offici
itsi
▁ɲiningali
▁አብዛ
čija
▁19;
▁yaani
ຶງ
▁གསོན་
▁लौट
рои
▁قبول
ก็ตาม
ביב
▁آژانس
▁குறித்து
fumo
anih
lıklar
▁ତୁରନ୍ତ
δικ
▁годината
▁poč
གཟ
氣
unyelwe
▁giorno
▁zonsezi
yxat
мур
▁മക്കള
ቋም
▁aukščiausi
▁brukim
ଚନା
šnje
▁nyumb
▁دەر
λέον
▁ankor
▁bulun
▁Marketing
▁marx
隅
▁Natan
rir
요
▁ovoga
▁augstā
miselt
▁hakika
▁Transport
SL
▁учраас
▁कबहूँ
▁elisha
vlo
agana
▁waarvoor
▁буйлап
oriya
▁সেবা
▁देतो
вил
scar
ཕྱི་
▁людини
▁ئالدىدا
ugqi
hara
▁نمای
ኻን
▁duniɲa
▁gɛn
kategori
тину
▁lewat
▁besojnë
▁atumwi
▁diraga
ăţi
▁virkelig
▁значење
▁kake
▁проле
ાયે
▁servants
▁segondè
ály
▁Koska
גא
▁Gaya
▁exemplu
▁belum
▁ଉଲ୍ଲେଖ
▁Champ
立た
लो
▁loss
▁аш
▁እንደማይ
▁నెట్వర్
▁matumaa
ତାର
voir
чү
▁kavu
ဘဲ
íva
նտր
▁pelanggan
▁ява
▁ponieważ
▁регла
▁endla
▁ਅਭ
략
zulwini
▁tänu
culpa
▁পৰীক্ষা
▁strategi
▁გავლ
▁ukhajja
▁Polic
▁jenom
▁घेऊ
▁பல
▁spu
▁fumaneha
▁Ñe
дарга
▁Saa
▁avaliku
adiwa
ኣቱ
किर
უხედავად
▁avalia
лышы
ிலிருந்து
▁tim
▁İsrail
▁kgatlhanong
າມາດ
▁което
▁карданд
▁sufer
▁ಮದುವೆ
ିଆ
▁vuoteen
▁ਉੱਚ
लाई
▁Evelyn
▁beschä
▁Listra
▁cảm
гаад
▁desc
▁manusane
▁Rolling
▁আলোচনা
▁attivitajiet
▁omul
▁Haiti
▁įgy
གྲ
unai
වත්
▁kterým
ັດຖະມົນຕີ
▁Soň
▁Tingim
▁געשט
▁nasod
▁Christus
▁ທີ
餓
性的
▁сар
▁borgar
▁მოცემ
membri
▁pă
-15
лөр
に過ぎ
Γ
▁Fé
▁ਦੌਰ
လော့။
ဢိၵ်ႇတင်း
лоти
▁fogo
▁넘
▁paran
▁नदी
▁ཆ་
▁टे
▁levens
▁Lý
ekuru
तिमी
▁വിശ്വസ
ឆ្នោត
▁sắm
▁filosofi
▁Генера
▁हवे
▁घेत
▁كەس
рони
▁خانواده
Ду
▁အဲ့
▁எங்கே
▁Timo
▁pagaidu
▁ahobrɛ
ゲイ
टका
劫
▁କରନ୍ତି
▁တွင်
▁ríomh
▁Xer
▁ŋudzedze
▁رچ
▁보살
を殺
▁azã
になって
▁сая
▁особи
▁eketse
áronse
pelaki
▁ķ
損失
你不要
間違いなく
▁galuega
ោធ
မိုဝ်း
▁മുൻ
▁ئادەمنىڭ
▁करण्यात
▁gohlom
wały
▁Jib
vý
而且
▁lart
fadh
イト
▁în
▁octubre
шој
▁mfɛfo
antar
oiga
▁para
ಪ್ತ
ຕິດ
ဆု
▁gestellt
▁bagiye
▁perro
Ftehim
кість
ligu
▁habían
▁kuha
▁tämä
ພວກ
▁jiselevende
▁에이
▁gita
チケット
andai
▁variables
▁Gos
▁ants
▁Mes
▁යන්න
▁colleg
▁167
obor
zian
vata
▁ymw
迎
▁babaeng
јќи
▁काबर
▁bevord
▁justícia
relazzjoni
▁engel
▁сор
▁ගන්නවා
eteve
▁νω
itua
edie
▁konfyans
aniem
▁piisa
▁снова
▁Josi
▁nimetatakse
▁ହୃଦୟ
šhaba
bhreith
äqui
▁Wade
▁일은
イラン
▁bijusi
▁segí
▁친절
▁täiesti
▁жогору
▁nemus
veta
▁xizmati
15/
こな
▁francés
▁vlo
▁Caithfidh
▁nosaltres
monina
୍ସ
kn
ülete
▁wanawake
ilini
▁mieszka
বোৰ
шээ
▁magang
ធ្លាប់
jdź
བསྟོད་
▁kurioje
atiif
▁vakayag
▁고객은
ugin
▁souč
loh
▁Nk
▁pupuri
▁ដំណើរ
いえ
▁girlfriend
▁rinkoje
▁ਅੰਕ
urog
▁Paraguay
үрт
▁habe
▁tagi
▁jew
زب
rios
▁ಯುವ
▁mpitondra
▁horree
▁Tango
▁실제로
စ္စာ
쁩
▁일러가로되
нән
гери
组织
ekke
▁sehen
untos
amour
▁bun
▁lagun
▁rozum
lls
▁regarde
▁prostora
דז
▁Chương
▁humelelaka
չի
助
жалявам
谢
▁चक्र
▁높아
ကား၊
ρισ
▁xomɛ
▁noun
ھەم
▁identific
oskop
語言
▁pārstāvji
enwe
▁постави
▁geležinke
▁Jei
▁lengkep
ળતા
▁Ғә
▁transf
igheid
勝
▁гро
▁berkit
▁ایجاد
ércio
▁그것으로
អោយ
▁Mmušo
▁Kra
▁شاری
▁intr
ገም
viawo
éz
▁Hut
شایی
떤
▁Kune
▁plut
▁palelwa
▁siker
qullu
▁zoals
atz
▁გამოს
▁ску
▁ader
▁regeling
▁ትሕቲ
atax
▁colos
▁chhiar
▁bezpośred
▁ನಿಮ್ಮನ್ನು
riżultat
▁پزش
amila
Gu
▁cɛma
▁rozumiem
มากกว่า
▁ịmalite
▁nereden
▁αρχές
▁bahaso
limu
▁talaba
▁अटक
▁মত
▁petró
益
▁ڀيرو
ሕት
ējo
▁uut
Би
▁Noku
omasi
▁توتوب
Bur
▁крају
asure
▁ዚብል
▁demasi
▁teu
▁بعدا
▁vykdom
liš
▁ست
୍ୟାସ
▁eraman
▁miaraka
ίο
akyi
▁laugh
▁circunstan
▁nyarengin
▁makaka
▁געשריבן
▁Sang
▁ဢၼ်ပဵၼ်
धे
▁Israyil
▁natrag
▁6.000
▁Vesel
ðugt
▁మీకు
审判
▁ysg
▁өлкө
▁biji
Cristo
▁gabata
▁ladd
ດິນ
▁ମହି
dire
ਡੀਓ
なことに
elompok
ཡོད་མི་
▁گێڕ
▁ժողովրդի
拯
בן
▁namhlanje
▁ಈಗ
aloha
ত্য
ೂರ್
▁მის
▁istoriją
▁banke
▁nsansa
frytë
ገኙ
▁ناکرێت
lijent
лица
▁arar
▁Sɩd
bonolo
▁gotin
▁신념
zunk
masi
▁ചോ
▁학생들이
ដូចម្តេច
▁ବାତ
▁어렵다
▁bará
▁mmɔ
▁Therefore
▁būti
དྲིས་ལན་
▁Stelle
▁世
▁reģi
▁geliyor
▁výh
▁जायेगा
▁ਚ
्छे
है
▁porodi
▁वज
рес
▁Kot
intaj
ວບ
▁zvichi
▁samozrejme
▁pasakyti
▁jas
▁kaks
alta
▁фикр
ంటాను
▁eusi
ustega
▁လုပ္
▁vid
▁ñépp
▁ვინმ
巧
uwan
▁fifandraisana
زین
holic
▁matuā
▁WTO
▁çokund
news
▁ntši
opu
DK
하는지
жам
▁персона
aneš
딴
ענדי
▁kunzwisisa
▁ግምት
▁probleeme
ឃ
▁jalqabe
ቸዋል
▁ඇවි
▁bien
▁रा
dziej
▁فضا
えている
▁개인적
▁ເນີນ
Fi
▁хӯ
▁zbi
▁дре
▁effektive
zjonijiet
▁مەيدان
ኖር
áideo
htar
▁ಬುದ್ಧ
▁nokkur
▁жашоого
ças
isième
▁Faar
▁keluar
સ્ત્ર
▁Một
▁மேல
▁पत्ता
・・・"
▁নব
ახლ
▁ਵਾਰ
▁ਮਜ਼ਬੂਤ
መስ
insinsi
lanması
▁dozv
▁вихід
ume
▁madje
▁शिकार
fub
▁alyp
▁llev
▁Yecu
▁беренсе
зын
נג
▁експерти
བརྗེད་
བཏབ་
▁ತೊಡಗ
rance
ناو
▁ƙirƙ
▁les
畀
▁bantfu
▁тек
▁جنہیں
▁inkosi
▁Конферен
baka
▁ж
▁bír
མཇལ་
▁läinud
▁snabbt
ariamente
trano
▁vantshwa
▁కొనుగోలు
▁نین
▁obisk
▁intelligence
سے
▁magawo
றை
μος
ಕ್ಷಣ
▁Bluetooth
▁ලබන
▁여기에서
▁bin
▁Muxe
▁ایف
▁muts
▁Стандарт
▁tavoitte
▁청구
▁Առ
▁Slut
▁between
▁ишени
диктен
fung
▁මේවා
▁коммуна
በ
яння
Ma
▁sandwich
▁trabajadores
▁erantzun
▁сөздөр
▁OS
kün
eshin
ighde
▁požiū
▁iero
▁све
▁kannalta
кільки
▁Ioane
确定
▁ਗੇ
▁lõka
furt
▁يىغ
▁85%
ankt
ၶ
▁rapat
ħaj
要請
сіп
gtha
▁format
▁ауру
▁རྫ
▁βα
ogel
▁изто
▁naturals
▁qha
ұдан
▁eL
▁موتور
▁cinci
▁Bibbia
▁И
গুণ
undas
▁ንደ
μούς
▁elismer
▁बम
ኮች
▁robot
ᱟᱭ
▁δύο
▁puer
▁esde
▁amaningi
▁openbaar
▁Egipt
тама
▁unong
èp
ووک
▁ييخ
▁शुल्क
▁vísir
▁grem
▁ishlarni
▁մոտ
קער
▁UP
によると
yage
asã
▁ezinda
▁ቢያንስ
▁izmaks
▁zviri
▁meddai
▁ႁိုဝ်
▁ns
▁patys
▁আহিল
▁suv
liwe
ehua
▁співробітни
▁діє
▁იმედი
গি
▁bukak
▁dergelijke
징
▁ខ្លាំង
▁cyntaf
▁イ
▁ناح
▁patirt
▁አሎ
ٙ
endaa
▁কাম
▁soldados
▁paz
▁xol
▁ett
▁Sono
▁expos
▁loď
▁lokuk
▁beloof
莉
▁정부가
▁ойошторо
ometer
angwa
gulu
▁hoef
ssel
▁Ngokuba
▁થ
මය
▁רצי
тия
▁mulut
▁Tòa
ningarna
▁taktik
▁klari
▁dopo
▁teknis
▁juž
ጽበ
▁CH
vatonyeka
▁дору
▁nonno
▁קיין
▁активности
▁زنج
pii
▁komõ
ženi
▁Тепер
▁అద
▁Մարդ
▁Está
achtar
▁malé
▁Jad
▁Nnwuma
ľú
▁জাপ
▁Sehlopha
เจ
▁beret
šir
▁mafuta
▁kanskje
▁پێغه
▁ئاوا
▁яһа
▁Daudz
▁keer
▁Soki
▁edilmiş
▁மிக
文字通り
▁승인
ۇز
genomen
ว่าเขา
▁lẻ
▁எழு
▁teatr
သည်ဟု
▁telefonen
▁('
▁இயேசு
▁pareng
▁그것도
▁subst
▁واح
標準
▁profession
cani
يندڙ
▁Ấn
▁kithangana
ਹਾਰ
▁bobedi
angani
▁jechuudha
uyên
edom
▁dta
▁సంత
▁уйлай
▁ተመ
▁statistika
▁lugares
▁meist
▁seka
ადა
ðist
ishloq
▁grupe
iter
etai
ുകൊണ്ട്
vinaka
▁дэх
▁पीएम
▁verði
▁leholimo
▁ངས་
▁kufik
▁目
▁aktualiz
ویز
عور
▁Verbre
▁ũthũkũminĩ
▁അറ
▁koja
bao
▁לאנשים
medel
▁yathu
eteko
▁карап
惹
▁Uqham
▁Title
自信
tau
▁лишь
▁bygge
▁전략
ደረገው
embang
▁dithuto
▁Франција
▁woawɔ
ayagala
uries
ത്തിനായി
▁fediša
▁drejta
ဟန်
useumah
▁തീര്
▁घरे
▁фі
▁seni
talilaho
pengba
কলি
ିନି
▁राज्य
जण
jeb
▁dök
tajiem
▁प्रसिद्ध
▁moram
ettqu
▁kawas
ولة
▁မာ
▁বর্
скерт
▁délai
▁Үнэ
ကြောက်
▁arch
▁iki
ondunge
▁indo
製造
▁tariff
▁escapar
ೊಳ್ಳ
▁muude
ರಬೇಕು
viwo
▁įsipare
▁metropo
ෆ
ptember
▁savons
▁對
гер
ماری
▁entspre
▁kasvu
şir
▁Господи
ој
வேளை
kiisa
▁ክልተ
▁স্পষ্ট
ভে
▁ვ
▁meðan
ahim
制度
▁включаючи
▁cymryd
▁ചിന്തി
динг
▁disc
▁auxí
▁naturen
▁provision
laisia
▁ឃ
Kamu
มิ
anĩo
▁bãng
▁általános
▁jiyana
▁автомобиль
8-2
▁nanye
▁gitawag
▁fiori
▁Hur
viena
▁amase
coa
лерін
wire
▁kojem
▁குழந்தைகள்
때
▁rhoqo
▁Pháp
▁wanyi
捜
▁njila
አ።
▁ደጊ
▁begren
poved
utupi
▁ալ
୍ପ
▁timer
▁Kil
▁കുറിച്ച്
▁следова
▁ይሆናል።
▁kwiindawo
ཆེས་
▁laz
leiðis
mr
▁झालं
འཁྱེར་
▁nueche
▁құбы
ⴰⵍ
▁Austin
isierung
▁Neg
ितम्
▁vè
▁faali
▁ξε
монро
▁наяв
ləndir
atsira
ਮਰ
өг
穌
▁guida
真係
atoo
▁gereg
▁kelebihan
tá
▁berek
▁baraso
▁dlouho
▁sungguh
▁וס
务
حاق
▁kaf
▁көй
▁dalībvalstu
▁විදියට
AG
tinės
▁aanbid
υνα
diwa
弄
▁forex
▁geski
order
▁ନାମ
▁projekta
ཀུ་
feydd
▁Aver
indele
кад
▁ອີ
▁luq
▁toneladas
▁jic
▁Republica
▁২০১
▁အသစ်
▁bẹrẹ
▁사악한
כון
▁Dim
▁മക
▁tegi
▁zaituzte
▁mał
▁질문을
▁jednoduch
דיים
thakäi
▁osall
mich
vist
▁Kuva
▁isten
▁trenee
▁hpang
▁अन्
▁કાયદા
▁গ্র
▁因為
▁üst
▁waah
▁киңәш
irka
ម្លៃ
▁Warren
▁тада
▁ઇમે
▁ಪ್ರಯ
▁uwi
yną
▁lapho
▁فض
▁jazyk
ĩw
▁taui
▁сара
▁vumunhu
▁কিয়
रां
▁قوانین
▁gedacht
▁nekutsi
лам
▁Israe
▁новим
atɔwo
▁tanke
▁tufa
▁방금
ものに
テク
▁küll
▁disiplin
▁cn
▁якщо
▁ችሎታ
Fo
▁créé
uly
แล
とみな
▁त्
▁ಫಲ
▁stole
▁뭔
opr
▁சக்தி
▁كور
▁Aquí
▁faamaoni
▁hvorvidt
▁ашы
чара
▁តើអ្នក
чам
цаж
▁nek
▁níor
▁kompaniya
▁çıx
atson
োধ
▁yhä
▁maeto
▁Сек
amuun
kila
ቐት
▁टीम
-194
▁cilo
▁আগ
▁tzitade
ueu
▁lòng
▁చాలా
▁dvad
▁imet
განიზ
▁כעת
▁पहोंचा
▁muy
▁Qing
▁buscar
▁Yʋʋm
▁बचन
▁tylko
▁ખુ
כים
atfu
▁nagtat
▁Ukhama
▁رہ
aky
▁protexer
▁kantor
▁daher
lelor
▁представля
edd
▁nihče
qalpog
werp
ڑی
▁lauk
ልቅ
▁जुन
ဆက်
理由で
▁ગુમા
▁cyfe
▁Gusto
000,
▁utos
▁виду
▁hér
▁دەرەوەی
▁priamo
ჩი
▁tregon
▁baab
▁;
▁venue
▁né
▁dels
▁đây
凌
▁záznam
▁사랑하는
▁ndoco
▁ગણ
▁ne
ambala
Bhayibhileni
креп
▁Lloyd
▁nátt
▁ներառ
qanaba
▁بست
▁uzlabot
▁ymuno
xam
შიც
dit
kore
▁امسال
orë
▁Domain
▁Pierɛ
▁Itu
▁tʋʋmã
▁xunetu
▁килер
▁bys
ikie
チャ
amasino
▁Informations
▁Hlaya
▁meðal
▁tauri
ంపు
্ৰমণ
系統
▁kundërsh
▁परिभाषा
▁مغ
▁stii
▁donos
ίνουν
▁وٺڻ
žius
utinoa
▁qator
▁istem
▁Thema
▁enosta
▁selv
▁krajine
お金
▁kelet
arji
▁håller
▁kanki
▁백성들이
▁아파
▁dah
сија
أخذ
klere
▁segur
▁پاي
▁ادن
བཀའ་དྲིན་
▁مہربانی
▁Všet
▁প্রশ্ন
risti
anymy
డని
▁Mario
▁듣지
inamos
ើម
▁Toute
Φ
▁diez
ckú
တောင်း
▁woatsɔ
ندگان
▁全ての
高速
လိမ့်မယ်။
umishi
▁구속
▁հաշ
жем
▁altu
үгү
▁دچار
▁prò
lagen
otini
▁δωμά
▁drikke
ག་འཐུ་
▁निय
სულ
▁Fo
▁ұйымның
▁Kard
▁hukkung
ETA
▁dh
▁일어
▁고양이
▁ປະເທດ
enzeka
igner
ટ
፳
されません
하면
▁għalihom
▁tshil
layman
▁lendaka
ǝna
渐
▁pārtra
▁મારે
▁Agen
రో
▁gaw
▁뒤에
▁prekių
ृति
▁kasqanta
রাধ
imakon
γες
▁gañ
▁pieprasījuma
nyo
▁bjer
▁postupu
▁tashkilo
▁ida
▁იყო
▁ажиллагаа
▁tikkelt
▁verkla
aysay
▁πολλές
дея
གཏ
časno
▁יצא
弓
लिक
▁ýylyň
šli
emeje
areba
▁közben
ġġett
േണ്ടി
▁مى
▁cow
▁ጠቅ
▁ਹੈ
བེད་
дз
ორმ
▁Vano
ბრ
agħ
▁Rover
▁terdekat
стати
荡
▁लगाए
▁ખરીદ
▁pasākums
▁だれ
▁γραφ
ମିକା
▁yellan
शाला
တွေပါ။
ගො
▁vergessen
▁koms
ต้น
▁سرد
▁nè
uncurkan
ավորված
išk
mà
orun
▁անվտանգ
▁jedini
▁töötaj
▁Elbet
▁impli
▁umama
apost
▁뽑
डील
▁कितने
▁mănân
teret
▁Ул
শন
hante
ཆེད་
▁marta
wetsa
▁Malantaran
ሪት
▁ມັນເປັນ
⇒
znem
▁Thesalonika
чени
▁pɛtɛɛ
uthile
▁Nǔ
▁puss
ਸ਼ਲ
▁کران۔
▁sied
volta
▁வார்த்த
▁handray
▁پێش
▁הח
venia
▁आँख
▁شناخته
▁tinh
▁ruħ
-000
▁mahalaga
▁Sidaas
▁Bằng
ပါသလား။
سەت
▁SAP
▁kkunsidrat
▁அப்பா
▁baby
ামূল
▁uejidile
▁ebis
jších
▁arbeið
▁បុ
htt
観客
▁وڵات
▁mientras
▁eag
警告
ittamaan
eksiyon
▁להרוג
▁Klĩsto
abs
უკ
hatsız
niques
▁కూ
sstat
▁karir
హ్
▁алгори
မ်ႈ
▁rym
▁Verwalt
மோ
▁kebutuhan
ོན་གྱི་
ユダヤ人の
ຄອນ
nih
▁məktə
▁nzika
▁елдің
▁Бі
іп
เกี่ยว
▁prif
buulira
angiwa
▁meafaigaluega
rasa
▁kən
▁کە
▁Kota
▁જે
bilidades
▁ཨུ་ཚུགས།
▁Mos
▁zejména
▁lidt
▁dues
ooo
▁jugar
وله
ledge
cid
▁kelainan
▁warig
суль
▁ଋ
▁Agya
▁قومي
سیم
▁seront
▁̀
▁zvoku
▁हल्का
cell
চি
bnb
辜
ed
▁કરું
▁kĩkundinĩ
rili
▁мәңгелек
▁dünya
▁desert
▁Konso
τομα
日の
▁Sant
▁1962
▁mahalala
▁agtultuloy
erdas
聖なる
蹤
renta
▁விவசா
▁Επί
▁טעות
ğın
▁ਅਜ
▁جنهن
▁ഇത
▁వృ
টন
▁asar
ವೆಂದರೆ
▁вигра
beja
ongolets
angan
នុ
▁keto
▁dovo
enyi
ୃ
▁постра
SK
níkmi
မေး
▁Tourism
▁conclusions
▁ингэж
▁ź
ствува
▁tuss
▁한다는
▁गरेर
万物
jna
▁nevar
▁sudi
uaidh
一方で
▁ಆಧುನಿಕ
▁tshit
▁matora
▁nekatere
▁ց
▁Haala
itoje
▁relief
▁desarr
akov
ზიდენ
ുകൊണ്ടാണ്
▁결과에
▁lokuba
▁32;
▁njhani
ოცხ
onn
▁nghene
مائي
▁보시
▁করবে
ishy
😀
лор
▁marzu
▁نهاد
▁Elek
▁kuze
▁kpakple
▁vyr
▁εγκα
▁sommes
▁конструк
▁vik
چو
▁wɛrɛ
▁huduma
予想
▁Kurt
▁ugo
▁gái
▁noemen
ቓል
▁scol
apin
kulunkulu
▁meres
ordine
▁Atë
的刑罚
yga
hlav
▁rẹ
ìí
▁வரும்
եցիր
▁bilag
▁ئەوەی
▁కొంచ
ნით
▁Türkiyə
▁кунем
izu
ಿಸಿ
▁sál
ంతో
▁spenn
१
master
▁Lulu
▁لاو
▁बाईं
теп
▁এন
▁کیوں
ٽر
▁pengunjung
▁huis
stand
▁utvr
▁inaug
▁نکن
ਧਨ
▁ଚିକ
▁näha
▁janvārī
ikat
▁qhit
▁මාස
BR
▁Francus
剂
iraa
▁Up
zną
▁iibha
▁פּ
▁żmien
▁Шун
յալ
ંગ
▁различити
▁గా
▁faol
▁kple
▁ndé
▁Protams
▁rommet
▁ngit
태
▁mār
▁ulwazi
ன்பு
▁Dwom
▁ဒါဟာ
خواست
лио
▁воза
▁nemzeti
တမ်း
ປະກອບ
▁அப்ப
jal
appa
▁טוט
▁llu
▁ಕನ
베
ahua
▁dispositions
طب
▁התק
བྱེད་པ་དང་།
▁teidän
ljed
▁ї
▁ያደርጋ
adera
▁ಸಂಪೂರ್ಣವಾಗಿ
▁têm
▁uključujući
ರೂಪ
مۡ
ແຕ່
を考え
дээ
žuje
▁domhain
이며
結果を
▁kasoo
▁উদাহরণ
を追
ලක්
▁Monna
стување
jaye
▁हृद
▁ҡатнаша
이제
▁Çin
▁tippermetti
▁enginn
oton
▁کس
pun
্ট
▁करेंगे
дож
ลี่ยน
▁omoko
▁munzira
▁láé
煙
melser
▁támogat
▁~~
▁stát
認識
▁유명
▁mukuá
وبه
эрхий
▁imbah
ብቅ
▁אינטער
▁경우에
▁faita
▁பெற
ပြိုင်
▁ịtụ
ሩ
▁ਪ੍ਰਾਰਥਨਾ
ruh
▁مرة
▁없을
wathi
andisi
▁naudojimo
ativo
持続
▁atingi
▁صحبت
のか
▁shuning
▁chaka
ɛntɛn
Ин
▁zgjedhur
▁kolom
▁كىشىلەرنى
▁Alo
བརྒྱུད་
льд
なのです
▁sống
地理
omfi
ುಗಳ
▁परेशानी
▁ẹranko
▁zajed
▁toiminnan
әх
▁Florence
tă
▁ခြင်း
▁ƙasa
ongezelela
ющие
▁Brug
▁बल
▁neri
पय
рур
▁डे
ཡུལ་དུ་
ژانس
soang
▁bandera
bagatɔ
▁kamachis
▁ninguén
▁موحاکئمه
▁በማ
▁ଭିତ
▁derzeit
▁વધુ
▁किसान
▁angel
▁мощ
▁seketela
ྙ
▁مه
▁खाते
▁bào
▁koulè
▁Komisjon
ovai
▁ďalších
낸다
▁поста
巩
ແດ
▁هنن
inkwa
▁संतान
цион
amics
▁xạ
▁vyose
▁wǔ
lantir
▁systému
▁Don
ယံ
▁neto
ازه
▁የነበረው
▁wielu
▁geheel
▁nengo
လႅ
▁estats
▁pagtoo
▁thutha
▁ukhona
▁rus
させていただ
肠
人は
▁resepi
讚
▁amaona
▁максаты
▁Senza
▁ucajja
▁cxiu
▁լինի
▁Сұ
▁steb
kuri
iska
گیر
▁있나요
▁mụtara
tru
▁inik
kung
umok
ibig
委员会
▁ҡар
▁가족과
▁ministrijas
▁anyan
▁Teresa
▁Sonu
ग्रे
荷
ந்து
Ƴ
▁geli
▁מנ
▁그의
▁killed
▁estrate
iluvi
▁ክል
电
▁çaga
▁quran
▁Erwer
坑
ကလည်း
eshwa
▁çıxar
▁натыйжа
▁Gear
▁తల్లిదండ్ర
▁ઓપ
▁kesan
"[
信奉
嬢
▁hverken
▁بۆیه
▁τή
▁mansi
▁осећа
▁pammat
캘
वेळी
▁üks
artzen
▁poveikį
pošanas
▁ಇಲ್ಲ
▁Plaza
▁ពិតជា
لىك
▁дъл
hoofolo
ëso
জাত
karazany
▁हलय
感じ
▁lefelong
ကောင်းဆုံး
▁cɛɛ
iausių
▁zamanlarda
▁sunyi
▁yaz
▁Ove
ቢት
▁მსოფლიოში
▁افکار
▁yıllar
διασ
▁bah
▁прово
Las
▁procedūra
落と
▁संवेदनशील
རིན་
▁Tʋm
▁Alebo
בוצה
▁శు
▁absolut
▁nayraqat
▁amafuna
▁mõist
▁जाथे
▁Kül
▁oke
မဟုတ်
▁यसै
▁Ole
andı
智慧
▁paši
▁ప్రపంచంలో
▁tilnær
未
▁ప్రజ
▁ਇਕੱਠ
▁исполь
▁ardhi
▁అప్పుడు
menti
なんて
▁ಯಾವಾಗ
ari
lita
lú
▁آمریکا
▁ವೇಳ
▁2.0
uju
ڳ
▁камер
ាក្យ
▁luath
▁vedea
▁сонир
▁kedade
▁cĩvi
ിക്കുമ്പോൾ
adaan
▁ngisho
▁मुसी
▁עובדים
飼
пру
άνι
▁kuzungumza
▁düşündüğ
▁айтпа
▁ត្រង់
lj
▁rău
▁rĩ
▁полягає
▁ũtethyo
▁ispri
▁Ek
▁ၵႃႈတီႈ
▁валу
leked
რ
kí
ziať
▁abak
bibwa
sara
▁dte
▁नाउँ
▁accepted
▁премия
▁kũvoya
▁balek
▁2021,
▁Müs
▁Rory
▁کاتێک
▁сфері
▁kulit
ngata
ക്രിയ
▁συμφ
▁interrup
▁ਖੋਲ
ದೊಂದಿಗೆ
▁बड़ा
Yɛ
▁dalin
▁Hanna
zvadzi
▁ауда
▁contrast
▁direttiva
▁siente
▁chóir
τός
▁lash
▁اها
▁meurumpok
یں۔
▁lätt
▁tk
▁swiphiqo
▁afges
▁бизге
▁Sementara
athũkany
▁hop
στεί
▁जदि
ពិតជា
tiev
dienā
хыг
ompa
ینہ
ྕ
▁ಪಟ್ಟಣ
▁tuổi
▁ìd
▁ບໍ
lasan
▁nostres
ធ្វ
▁hrá
▁fingu
elosi
류
▁अला
يسىز
nienia
▁Йәһ
▁Yer
కూడదు
▁patvirtinimo
▁ਬਿ
рем
▁plaça
▁Contohnya
šču
▁petsa
▁naf
чните
▁خە
▁ydy
▁በእኔ
▁Ndo
▁LR
▁raz
▁dating
geni
ثل
提交
hiam
▁أنت
▁уха
ђа
▁vakt
▁будзе
▁bedst
方針
▁Vart
▁wɩ
▁בתח
ંત્રણ
▁забеспя
▁между
deling
šenie
ziro
▁13
ầm
ཞེས་པའི་
▁uThixo
▁Ndiyeno
▁неким
▁ontmo
▁የሚከተ
फ्र
▁ਗਿਆ
တ္တ
▁ଆର୍ଥିକ
uno
▁kunagi
▁pagrind
▁махсус
வேண்ட
▁شرک
▁Okrem
តែមួយ
adonui
јте
▁ئاخ
طن
मिक
ube
▁mhór
▁জানান
▁universe
▁síwájú
▁prid
ੱਠ
ាច់
াকিস্ত
▁tipus
▁waatea
▁לעצטע
missi
▁Tut
གྲུ་
ehol
▁afoforo
▁naMwari
▁vora
alse
тање
▁megváltoztat
ṛe
▁ਵੰਡ
▁politiku
仅
▁Đừng
▁tî
རྒྱལཔོ་
▁nali
▁Sest
вери
ʉ
раў
ival
▁technológia
▁manungsa
ଶ୍ୟକ
国籍
▁bodi
▁ënner
▁group
▁thy
▁Ингээд
▁جع
▁düşman
▁ayanga
▁94
▁پۆ
▁opmærksom
詳しい
▁peureulée
▁ಆಕ್ರಮ
▁sunguluka
▁wra
তিক
ାଜ
▁vup
▁nationa
▁ನಿರ್ಧರಿಸ
▁Nogle
▁кри
▁කරන්නෙ
▁боддог
▁叫
▁سڄي
Mən
тного
▁sur
▁मुद्
vay
ებს
▁Oké
▁katawohan
▁anc
▁tlhela
▁fuera
▁carri
▁bista
▁thù
हूँ
▁είχες
▁უთხრა
اتف
▁dikan
▁atbilstoši
▁Navig
▁អំពើ
▁ನಾವೆ
漁
▁ಔ
▁awɔ
▁sag
▁prensipal
▁visage
▁بدەین
ରକୁ
▁ویست
šené
indest
ulisa
であるが
▁ezid
cinane
といって
▁året
▁hospod
▁Yobi
▁lush
▁عالي
рије
दे
▁こ
▁laistigh
кос
▁wakut
▁ସୂ
ektor
▁trà
▁europæisk
▁Wiki
▁سێک
क्षम
▁penerbangan
anyp
▁sũur
tivät
▁bright
▁ཀཱ
▁Gyda
ħiħ
buting
▁кім
▁inona
▁mampa
វិ
▁ಗಂಭೀರ
遭到
Å
▁kĩa
▁інформацію
▁asaj
▁więks
inana
▁22:3
▁denuncia
▁혈
▁금
▁ਚੀਜ਼ਾਂ
▁bästa
ৱৰ্ত
▁kadtong
▁tlhom
▁tarko
敬畏真主
peng
▁अनुस
2008
काइ
్రే
▁வீர
ன்னா
ститу
▁щ
ြာ
▁сут
▁साइ
혐
ζει
ච්
▁ৱাখল
▁tuvast
▁തോന്നി
▁Seveda
▁জাতি
▁Għal
▁Wan
ലി
▁Помо
ؤن
uhnya
▁sugbon
▁gɔn
▁صغيرة
▁тұру
द्वारे
▁nain
itionen
わたる
▁Νομ
▁бойо
▁neatkarīgi
▁ଶୁଣ
▁eksperyans
▁Kitô
▁stanovených
攻擊
▁Ново
▁Diosajj
▁लोके
leki
▁بدانید
nengete
▁pasta
ິທີ
▁εξαι
▁district
▁کئشي
imami
▁בפ
▁timi
▁eredmények
མཚོན་
▁siroma
ሎች
▁mest
یش
esiaɣi
▁fahalalana
ď
▁VIDEO
ۆك
sos
▁ɖěvo
ায
▁يېمەك
ಿಯನ್ನು
▁Dena
onganino
дів
▁terakhir
▁রু
▁sutra
▁ümid
耶和
ว่า
▁koon
▁bought
▁Tha
▁ٻارن
khan
딪
▁mulkin
ჟრ
▁көт
шонро
禱
▁نوشت
▁šel
▁keçmiş
Så
▁arwein
▁vorm
▁Qualcuno
▁măsur
▁이하
▁knowing
ముఖ
袭
ارب
▁belie
を使用
enal
ロンドン
▁yachi
xic
ytam
▁sowohl
▁aizvad
zjonament
▁gür
amad
▁rhot
▁Republic
celer
▁dalyvauti
витель
▁sito
▁このことは
άντα
▁mũuo
▁Nézd
▁সকলে
ሱ።
▁čaj
▁voie
▁Keitou
▁kakwe
▁agung
tujú
▁għolja
োকা
▁10:29,
ेत्र
▁kappala
▁کا
▁ئار
ayona
▁agns
ాలని
▁Maalinta
▁ನಾನೇ
bilities
▁спасибо
▁ထွက်
ປາ
全体を
▁живо
انیایی
ன
zivikanwa
ନିଆ
orre
ることはありません
▁molit
▁кайта
hori
ികൾക്ക്
ैन
▁సంబంధించిన
ethu
рази
ոյն
▁achikt
ũkũme
▁والا
▁pam
▁болбосун
ujú
▁بولمىغان
▁задржа
蔑
▁estaban
▁خواستم
unile
▁эв
▁спраши
għet
▁marí
蛋
▁olvid
ریشن
▁iespēja
▁நாம்
▁miks
▁ਜੇਕਰ
▁ඉතින්
ede
▁fica
▁במהירות
▁सहाय
وران
▁lequel
慎重
▁προσπαθ
恶劣
▁съгла
▁šupa
aua
ረት
ページ
▁ବଢ
tp
ρωση
▁αφ
▁αξιο
▁seem
cret
▁tāngata
කිය
kê
ará
▁nejsou
▁Claro
▁tempr
▁ICC
▁болов
▁Imb
▁دوی
▁temporan
▁skulu
▁verka
▁eens
▁Justi
ならない
▁pupa
adoo
:4)
▁पुर्या
▁имал
▁ھەزرىتى
▁miawo
ໄລ
▁1907
ومان
hloni
▁Mid
▁farmace
▁kuchokera
wone
▁rokuti
에
気に入
▁Hy
šću
үә
ብሎ
▁gipa
▁сакла
▁kuse
▁mohiotia
▁nyeri
▁خودت
ANE
০
▁התש
usiano
▁gadījum
īgām
式
▁Spania
障害
Kolos
▁ਜੋੜ
מניה
▁malaka
مان
▁sov
▁talohan
嫩
▁ଏଥିପାଇଁ
▁गोटे
▁cơn
▁pigli
▁قر
ანია
videre
tä
klar
▁залуу
▁vea
▁것들은
▁adiga
▁еконо
íme
▁menshi
рға
▁magaca
▁каала
▁ہند
▁御
▁imibono
▁מורא
stig
▁padayon
▁جۇر
▁četr
▁iest
▁biashara
▁Secretary
▁ڇو
ERT
▁planning
▁daakye
▁roho
▁pühend
▁అతడు
shit
▁iloilo
ष्टाचार
▁amante
▁наоѓа
▁aýdyň
▁lii
▁ஜி
ଉ
▁tagħrif
נ
▁అధికారి
▁aking
▁börja
▁wayn
▁dagat
▁fíu
▁태양
▁ಪ್ರಸ್ತು
▁INTER
▁valmis
باره
▁lég
▁అన్న
▁sisi
▁Whit
▁제
▁lio
▁পৰে
టన
▁pọ
▁Нар
輸送
▁agr
へと
▁দেওয়ার
Bi
▁príst
▁tagas
▁ஆங்கில
akho
▁dilə
cules
▁чыныгы
▁dedic
▁Ent
orji
▁juris
ینے
hilila
▁131
▁өзүм
▁చెల్ల
2-3
▁पुरानी
▁omhandlet
alyũku
▁મુશ્કેલ
▁beszél
▁ቦታ
നിക
▁eben
øld
▁samlet
▁gingen
▁पंच
रीय
▁puk
▁jednog
ប្រែ
qinisekile
▁Murphy
ಡಿಯೊ
▁Hink
▁đe
▁айтқан
▁Schweiz
▁vahaolana
렛
▁ચા
kakhe
▁töötab
्यूटर
▁mikor
▁கைய
ູບ
▁tänä
▁Daviti
▁정확히
▁Klí
щата
▁היית
की
▁డాక్టర్
▁OECD
এর
▁листа
ۈمل
▁культуры
▁කො
gayyem
lickr
ód
ਮੀ
Ả
▁ต่าง
ruba
▁ٻاهر
▁утвер
alsed
▁pirang
ehovha
▁odkaz
▁Sipas
▁bilme
▁նվ
ukuwa
▁수십
▁होयत
▁164
▁Wenno
EG
▁pameran
▁studiu
dv
▁thuis
brɛ
孩子
▁Республикасы
རྣ་བ་
▁moze
nyeng
▁তাল
▁attest
▁twal
▁চে
bonsam
▁роках
▁ओस
▁aṣa
▁પડ
私たちが
▁barasa
щается
▁مرڪ
▁esco
▁whakamutunga
▁sifa
▁pas
▁تمہاری
вались
▁যু
erlech
▁stríð
▁Cui
ێنێته
▁منك
▁شوم
▁vergelyk
काश
▁hundzuka
▁dirago
dos
▁Incl
▁айт
▁유전자
▁DW
▁33,
▁inyi
▁potrafi
▁пријател
▁རེ་
コミュニケーション
▁plazo
▁manontolo
▁වට
▁થવા
Ղ
▁جکلر
▁atatũ
▁ຢ່າງ
قۇ
▁İn
▁tukaj
шуда
▁của
▁정기적으로
有罪
▁Laz
▁کشی
▁Zvaka
▁прин
▁अगिला
▁ኣብነት
▁anap
▁professional
మున
▁Με
modern
▁osapu
▁داوا
ሓፍ
▁ماس
▁iným
▁raki
▁માટેના
▁ਟੀ
▁ville
veel
▁pagan
▁erfüllt
▁ಅಧ್ಯ
▁ризы
籤
▁پەیوەندیی
求め
▁kũhunjia
▁харак
▁গ্ৰহণ
▁Ðewohĩ
▁đá
レポート
▁konkurenc
▁चाहित
▁கழி
tang
بری
gbo
▁ED
勸
▁лако
кать
▁đ
▁opiske
▁OB
jman
▁olacağı
▁бәсеке
▁berdi
▁Où
्रांस
▁tuos
▁machielo
лына
ั่น
ელები
▁함께
▁تک
लाह
▁Nod
ņēmu
表
▁միլի
wẽn
▁problemas
нос
▁revision
あまりにも
▁bå
▁ترتیب
landske
▁קיים
ruar
▁ដឹង
▁نازل
рді
▁ঈমান
▁siglo
▁ରହିବ
▁بف
▁жыццё
ଖି
吩
▁#4
▁நேரத்தில்
▁sangiwa
▁यीसू
ഞ്
zt
▁ɗakin
paswa
ามัน
ၢၼ်း
▁ulée
▁لن
▁мешавад
▁그중
न्ही
▁siro
▁несие
ຫນ້ອຍ
олог
コンサート
▁kulankhula
▁సే
hira
▁సమావేశ
▁تري
মি
ងាយ
▁алыш
▁ਪੋ
▁भीतर
បន្ទូល
▁Հիսուսի
bio
lino
▁permiso
01
▁gabhail
▁padėtį
▁식별
ड़िया
પ્
▁Bolje
▁બતા
ġiku
eleng
▁अतिशय
▁күпме
amian
Bhayibhelini
▁wafu
▁stelsel
நீ
ອົງການ
faseng
▁altına
▁ojegu
▁naam
▁숙박
▁ছোৱালী
▁そうして
ამთ
▁mainit
▁Afaka
▁մէջ
▁inyere
▁idatzi
▁umume
▁ગ્રાહ
atoran
▁என்னுடைய
უპ
behand
▁elkerül
▁ɲininga
▁быў
▁రకాల
▁smile
ۇنى
▁stimmt
▁kompet
haq
▁politikan
umentu
▁darteed
▁xener
▁इंसान
▁مرور
▁صند
▁Sibẹ
▁fuar
sä
▁خشم
▁katru
▁интизор
etos
ustän
በላ
vui
munye
вони
gä
GAR
ûm
ayike
▁lygį
添
ađ
ẓri
ོམ་གྱི་
▁državi
rof
▁=>
▁Dheweke
▁azik
▁područ
▁cantid
અપ
ccions
ುತ್ತಿಲ್ಲ
▁Сви
କ
▁gebieden
▁дүүр
▁ଆମେ
▁आऊ
▁español
▁ల
▁qurish
ideal
▁Kadagiti
▁הז
▁myönt
▁دیتے
িবলৈ
▁звичайно
່ວຍ
▁идентифи
▁Volks
▁dirai
īgai
煉
понен
bị
▁bwaffe
▁בש
▁voru
umv
▁հիշ
клу
▁bermaksud
▁mye
iklu
▁denai
▁اختيار
▁Cohen
quée
▁Minden
▁շ
▁جڳ
nè
▁Sani
ficação
huma
▁Ling
▁ఏం
område
ným
▁ག་ར་
▁खाता
▁kvalit
▁రావ
かえ
▁ካል
▁ba
▁kalinaw
▁keçiril
▁μω
sisht
私と
უშავ
▁jegy
▁medisin
ೃ
▁gale
པ་ཡིན་ནོ།
▁মিস
▁గె
ើស
▁ਸਾਈਟ
luž
▁कलीस
elewa
▁anom
ത്തിയത്
▁하는지
▁thiëc
▁дохил
▁yemwe
▁ireo
▁хоро
▁kovaso
▁keresztül
▁muziki
▁kuulu
▁মাহৰ
ാവും
▁kasih
▁Яшь
▁Toutefois
▁føro
典
▁vyriausybės
რებს
ونو
▁بدي
▁kurt
▁Phen
දි
க்கும்
▁උන්
▁avem
▁일들을
[9].
350
▁ترتی
▁ಮಾತನಾಡ
▁mororo
▁reject
▁ople
▁ਸਤ
▁پادا
әтта
▁Zahl
▁aduti
འབདཝ་ཨིན།
주는
ចិត្ដ
だけです
umidza
▁situatie
▁गेलो
▁ketewa
▁Sora
ertet
▁バ
tedy
amaKristu
▁maleb
èÿ
ཨི
▁biod
inä
▁мор
마크
usa
▁स्वास्थ्य
▁sirrii
्ठा
▁Susu
▁ተግባር
iniú
▁Ainsi
မရ
जक
▁тағайындау
▁تمہارے
▁медиуми
▁tarikh
adies
▁Nzapa
melse
▁велике
▁आठव
▁દુઃખ
に向か
▁каза
▁शरण
▁emaKhristu
▁گرا
porte
▁baha
▁Assange
ಕಾರ
▁upendo
▁ndara
ហែល
ravili
▁ກິນ
▁Més
bla
▁Halu
▁Иран
නත්
▁18:
▁pénz
Giriki
▁cchiù
насти
▁tosi
▁așa
▁kluba
▁següent
രുന്നില്ല
Hla
ለ።
▁mudan
attet
▁spēc
▁jirto
ⵅ
▁នាង
vidade
urança
▁변화를
▁అందువలన
▁kuonyesha
▁Kamar
拙
ակել
▁würde
▁approval
▁costes
réu
▁резер
▁шәһ
ánt
▁veš
araqui
▁ఇత
▁beber
▁എന്താ
wath
膨
ሎት
끓
▁Sɛnea
asai
▁rede
▁ciake
babayad
▁ix
▁динами
ਿਆਰ
о
▁beteg
འཆི་
담
▁hlaya
▁दृश्य
▁Sae
▁muprof
▁လျက်
▁umKristu
▁بیرونی
שורים
▁Using
ριο
▁moku
▁ବାସ
▁jipeubuet
ayong
▁miljøet
менты
ጥሮ
▁жеті
▁Минең
▁elettroniċi
▁bolelago
▁лау
▁друштво
jës
elv
▁Велико
▁terk
▁প্রচ
▁Puh
యింది
▁hjemme
ంటో
▁நிறைவே
▁иш
▁ತುಂಬಾ
▁цялото
▁ହ୍ର
▁balanse
▁conting
닛
▁ਲੈਂਦੇ
▁βιο
กิน
အတူ
▁assass
்
лакти
▁(21
▁ئەر
skritai
▁який
▁konsul
▁junior
▁روانی
▁kɔnɔ
▁того
证明
▁cw
売却
ಟ್
▁صحيح
▁됐
ഡ
▁دلیل
▁култур
ментів
▁bâ
کاری
▁അവൾ
▁سەد
▁fue
xet
ամենայն
▁verloor
▁Ukwa
▁koment
化的
▁ਭੁੱਲ
pole
▁snel
▁הברי
▁তুলি
icí
▁rest
▁tlhoko
▁दूध
▁Засгийн
▁уста
▁sakola
▁Isiraeli
валася
ላው
दारी
▁ነብ
▁پارک
▁Tax
deng
▁دەڵێم
ਢ
▁dizut
▁zip
peg
▁2013
▁ລະຫວ່າງ
▁ɖa
▁luqtir
▁27,
▁స్థ
기에서
▁Bandaríkjunum
eknekan
▁xikana
した
▁Uw
▁բաց
اوز
дзь
zining
▁демокра
ikiswa
▁කිව්වේ
ampur
▁прове
▁hó
▁Mənim
bomfya
hah
andikwa
▁selskap
quer
▁jissodisfa
ᆞ
▁izaten
▁9:2
▁බි
φ
▁няко
▁bird
▁AS
heds
▁Hyang
ongereza
แม
▁ehti
ရှေ့မှာ
▁bahasa
▁matessi
פּט
▁smr
▁vortojn
▁Gmail
▁vështir
▁katastrof
kají
▁kunok
▁Շատ
materjal
▁прекрас
ណ៌
▁Bruss
▁Prosím
▁stö
સની
▁mining
▁оқиға
角
▁Arsenal
▁පස්සෙ
εν
ประทาน
▁dhuma
出る
ukt
▁tiyeke
▁모듈
▁amehlo
▁болмаса
▁kwuru
▁setempat
▁chinos
မှုက
Jehova
▁ematen
िकार
jabulisa
▁priču
▁ਸੁਰੱਖ
基
xt
▁ରାତିରେ
▁naŋ
شتن
▁teuk
▁ontstaan
▁خاموش
지게
▁စဉ်းစား
▁аб
વિષ્ય
▁strike
▁jaffett
▁ਨਿਕ
على
▁Teach
▁pfune
asitiri
▁자손
īv
yoka
irip
▁ċċ
▁waahi
ħod
▁फी
▁limeneli
ស្ថាន
▁درم
▁bheachd
сы
▁kulandira
▁жокпу
▁attie
▁roky
ombelo
▁неза
▁gituma
mus
▁함
▁можуть
▁ಹೇಳಿದ್ದಾರೆ
▁പരാജ
▁తి
▁학생
▁midler
▁musoso
става
▁gekommen
པ་ཡིན།
▁constitu
▁127
▁guerre
▁ಸ್ಥಾನ
▁cực
obulamu
▁Lla
▁cidade
ထိုး
▁ਖਰ
imiso
ũthĩ
ጠቃ
▁bɛma
دن
.[15]
の一環
érõ
king
▁Gran
▁мало
▁skrift
cyji
▁vál
▁mím
يتتى
▁uzlabo
▁ዝወ
ᱩᱜ
▁säger
ந்திர
▁كوم
umed
jata
ଙ୍କର
pahany
▁Banks
สง
▁本
▁numër
▁жили
ādas
ĝis
▁Gol
▁borde
の人々に
▁келгенде
▁fikri
▁vahoaka
▁potem
▁Тан
▁азоб
▁tšoaneng
▁bolela
ਚ
▁काम
▁stavi
▁സ്ത്ര
▁ruith
▁کنترل
▁Puedo
▁ترى
▁chakula
▁დაახლოებით
▁našo
နေပြီး
▁fotoana
いだ
▁خاک
▁الث
▁जल्दी
▁گڏ
▁ئاخىرەتتە
▁menandatangani
▁kys
▁elett
▁анализа
誡
▁چر
▁πέρα
▁артык
ткы
▁تیا
▁ଦୁହେଁ
▁انجمن
▁kalon
▁telung
▁наголо
కరించ
▁diê
ৰোধ
▁учурда
▁hunahuna
jud
год
▁pollu
ាការ
▁ግዝ
アンド
俩
▁tokko
▁Muni
▁depends
zzare
òr
▁smrt
▁Bakol
▁Verbesserung
▁لز
▁tippermet
▁10%
پێک
▁որի
აში
wanz
▁నాయ
▁सहन
的に
▁modelo
▁영원
▁Leon
riet
▁aidata
र्डर
▁xix
▁siguri
菌
▁kozanga
▁telu
▁সঠিক
▁ႁဝ်း
▁kgothat
▁allgeme
ří
▁ndrysh
▁уларҙы
じゃあ
▁dneh
▁નિયમો
दाता
を拒否
ാക്കാൻ
▁mayan
wẹ
▁시간
▁trabajar
▁hoffen
▁ceh
▁Patyş
zve
▁хич
▁gerade
యా
otrans
▁кешеләре
▁ইসলাম
▁talu
影響を
▁rindi
▁бесплат
▁архітек
▁bonè
▁sih
▁достатньо
čios
▁Peran
▁tratta
▁bolo
tavan
▁मदत
▁mazg
▁ngokus
тармақ
ਮਾਂ
▁apresenta
▁haming
▁prison
▁बाः
▁bepalingen
▁milles
лайда
سمه
ವಸ್ಥ
▁sociales
▁رئیس
▁djevojka
▁tɛn
▁förslag
▁ngwapwile
▁inac
udsod
ၢဝ်ႇ
▁27:3
▁tɩr
ැක
のだろうか
uksien
ୂ
▁bheil
▁аҳ
ፋስ
Anga
▁Ġunju
▁auton
▁অবা
kiz
Naj
▁አመሰግና
▁mwĩao
▁hearing
روس
▁Iharaira
▁jlá
▁resultaten
abil
тъ
fatso
▁picha
ттай
▁ezag
▁lás
▁Wolf
îs
▁chre
▁मिले
确已
fowethu
മല്ല
▁Vaš
▁носе
zɩɣ
▁Kolos
▁cuán
նց
▁치
▁килә
klare
ាមេរិក
▁mũka
▁koali
▁নিৰ
▁ted
兆
▁Alabama
▁ouvir
▁Thai
ጥም
▁qaban
つもり
▁тырыш
▁akuwasanna
itio
▁számítóg
ুণ
▁Gaešita
Etu
ཐུགས་
▁бардык
itéit
▁toward
▁ดัง
ricas
▁enya
▁መሣ
▁돼
▁ilin
▁πέ
▁ਨਿੱਜੀ
▁milyen
▁Alto
▁ijaar
▁legali
▁يەھۇدىي
ಣಯ
▁penses
තික
ψεις
▁nins
▁1905
▁mitmek
▁سن
▁دوز
saq
ຊິກ
▁пала
Zaburi
▁podró
▁proċedura
▁Princeton
▁一度
▁xitu
▁༎
▁отворен
▁pwevo
▁Иерусалим
▁컬렉
▁ସବୁଠାରୁ
▁desaro
itudes
▁Harris
締約
▁epä
▁thoirt
▁vilket
▁potom
unana
مبر
کوک
emyaka
bben
▁verstand
ugela
▁хангал
зги
▁nalog
lholo
▁ɲuman
▁پێنج
▁verordening
▁iñila
▁inimesi
▁Испо
買った
▁दिवशी
▁255
erse
▁دێ
▁મુશ્કે
▁Njegov
▁تاکنون
▁sakoma
▁Moji
▁Nati
रल
▁ʻ
6,000
▁itubutubu
istili
ells
▁gesa
▁ଯାହାକୁ
▁오늘날의
▁Dich
▁ಫ್ರೆ
▁ڕزق
▁Christi
▁ت
▁Boleh
जिए
▁गोली
佛
▁afa
璃
▁Manda
▁ፊት
▁kwĩthĩwa
▁asocia
▁stasiun
aramo
▁miliyo
usig
たま
王
▁peł
▁točno
ལྷོདཔ་
మాణ
funa
▁پیامبر
▁kvali
▁146
▁dijital
▁servizo
plicht
▁Liidu
▁kemajuan
hethi
▁LA
▁ماهر
▁الفاظ
▁atunu
ーチ
ಂಟರ್
▁çykyp
▁واد
▁ذل
▁வீட்ட
eliso
▁nesimo
▁Marekani
ારી
akub
ཕོ་ཉ་
▁שלה
▁oksigen
がその
▁penser
▁поговорим
▁घुस
adag
▁fikambanana
▁سیست
▁зам
េទ្យ
▁Dove
▁eksister
変わり
▁ဘ
▁وارا
▁învă
▁Oficial
▁ɖé
▁lye
ĩndĩ
utam
луп
ichagua
できることを
▁компани
інан
▁Мине
▁dhaaf
▁pokoj
եի
▁inhoud
akuru
▁ktorého
ắn
▁koposa
osa
▁Lola
ダーの
lwano
ိူ
ếu
▁แล้วคุณ
държа
▁upravo
▁Республикасының
▁יאר
▁सृष्ट
ньої
yimo
▁tʋma
▁ሜ
▁عئسانين
▁kukuwo
▁Мэри
▁अपडेट
াক্ত
▁показати
undai
▁basali
ង្ឃ
བའི་དུས་
غى
▁artık
ondoa
▁engagement
▁jediný
▁نماینده
helene
▁tiesiog
▁mellett
▁ಸೋ
▁༢༠༡
▁албу
agi
▁variety
▁тәҡ
▁Television
料理
▁goda
▁момент
▁yachan
▁здат
teknolo
▁nilalaman
▁კითხვა
▁Ndomo
▁rapporti
▁ದೇವ
өрөҫ
ogolera
▁Ero
▁işaret
▁кожны
▁претседател
▁당신도
▁말씀으로
ريقة
etiva
▁ifrån
▁opo
▁criança
ರ್ಟ್
▁umak
שום
▁kucet
gging
▁પ્રતિક
▁մեք
▁සමා
▁masz
▁Iye
cią
▁става
▁esperas
خرج
▁uraqin
▁endiş
▁ін
▁waffe
olang
▁ಮೇಲೆ
udir
▁하려고
▁turklāt
▁ٿيندا
▁curt
ĩaa
eday
▁Mokreste
▁ফ
▁uvr
ώς
▁acht
▁Bahan
▁kuva
▁خۆیدا
▁sebakeng
▁Alba
biyar
▁pirak
▁통하여
zgar
ndaki
▁रवि
▁διαθέ
▁bűn
▁قابل
▁પ્રયાસ
ћим
▁ཁོ་རང་
som
▁Sini
▁άντρα
▁신고
▁ح
▁knjiga
बारे
uranter
責任を
▁kemonisa
▁በተመሳሳይ
▁رەھمىتى
▁jingħ
ေရာ
▁પ્રત્યે
Jon
ڊن
անի
지금
▁agreed
▁Tās
▁kyonna
▁difisil
▁Pɩyɛɛr
▁fɔlɔ
ekateeka
isivat
▁ཡ་
ásával
kontroll
▁ائنسان
qanchikta
▁앓
▁أعتقد
▁tsohle
▁upacara
الا
▁negara
▁oketša
▁Apa
▁shares
▁nafasi
▁épo
▁mencoba
▁Līguma
θέ
▁그래서
▁פי
相手に
▁মুক্তি
▁inför
▁сөзсүз
▁ለእርስዎ
▁ხშირად
રેજ
▁ponder
土地
▁எப்படி
यला
▁ачып
▁طيب
ယူ
▁बाजार
▁keni
pte
▁ninsaal
▁tỉ
▁ஏ
చ
▁언급
▁мөлшер
▁deschis
шила
▁վրա
inus
▁Aki
▁بنه
▁matiko
फा
▁Kristy
Yoh
▁asɔfo
▁shule
▁уми
▁nevamwe
ndã
▁ယေႇ
dia
hetnek
ight
▁निर्वाचन
fällen
▁Sakit
▁vuit
▁கடி
ऱ्या
jjin
▁көтө
😅
ገኘ
▁Kor
んでいる
▁nõuetele
▁zrobić
▁Ұлттық
칸
▁문제의
غيير
▁ерак
▁tribo
▁سلام
យៈ
ിട്ടു
▁taa
יך
▁Күр
ံု
вуваат
▁которы
हमरे
▁Studien
▁ú
▁ilaç
▁Magdal
▁Keg
▁kankan
▁XD
▁iesp
sing
az
▁communication
▁yritys
omot
ปฏิเสธ
▁etti
▁Ƒ
▁چیخ
ዙ
的にも
qulo
▁reiv
▁значения
▁beruház
▁సులభ
▁jejich
▁Xihondzo
묻
她
▁kuzola
pòt
▁idin
Kapit
▁રહો
▁abig
▁hec
▁ambass
▁بارداری
ಲ
▁walio
amanidina
ەننەم
տեղ
བའ
oriaeth
感
▁puder
તું
▁airge
例如
▁ಸ್ನೇಹಿತ
▁</
▁өйрән
裝
▁dɔw
zzjoni
▁torre
▁преступ
▁lehetővé
▁artist
▁اگر
▁tih
▁რამ
▁kusis
尺
▁פּאָ
▁samfunnet
▁will
▁יס
▁host
▁hästi
▁klarer
paksa
ལས་རྒྱུད་དེ་
▁puhu
▁àjà
▁dubbate
▁agzybir
ပ်း
▁3:16;
▁آخری
▁blas
▁nayiphi
▁ייתכן
ძებ
▁ekok
誠実
čejo
iexile
▁litu
▁Kuat
▁رغ
▁teachers
▁ممکن
棒
▁pré
해보
èna
▁kawk
vanyo
gabung
ěst
▁gatanu
▁தக
▁kimuntu
اكل
▁ಅವರಿಗೆ
▁Şonuň
вле
▁부서
▁espesi
▁hatto
▁කරනවා
▁ಇದ್ದ
▁દી
▁Gape
apaan
γγνώμη
intsi
▁njupuk
ὰ
▁motlheng
▁ትልቅ
▁자산
.[14]
atoa
ėkite
▁Њ
▁vingine
niji
▁gyny
▁ზოგ
▁chances
▁sikker
▁වෙන්නේ
▁һис
▁anymore
hĩ
ორწინ
▁larta
▁Sahara
ሰበ
▁சில
eneś
▁daotan
▁qq
▁φύ
▁ජා
▁Kla
ခွဲ
▁dalībnieku
▁ကျွန်တော်တို့
▁parella
▁rekomendu
▁کۆمه
ANO
▁Sau
▁ئىنكار
▁productiv
▁gnè
▁jian
되었다
კის
▁باه
lanib
ാം
▁વ્યવ
▁кыйын
▁jurisdik
gð
▁lug
▁б
โรงเรียน
▁hören
ոյի
▁ciq
▁prijatelje
rë
▁گول
ủy
▁бына
▁magní
▁дида
▁tomonidan
▁Doyle
▁Tunisia
ールの
▁자세
onsin
ɛnu
▁year
▁Eş
ାଇଲେ
▁Weyi
▁πρόσω
▁Pinaagi
ọdụ
▁ድምፅ
ліс
↑
▁തന്റെ
ိုင္
ุ่น
VA
tes
▁bezwen
▁ṣùgbọ
▁việc
édé
▁ritim
▁Ung
▁डॉलर
▁nyelv
▁marr
▁Biiblã
新
aller
▁خپلو
▁ஆரம்பி
▁ማወቅ
երեն
▁mã
喉
▁zawngte
▁గొ
▁terá
ಿಕ್
ത്തെയും
▁kirur
▁kâ
▁있으
▁квалитет
▁zerst
▁दीर्घ
leben
▁talafeagai
▁hoose
▁акреди
ệnh
▁kõneal
hebere
▁tomon
▁duidelijk
חר
▁makota
▁sugo
▁тарап
▁ଜଣାପଡ଼ି
▁thích
▁ਵਰਗੇ
▁သို
oriy
▁mī
лія
▁美
▁1974,
▁مرگ
▁Znate
▁irad
▁heid
▁Muuse
▁Ӯст
otšišo
▁એન્
▁লে
étt
▁sodi
Wali
▁අරන්
▁బరువు
ŵeti
▁död
▁nabanye
mağan
bé
üyü
orua
重大的
▁partea
大学の
▁मुख
סע
▁anad
▁Dencɛ
▁lak
▁ум
▁корку
▁Nĩt
▁femte
▁shtetit
▁변경
▁Olen
▁kiebhi
▁pacientes
▁ანგარი
▁સ્પે
chur
▁pĩnd
▁ரீ
anjut
Per
▁αυτής
▁પાત્ર
▁تت
▁uguns
ός
▁ڌيان
rav
▁sɔn
gti
▁Ať
▁sekadar
ashii
mrt
▁अंग्रेजी
▁ئەک
▁оқи
結び
▁mati
uset
▁Тоҷикистон
▁قف
▁ichupe
wur
ⴰⵖ
īguma
▁krik
▁använder
▁নিজের
▁Î
istinu
সব
に行った
ۢ
ຍົກ
dzić
▁zawt
命じ
▁tulin
▁מדברים
▁Moral
צו
▁ମସି
གཏོང་
▁Jisálamu
▁Gelo
ター
▁Tam
ydda
ကတော့
意見を
yogo
dést
▁libo
▁spænd
▁کنید
▁없으면
▁bhfor
▁ئەگە
യ്ക്ക്
pj
御
▁명령
ordon
▁ביסל
▁нової
▁ielā
σά
واز
▁boken
usiwa
jtin
▁populacion
ワイト
▁Muy
▁шең
▁шаардлагатай
ficado
▁Trag
enyama
▁bụghị
дәм
yonjo
སེང་
▁вижу
▁jediná
▁chúa
▁кален
▁още
▁güýçli
▁সংস
ларыбызны
ච
▁perten
མས།
سې
▁কিন্তু
▁esz
▁2.7
น้ํา
▁yönet
単語
hilejilu
▁vrijednosti
ਤਰਾ
▁buruz
官が
შ
▁রাখা
▁gyonna
▁Peet
▁защо
▁ପର୍ଯ୍ୟନ୍ତ
▁antidumping
▁Bato
▁dautan
ôlo
▁mapamboli
▁jaga
▁torrare
▁গাই
▁взаємо
▁eksperter
▁보통
foga
▁geldim
▁حاض
▁кейінгі
▁Danes
▁Ők
웅
▁buloba
来て
قرار
férence
ۆر
▁تشکیل
▁meɖe
▁टिप्प
▁womwe
anoanoa
▁한가
ompe
ስማ
▁bophelo
▁godkän
vango
▁לשאול
▁أرج
ທັນ
ītāja
▁scoile
▁maskiner
▁jimeu
▁capul
inea
▁escrib
같
▁infatti
繊
▁kadagita
▁lähes
▁क्या
▁افسر
ктар
▁엄격
ca
▁작품
▁alfab
▁belangrik
▁ичи
▁སླབ་
▁ditolak
▁பயன்ப
慣
మవుతుంది
աց
▁kaih
ていた
дила
▁tlhelo
phela
চ্
▁這是
▁бирҙе
▁섭취
▁ngapain
xión
hanang
▁ଗୃହ
▁གཉིས་
▁nukpɔsusu
џи
szor
▁இராணுவ
▁Мислам
▁занад
▁уйлыйм
▁དུ་
▁መዋ
ಚಿತ
umpah
▁ବ୍ୟକ୍ତି
ånd
▁גער
ゲット
irli
▁མོ་སཱེས་
▁असल्या
▁ที
▁9)
民主主義
obon
bilitat
▁malg
ියම
्म
▁beitaki
▁habita
▁भौतिक
▁آرا
▁4).
▁katan
▁iesniegt
▁kriteria
Zeb
quq
標
▁Norður
▁munches
▁இல்லாத
▁ଡା
▁mơ
▁thái
▁kijan
▁තන
▁Gig
cije
▁vertrouwen
▁ग्रामीण
▁ఎక్కడ
ңы
▁გავაკეთ
▁മറ്റ്
▁titun
発言
▁দৃ
▁இந்தப்
▁photo
▁vwa
インタ
▁amanyĩw
▁bohat
在我
view
▁ইউনি
▁Storbritannia
jíma
▁lanin
▁combate
Commerce
▁kawoe
فیف
▁Tamil
ψω
ຫວັງ
장으로
▁আমাদের
སྟོང་
▁રીતે
▁använ
fanirwa
,4
你们
▁skipan
ैः
▁яшәгән
▁یقینی
やめ
▁Şun
▁akat
വാസം
▁ሰል
ູນ
04
kurat
▁აღარ
▁jong
▁Sekunjalo
▁sebalik
▁Ne
fferenza
▁अइसे
▁देखीं
nau
▁voči
ուժ
変
キリストの
ูง
ithathu
▁comigo
▁Sche
hanglan
▁храм
▁cigaba
▁ਮਿਲਿਆ
▁2:
▁54
▁роки
lungen
prene
▁געווי
▁vedrørende
தான்
同じ
сэн
olest
▁genet
▁osiyanasiyana
▁(1.
▁कहले
▁protes
▁उतार
▁سلاح
▁ọtụtụ
▁स्वतंत्र
काले
▁dudu
ako
länd
▁megvalós
▁göstər
▁Julius
▁abash
▁dti
糊
ല്ലാത്ത
раме
▁artiklis
▁remo
▁ਬ
iejs
▁جھگ
cud
▁Helen
▁낮추
▁خۆشه
▁Hvad
ရဲ
llë
Tatitu
▁केला
▁[
▁gwm
сүң
▁opple
▁잠을
Br
▁يەرگە
▁経済
دف
▁कैसा
▁Бүгінгі
▁slighe
⠀
繁栄
▁się
ക്ഷ
skog
štiti
ាំ
▁paie
yuu
▁unut
▁остр
▁vende
ueix
čice
▁వ్యాప
▁gael
▁viennent
▁balala
▁taimakawa
▁instink
၀၀၀
屏
▁desse
ཕོ་
▁bantoma
▁jawaabay
わかりません
▁mayroong
▁Gy
unuh
▁madera
šiem
▁Mutum
▁chand
▁நடந்து
▁कईल
▁alternat
▁時間
▁repara
▁hvørt
▁რამდენიმე
▁정기
▁asaba
ாலும்
▁Babyl
ihla
徳
ts
▁ਯ
▁mediu
▁ವೆಬ್
▁ସାର
▁bagomba
▁सेटिंग
िए
▁نبوده
▁فنی
Ut
ESCO
ବର
▁remove
▁পত্ন
▁құ
▁چيائين
dist
学生は
▁dejar
▁Deur
들에서
▁equival
▁xing
▁slogan
ၼ်ႂ
స్తున్నాను
▁fula
遂行
っと
▁gá
▁mgb
ਟਲ
였
ਖਿਆ
▁ຕາມ
▁mahafinaritra
▁sanit
▁Akkuma
▁tekstil
▁nanị
撰
ስር
▁때가
ovim
▁dispositi
▁समाधान
缔
▁central
voitte
▁ବାଇ
gica
▁Domingo
▁menuntut
▁유지
▁χρειάζεται
▁ላይ
ùò
▁שונה
▁ବିଶ୍ବ
лардын
мети
▁etshi
וסיף
▁алды
▁raon
▁Yisraele
▁Xwedê
▁اتدي
פשר
▁करल
▁ISO
▁trying
Nge
▁rĩmwe
aphoyisa
ుడు
▁होकर
xolo
▁sõs
vati
▁sellise
▁ƴ
▁bonolo
▁Гэ
▁rella
▁Weise
▁Akhristu
Rap
▁mahomby
ΟΚ
xu
▁курс
▁中
ချ
телите
▁hetta
▁hacen
indagi
▁suaug
▁matadi
予定です
▁Vēl
▁исполни
▁Waxaa
▁ئاھ
▁নিৰ্
ത്തിനും
▁ଅଲଗା
uttura
▁Սուրբ
fikasi
.[17]
▁expres
▁Isip
▁yakareba
▁vingi
▁porno
▁nea
ीक
rɔnin
▁әлем
တေ
▁Bandarík
ಾಗ್
각
▁ICT
▁അദ്ദേഹത്തിന്റെ
侣
▁အားလုံး
▁վտանգ
kanlah
itejj
▁줍니다
▁наво
▁Constitución
▁અંદર
▁modo
▁sù
阅
▁Adama
ènè
얻
kuna
▁tanda
▁KR
抜け
▁traje
▁mras
cunata
lalela
ҙан
▁Olombangi
▁điệp
arranġamenti
ીએ
先生
သောအခါ
isent
▁yänak
▁Pü
ፋን
bul
▁dyn
ⵟⵟ
▁внутри
働いている
▁diɲè
दं
คิดถึง
▁amelyben
▁diğer
eniem
▁سائن
ுக்காக
▁vahvista
▁kwĩk
▁okutu
技術の
▁diyor
捞
èlman
huleke
▁бола
يورك
▁дэл
▁어머니가
▁মতো
▁Moshe
▁ઝડપી
Sapos
usait
훔
▁گزارش
▁gaba
▁madosa
▁hmeichhia
▁lejos
▁mamao
aneet
कला
vap
ཞེ་
▁влас
▁알려주
ंब
▁imọran
▁bisogna
▁apara
སྐུ་
upad
üsteem
mayın
▁រ
▁mgba
verdi
▁ɖɩɩ
ulated
ugna
▁maikutlo
onisi
▁არც
▁പൊ
▁murah
řen
新聞
▁bisalu
▁δημιουργ
▁ደገ
▁государства
▁rien
ffiċ
чув
▁אמרה
▁pove
▁시작했다
onadi
kapital
▁anvend
▁Eeba
▁ddyn
▁тота
▁zorunda
▁мувофи
ങ്ങനെ
шы
▁soveel
eber
વવામાં
vosť
engeta
▁шалтгаан
▁soso
▁Alzheimer
▁ekpe
▁tlhariha
▁usahay
ර්
ቂ
▁Mop
▁fazlas
▁કરાર
ավորում
▁സുരക്ഷിത
▁नय
▁로부터
하여라
▁gréasáin
▁Onda
▁هڅه
▁intéz
▁lecture
дво
▁ìjọba
▁ଆତ୍
▁састо
▁prisp
▁ietu
▁Көн
Proverbe
identi
▁nagtrabaho
▁aktiva
▁plag
wide
ITO
шлы
▁bisita
ົ້າ
ственной
lıyorum
문에
▁ಸಂದೇಶ
▁सुनी
▁град
▁estime
깐
▁molto
Fr
牆
iméad
▁Wewe
▁ئىشەن
vado
▁veis
▁sħiħa
oltura
▁Komis
▁paragraf
ilotu
kede
Lin
кел
▁натура
▁uttan
▁готово
▁ବୁଝି
སྐྲ
dies
ныу
▁അതുകൊണ്ടു
▁tubtob
▁шуморо
▁بازرگانی
▁gawo
▁চাহ
ക്കുറിച്ച
▁እርምጃ
vistä
▁తయ
▁aofa
apho
llll
▁mwanadamu
ⵛ
ಲೆ
▁رمو
▁அடி
▁կամ
▁ger
པས།
▁rad
▁ভুল
▁strany
▁Nature
▁speciāl
▁dov
3-15)

▁এরকম
ibh
様々な
▁మనకు
шергә
▁baraka
▁πρώτο
▁구원
▁ganz
▁benyttes
▁কম্প
ľu
hygg
▁jechuu
▁सटीक
atubang
▁तुम्ह
▁kontroller
▁લોન
▁односу
▁dard
сили
▁47.
▁interr
▁hjálpar
寺
▁upr
▁yaada
▁približno
▁кръ
পূর্ণ
▁شێوەیە
▁Навіть
▁Duw
odra
▁filimu
▁dilarang
▁helic
▁حدود
▁១
Ξ
▁anna
▁লোক
愕
स्ते
▁Тада
nen
▁바탕으로
▁Wear
jaka
▁साच्छी
▁դրանց
کنالوجی
▁חוק
▁گهڻو
fn
▁Kgoši
齢
違い
▁کیف
▁đàn
▁কুম
▁Nej
▁ти
▁oñemb
▁Schiff
▁πά
▁تۈپ
هيئب
▁izinkinga
▁laha
▁monro
▁Esaia
گردان
ishda
▁Associ
▁began
▁banken
▁fɛɛ
▁bade
▁ts
cipama
▁ವಿಶ
▁duen
전을
ititi
▁tervez
paay
▁finanz
ázal
▁сразу
▁sentirias
jeg
митов
▁Nneɛma
▁tuer
▁Yara
buk
▁gamot
▁যখন
▁uşaq
▁kimpika
ewwel
▁1930
▁imit
bute
znost
fics
Ġurnal
▁كېس
тя
ለች
▁ಶಿಫ
るべき
nomasi
wezer
▁ઓછી
:1;
▁2:2
iban
▁banal
▁लिखल
▁jalur
▁kongrigesen
蝶
▁tuviera
्स
物配
▁plein
رديلار
iklik
▁kaj
▁kla
▁рекомен
▁arazo
▁vano
karna
▁fecha
▁edificios
kasa
प्शन
▁pagalbą
▁입은
▁cog
govern
▁amino
▁heu
▁kadan
▁циви
▁továbbra
ilty
▁पनि
▁Ýeho
▁hahazoana
▁khethehileng
zaza
ện
▁Всичко
▁orod
▁cha
▁fior
▁maxangu
▁Λ
▁informu
▁ettiği
▁ampe
▁cacat
摆
▁Ես
▁benta
Isi
▁ľuď
ndu
▁китере
▁к
▁hivat
lanum
▁bhidio
amiya
▁ئاز
iseo
▁वी
▁ფიქრობ
▁mɔkpɔkpɔ
▁drago
▁Nzu
ཙམ་
▁ბთ
▁Tuku
▁Industries
▁liom
▁извърш
▁kabel
エラー
ere
▁आपला
ബ്
onski
▁वीडियो
rivit
ITS
娼
▁spesso
tuk
ánto
▁boje
ŋɛlɛ
▁Тэгээд
建
▁tám
▁изгле
ཉལ་
issu
▁Tá
▁వచ్చ
▁weka
iyar
រស់នៅ
▁bisogno
▁Multi
▁말씀
▁jede
体が
iday
▁5:3)
▁ኣሕ
unean
zinárod
▁taler
طانی
▁једи
idirana
▁ñau
မ္း
vende
▁अभिनेता
نگ
▁vadin
渓
▁부모가
དུ
▁Яго
▁conceder
▁matag
▁izskat
▁hubungi
ਥੇ
▁شناسی
▁kesehatan
▁suut
▁sarotra
ishengero
▁Pawlusyň
▁nny
tilira
▁paskat
لەرگە
▁ammu
▁것이지만
▁ubone
言及
qaror
▁particip
▁지니
▁pagkain
▁onge
▁divu
▁târziu
▁Kòm
▁Això
▁vaxtı
ṣin
▁goam
▁8,000
▁belirt
▁custas
大切に
▁wadde
้นะ
▁हम
▁అంగీకరించ
▁Moto
▁Kroati
▁انح
▁kadangi
▁Finally
▁wette
prin
▁96
▁خزان
▁kyk
▁rozumi
ակց
▁учеб
▁faataunuu
inih
atl
зів
ล่า
▁metodes
▁រីឯ
དེར་
▁izdal
▁하늘
Agus
▁vardı
쌍
▁بقیه
ළඟ
▁custu
ຕະຫຼ
▁ಇನ್ನೊಂದು
▁ສິດ
ственные
這些
்கு
▁Ucampis
क्या
▁Sannan
▁ਹੱਕ
▁danna
▁وظ
▁싶지
▁केहि
▁kpɔtɔ
endera
▁chinthu
▁թագավոր
orahame
衝突
lama
▁ຫຼາຍ
▁Sitä
dah
▁vēst
່ຽນ
▁vezető
▁ہمارا
▁ũĩ
▁SF
▁کۆت
▁Kimi
▁utus
amarca
▁reflexi
త్మక
▁ukora
▁հավատ
▁উদ্ব
▁দোকান
▁kolonumbi
▁cita
▁minyak
▁vidéo
▁শাস্তি
▁manesem
▁එන්නේ
▁restos
▁كێ
ыр
作用
õla
▁nezve
▁okufa
▁launch
Β
κτη
▁lob
▁toimia
▁Ovdje
▁prak
ಸಾ
odol
▁nenzira
angidwa
alenna
▁odstot
đe
▁보기
去了
▁ئۆس
▁nhớ
▁sentiment
的一个
▁misle
▁godinama
▁razgov
ਾਕ
tei
▁Comis
ていますか
▁எதிர்ப
▁rā
▁권
▁Manusa
▁आल्या
wszy
kunaqa
giling
▁vajadz
enį
▁창의
▁qazan
▁Vyriaus
▁буруу
▁save
keŋ
▁ᱠᱷ
인간
▁komõhisa
▁береді
ેલા
▁жазган
▁Pal
▁खुश
▁ярата
ਕਰਣ
▁listening
▁bened
▁친구와
▁adw
▁rodza
鹿
કારા
▁This
▁tô
hyɛɛ
▁ಕಳೆದುಕೊಂಡ
▁Madaxweyne
тоа
▁لأنني
▁जानता
▁imedi
▁taonga
▁kusaka
▁gars
▁elders
哪
▁previstas
iwa
▁kalintang
etri
▁자신
ättä
▁55:
ಿಸಿದಾಗ
▁Nangona
▁Qhititejj
▁ustan
{{{
▁হল
ān
▁وردی
▁דמ
▁oznámen
▁spijt
▁iú
▁قىلىنى
▁menyambut
▁ṣṣ
▁viat
▁확실한
红
atavo
▁осно
▁ဆိုလို
▁nokub
▁가능하다
룰
▁tie
▁વધુમાં
▁бурда
ovali
varat
セッション
▁Comisión
▁단단
▁நமது
▁سرمایہ
mağı
▁slutter
▁autorità
inia
▁uwezo
▁ئىختى
ãmbã
трий
▁kreativit
▁প্রস্ত
我々は
рел
▁neck
▁társad
▁áfram
▁fanda
okesha
▁аталған
▁znowu
unis
▁ezin
мәт
▁polític
▁үзләренең
▁Yani
uhang
▁mkazi
▁Torej
に戻って
▁دێن
cuer
▁tšoar
elji
▁тобой
洪水
▁Phet
unah
▁bewe
ợi
heg
▁punda
▁բաժան
▁റെ
▁жовтня
ýl
泽
hnyo
illseachadh
▁націона
pes
▁doja
▁ႁဵတ်း
▁Ýazgylaryň
▁voilà
ոփ
▁algunas
▁keberhasilan
amarina
▁inimesed
▁chho
名が
▁xivutiso
▁Икенче
wulira
ukak
▁brandu
▁SAD
이니
▁tatu
akibatkan
jjar
dote
▁meminta
vega
▁раду
▁Prom
▁ᱴ
▁تعمیر
▁의미는
▁wih
▁Consumer
рәм
▁yilda
▁elitsha
▁अंश
▁ύ
ството
ዀኑ
ერ
▁역
▁my
esed
▁недостат
hlelo
gethwa
▁모니터
▁столи
ίζεται
▁ezeket
▁imá
▁érte
tuo
▁Burg
▁islla
▁traff
isuuden
レスチナ
▁shakawn
▁વિવિધ
▁боя
自動
おります
▁섭
▁यत्र
▁šią
神様が
▁Zač
ла
▁estrenu
▁дөрес
फे
▁отново
▁roghna
▁കാര്യത്തിൽ
▁ricorda
▁Siswa
▁사랑이
▁vals
▁Connor
▁libert
onio
området
лышка
▁સૂર
▁192
▁tuy
गे
▁Jehovas
ács
antau
▁mākslas
▁Հայաստանում
▁mintak
▁nahibal
īst
▁मेड
ң
▁један
▁Хан
▁orainn
▁modelu
ɗɗa
▁Weather
▁filtre
▁أي
▁Rh
▁щи
▁болгондо
▁csin
▁yabancı
ན་གྱི་
조건
ីវ
▁ize
▁тон
நாடு
しましたが
▁nsogbu
▁ದೇಹ
อน
्वे
ຍິນ
▁বুঝে
▁details
ġ
嘅
▁нашето
▁Ntango
▁Ποιος
▁Yàlla
པར་མཛད་
▁iloa
▁Маса
▁অম
ɣen
▁mutha
დროს
ርካታ
▁অক্
▁στον
▁perlawanan
▁өч
ᱵ
▁1:7,
▁Sɩ
ohet
▁LL
imbu
isalakan
▁també
xía
asajj
▁departamento
▁نسلی
ແຕກຕ່າງ
▁hahahahaha
▁Joh
stin
▁wazazi
usuka
▁fri
اندير
▁ئەمەس
ిక
ansang
▁səs
▁takkan
▁Guatem
നി
▁rămas
▁fortale
▁уник
▁2005,
ད་པར་
ħlu
▁fanapahan
cana
▁टु
antaa
▁ເລີ່ມ
▁fivar
wydd
δρο
ledi
اہ
рӣ
▁قىلىشى
▁pics
▁আমেৰিকাৰ
Рим
▁ملے
▁ਜਿਹ
▁Ακό
ミニ
贵
ול
ୋଜିତ
ğinin
▁ตอน
▁Γερ
eneem
▁sivi
igsinn
▁있읍니까
▁айырым
▁degan
▁either
▁kũsũ
▁niteny
▁γε
▁սպան
▁ንኽት
ནན་
頭に
▁nulungin
•
უტ
▁hakkab
ndin
edlaethol
▁මහින්ද
▁tsoe
▁awng
▁Kristotɔwo
▁2003/87/
▁dibokeng
▁niveles
▁medlemsstaten
pasa
▁ಯಾರು
▁animais
▁벌어
ཐེབས་
▁dyondzaka
▁кешен
▁кылырга
▁amal
▁육체
artista
▁shafa
▁SSD
▁որոնց
▁二
▁અર
▁हेर्
▁санал
▁lipatlisiso
puy
▁lämpligt
▁Tìm
India
▁ko
▁ಮುಂದೆ
▁görkezdi
ларда
▁González
▁ял
▁labwino
fiċi
▁tinch
▁مګر
▁Dambi
ykun
প্টে
▁konna
▁beskyttelse
ግዚአብሄር
oleran
▁cibé
ڌي
▁ngalo
वु
koi
▁pelong
▁എന്നിട്ട്
騎
တွေအတွက်
▁kahon
▁bot
▁vyote
▁जाएगा
▁わたしたちは
▁idora
▁asist
▁ngàn
▁איזו
▁mého
▁kayong
သြ
alme
äre
ຄືນ
▁gấp
engie
▁until
▁нејзиното
▁چیزه
▁vašom
▁הבר
▁qizi
ана
Vai
▁Bera
শেষ
と言った
мята
▁일을
되지만
ⵓⵏⵜ
▁സകല
▁nozīm
▁Kemi
biliya
▁fampandrosoana
▁dezelfde
ウイル
אַרץ
▁❤
▁Λί
▁Wob
▁przypadku
逾
▁претседателот
గి
▁વૃ
▁švent
ଲିସ
▁مقاب
هەم
▁күш
▁جلدي
ຊ
▁የማ
তে
ረፈ
▁batez
▁shembull
▁fusi
▁vết
するよう
▁이루어진
▁болести
▁doświad
▁besoek
▁ලිය
▁depués
▁messo
▁Муса
နိူင်
▁қалып
▁aloha
▁motegno
▁ganas
पिंग
γε
▁dinhmun
מרי
▁ძირ
▁הל
ഇ
ની
▁지역
সকলৰ
▁nenela
oline
arap
ysgol
▁Gene
▁этим
▁જેના
iscono
▁Погле
engxaki
▁diferència
▁kelia
İn
▁Waɗannan
▁مشر
ドルの
шно
▁antswisa
ಂಬ
ច្ប
▁Zvak
ರ್ಚ
▁Скоро
ниш
▁જવા
▁golaý
委員会
فقت
▁બાદ
砍
ũng
בש
▁கேட்ட
▁seann
▁professionnelle
▁لێب
▁အစီ
▁lartë
▁sebel
تىدىن
▁zaizu
▁ebusuku
▁abamu
▁dist
ҳад
▁위에
ველ
▁close
助け
▁ligger
▁булы
▁Theod
رك
▁sasany
▁chiyembekezo
vy
▁χαρά
▁kimwe
▁kaler
▁besliss
▁Stella
▁సూ
▁kirj
▁dB
annen
ღვ
▁bởi
iringa
▁tibo
vett
▁Сто
▁kaugalingon
に加えて
▁Neu
▁akola
▁기능을
▁skat
▁sababaraha
▁kutus
त
ተኛ
ႁႅင်း
མི་འདི་གིས་
▁Dong
▁kituufu
▁nozī
大衆
▁iS
▁Isa
yakinan
ура
▁기름
быҙ
▁wong
▁käytä
率
waneng
▁слово
▁ਦਿੰਦੇ
ibbli
▁skaidri
ogbo
▁بوپ
dop
▁دابین
тқару
▁വാർത്ത
্যের
너는
▁þýðir
娘
▁பூ
▁tắc
▁leeyihiin
▁ཁྱོད་ཚོས་
ኒቨ
दारों
▁පවු
برا
гон
▁বৰ্তমান
▁favore
▁bellu
▁شر
pɔ
▁hissedi
بران
▁보안
▁biti
ুক
▁দেখা
доо
ობით
▁1996,
▁kabab
▁ha
ங்கு
▁section
воря
▁rời
▁ئاب
▁kahoy
ędzi
▁fifidianana
▁yoki
▁KU
สุ
▁cigar
ŏ
▁വിചാര
τυπ
▁hišo
orow
ለቲ
▁kuring
▁яратам
考虑到
▁prišel
ciół
ព្យ
ಾಷ
▁ئېقىپ
▁produktet
గిన
▁пеши
▁કારણ
▁patī
安
▁osta
▁које
wischen
▁wawe
▁umiddel
ustili
▁jarraitu
▁ahorow
mate
▁μι
▁Ents
▁okumanya
▁ମୁମ୍ବାଇ
▁Бас
▁ее
yis
▁ҡо
weet
▁ئەپ
▁модел
▁نستطيع
▁bilder
aruhi
▁numeru
▁poma
▁Bayibuli
▁okwe
▁neex
▁Deuts
▁Nummer
▁Hơn
▁malit
▁जाला
▁λόγω
uhana
▁тулы
▁petit
emissjonijiet
▁duket
▁bereid
▁odbor
wch
▁akòz
िं
▁神
opera
mong
▁chiù
rũndã
জয়
▁បុរស
▁Aji
▁Endla
▁zde
gün
▁unogona
uhl
▁Zdrav
▁నే
▁высо
нча
ekkani
▁የብል
▁veľ
▁fä
▁istud
▁నాణ
▁зема
বছ
▁leszek
င်
▁२५
▁kracht
▁경기를
▁дүние
▁거
趕
▁bármely
▁бастапқы
▁했지만
коло
らせる
▁afɔ
ဝူၼ်ႉ
لیس
▁istina
▁താഴ
arek
に大きな
གཞ
▁stem
▁שאתה
▁tambahnya
▁නමුත්
▁kväll
wave
ethembeka
ieleɛ
биздин
▁telles
▁rur
neach
▁recomana
ותר
▁созда
▁tekshir
σου
▁погу
▁uhambo
▁erabaki
äta
ចូលរួម
▁විස
sagun
▁nakuvay
▁patēri
구
▁ڵکو
出し
ровка
ондо
erewe
▁itulah
▁activities
层
▁අමා
▁पर्वत
ymp
▁kamupani
ဵတ်း
álně
人在
▁जुलाई
▁Раббың
obbligu
வி
▁дэлхий
▁ব্যস্ত
нению
organiz
と思われる
▁ሙዚቃ
▁συγκεκρι
زیل
Ru
કની
▁ამერი
اعات
Wan
žev
▁grâce
øg
ίες
影响
▁hkying
▁ምጥ
لەردىن
▁Анда
arrak
▁2,2
ήσαμε
▁agi
gaina
▁tina
чност
ekä
▁sahiptir
çado
▁រាល់គ្នា
▁riesco
▁اخ
▁mabapi
▁გავ
▁muvofiq
▁Gail
ዣ
▁역사는
▁туро
တယောက်
▁أوه
▁fiscal
▁jika
▁และเรา
▁näh
▁perhatian
▁안에
▁invas
ardo
▁વસ્તુઓ
▁bakos
летт
▁gerast
▁Colombia
لهم
▁pasokan
bene
▁دارد
▁Iý
▁виклю
ansay
wór
▁harusnya
almi
àmbit
▁marena
▁Wasser
▁профессиона
▁ippreż
▁брат
▁مطابقت
▁Ibr
▁બદલા
partijiet
▁تریش
▁æÇá
논
▁Birds
▁einhvern
▁Maw
âsi
▁teknolog
▁thoát
▁presencia
▁ngilang
♬
▁ແກ
▁Потре
lığına
▁pod
amena
▁rilas
▁lies
▁Сове
▁هەموو
▁літа
▁bắn
ладым
ൊന്നും
πων
▁għaliex
აშ
▁noši
広げ
▁путова
▁jogo
▁pensava
ətdir
▁ఖర్చు
▁բիզնես
▁بدم
▁Фак
死亡
▁생각하지
▁ngantos
▁rungula
ўлі
▁ہم
▁1:2)
▁қарамастан
▁예약
xera
▁Kiene
▁sesungguhnya
▁videti
▁rámci
▁navrh
annanaro
orld
சு
лгән
▁Dlaczego
▁moltes
idayang
▁doontaa
▁eĩtu
▁ayï
▁അരു
mdi
ገብረ
hoch
었습니다
▁Haide
▁pige
▁ക്ക
▁Espero
▁Ġ
രണം
▁طورس
▁ስል
▁साबित
▁sedangkan
ù
इ
ogun
པའི་གནས་
meich
▁ئایه
▁ямар
راء
лід
드리
▁क्रे
әмғи
yrë
,[2]
ysyllti
▁sprawę
ウンド
ulta
ማሽ
▁ઉચ્ચ
zote
▁εσένα
▁Templo
▁போட்ட
▁μεγάλ
സ്ക
▁hit
▁ব্যক্ত
wl
▁тізбесі
шысы
▁agency
▁ocisimĩlo
▁üçün
▁Agency
idding
▁lufu
▁sèt
ibini
▁yno
▁کررہے
gn
湧
▁jinoenyoe
▁Cómo
▁finansu
▁tabang
▁ኣመሪካ
▁ਦਿਨ
▁taɓa
▁విషయ
وص
▁míawɔ
uwaé
▁sealladh
▁stejn
▁ido
▁manera
▁يوخ
ंति
▁stră
▁helyre
▁bwinobwino
zės
▁komentar
డ్డ
ፋት
ussia
ις
ës
šetša
▁চুক্তি
▁பி
▁odino
▁mbua
нием
▁onver
▁Kemudian
▁Vuoi
▁ፖሊ
▁laiti
ánì
odus
▁saist
ັງ
▁ngama
cił
ជន
Hebre
enice
▁skutočnosti
orka
▁реда
ofela
Parti
▁kwizi
amsanga
▁διατά
▁đẳng
▁случае
▁sebrã
སྟོ
正常
▁ଯୋଗୁ
▁आउट
▁päl
▁ig
▁indfl
▁lq
▁2,000
▁بیٹ
▁pozná
▁meeles
▁почта
▁programma
ຄອບຄົວ
▁laura
▁câ
せ
lariga
უდი
▁অভিনয়
ска
何が
kati
တစ်ဦး
il
▁облик
▁հանր
推測
қында
▁முய
に従
▁১৯
ложить
θεια
lő
▁ਸਵੀ
▁accep
▁ریکار
চৰ
ñapatakiw
▁తండ
ðurinn
:6.
▁ཁོང་ནི་
▁pore
ված
assistenza
▁vakadeitaka
▁dostupné
ъне
▁nb
రల్
▁Bris
តែ
▁ערשטע
▁Жоғары
ಸ್ಪ
▁sellist
▁kamva
▁ਤਰ੍ਹਾਂ
orah
▁Anke
atola
κ
▁hlan
J
▁tletšego
▁Life
▁lens
▁compris
ଥିଲି
▁mauta
▁באותו
fikiria
밝
▁Beny
▁1880
ಭೂ
▁səviyy
ଂ
بێت
▁vyž
▁1999
▁првог
eriweke
▁ఉపయోగ
▁takve
ordun
▁topsh
▁ସମାଜ
▁komencis
zigirwa
▁ధ
▁әйтте
▁comunitat
▁oldu
र्
gyim
▁tahan
▁қар
ĩtie
ässä
▁ịh
▁신중
▁전기
▁천천히
森
▁limita
Jes
▁gaç
▁ناز
▁kplii
▁ልክ
དེ་རང་
öhrat
▁agwa
▁ಶಾಸ
▁Dav
▁hemb
▁ကာလ
▁ཁོ་གིས་
мш
тай
▁չէր
8-10)
祈り
▁Isor
▁Parlaments
ĉas
▁permainan
▁Problema
haí
▁mudar
▁nonotsha
▁ଭୁଲ
▁rhwng
անիկ
▁Интернет
▁kotaé
▁булмаса
▁ممالک
▁곰
вной
▁blu
▁iṣẹju
▁konse
▁जउन
▁birgalikda
▁értel
▁göster
▁рәхмәтле
ება
ဗျား
▁મૂલ
ེན།
▁कैंसर
endørs
▁panon
▁huấn
▁tram
▁วัน
腐敗
▁voz
moni
▁kapado
懸
čanja
▁Потоа
▁সম্ভাৱনা
▁înch
▁distancia
▁angkasa
▁olanı
▁žao
▁ਛੇ
umbini
▁Այն
uncane
▁Arun
éncia
▁Külön
▁term
▁アメリカの
▁abstr
lafen
▁dibenarkan
屠
▁pomaga
Mp
མགོན་
laleho
นั่น
иста
▁እንደም
▁сонго
▁ముందు
གི་
▁캘
▁kuijiia
า
▁Ener
úť
▁استعداد
▁thekga
lereanya
▁చూసి
▁faamatala
まれた
ሓ
トレー
▁बनाई
▁ווא
▁move
▁ماڭا
baza
ábbi
▁һаҡ
▁grupu
▁escolar
▁ehansi
▁ktoré
▁শতাংশ
штары
agio
tsary
▁жедел
▁ɔdii
놀
▁keess
▁marknaden
▁myö
shtë
▁اړه
дэ
lia
▁βασ
ခဲ့တာပါ။
▁duniyar
བར
▁항상
▁ostr
▁nebūt
▁uman
▁active
▁храната
▁הלי
ಲ್ಲಾ
დარ
uput
ením
▁Really
▁ਟੈਸਟ
ंत्र
entar
▁задово
पना
▁일곱
▁نکال
ighdeán
▁Bisha
▁nyau
روز
▁accés
▁प्रस्तुत
فترض
猪
öz
競
দিং
▁prosés
ræns
ὁ
যোগী
གཡ
▁popular
▁ເບ
▁attitude
▁تعلئم
▁خشونت
▁uczy
ineet
▁wako
▁ଠିକ୍
ugas
▁음악을
nebu
▁devas
င့္
▁umphumela
tues
▁sovra
▁parasta
liwa
▁mux
โ
▁igra
网络
▁herri
▁procentu
قاب
▁ترجمہ
दुर
▁saugumo
▁নির
veriş
▁savaitę
▁november
▁Israele
▁લોકોની
tajām
핑
ک
▁night
▁Terus
amberi
ലോ
▁ripar
足
មើល
dien
▁प्रमाण
▁Dewa
ਚੇ
▁hansı
ријата
結
ունքը
▁Sel
という言葉
▁претпри
valve
▁ያለ
▁proizvajal
ының
▁ઝડ
▁activo
ชุม
ចេះ
▁ule
▁mijn
▁ынты
れない
▁luogo
▁pisang
▁entreprises
▁altres
▁هستید
▁aɣ
féle
▁Juj
▁Вави
▁musliman
جيل
▁comasach
ëta
▁பெய
ρει
▁포인
▁Taryba
▁regolamento
▁त्या
▁nsa
▁skuto
କ୍ଷେପ
▁wʋ
▁Spi
ون
▁Ieu
▁докумен
▁توضیح
▁daya
▁dogon
▁ⵅⴼ
▁بیشترین
▁امریکا
▁alajjpach
▁Ô
▁اوشاق
▁որպեսզի
▁сельского
zju
ческого
pianatra
▁Tp
▁نقطہ
▁ئىدى
edt
▁bukti
▁olwo
▁ngakula
ئیه
▁yaw
vangelo
▁kulħadd
▁залі
▁salgs
льни
▁زوو
▁గుర్తుంచు
▁Kane
▁kuling
annak
▁reguli
imihetsika
▁shkruar
▁mellores
ኦት
▁Lakin
▁kolinga
▁ਸਭ
meny
▁ნახ
要求
▁liikaa
ئیگی
▁situacion
ເກ
▁telek
ڭلارنى
▁емдеу
xal
wagwa
▁گوید
ເຈັບ
▁ilustr
▁министр
▁Eropah
▁dažād
▁můžu
hré
▁mingi
चारिक
▁badaa
▁sąlygomis
▁चर्
▁האָט
EFA
▁viik
▁Sadəcə
counter
▁anne
ཟས་
▁europeu
▁तरीके
teg
ünde
▁hwed
▁ρω
▁lling
ནི་གི་དོན་ལུ་
▁chaypi
▁precisas
▁صالح
བཞེས་
▁ən
▁تاری
زام
▁pahukkungeng
▁ധാര
ୀନ
▁institutioner
▁1,
▁ເທ
▁Brasi
▁khongela
▁bilmir
▁নিজকে
▁негизде
ávanie
ணும்
▁талан
lek
▁lahkawng
▁publica
▁kombet
anten
ongozgi
▁yaqaan
▁Vamanji
rega
рования
の一員
ness
▁وض
▁List
▁yindlu
ريشن
irect
▁Ձեր
▁ступен
▁citas
▁Κοινότητα
но
▁diňe
ліў
គាល់
▁akor
ུ།
▁тәҡдим
wyj
▁վերաբեր
binc
ระ
▁grø
हे
cký
▁ombembua
▁ýygnaga
▁հավատում
▁Daha
ющего
ወና
▁পরিস্থিতি
▁yvá
ିତା
▁πολιτικής
▁ware
▁ਬੋਲ
▁ska
▁alà
▁بخو
▁ibsu
▁විසින්
վելու
▁finanso
okko
▁pfuka
▁mykje
▁बरे
atsioon
ensonga
ાળો
▁åtte
▁yini
cet
08
mord
दिष्ट
▁вашої
▁اڪثر
▁Nim
▁закін
▁yn
ទៃ
▁часта
yndan
ða
▁mungkin
vale
▁erit
▁אַלץ
有可能
▁elilongiso
▁spra
は無
▁lobe
▁resultater
တႃႇ
ئدمت
▁ಅವಳ
▁elettroni
あなたは
▁zinga
रिया
飲み
▁kumbidila
▁چاہیں
▁Όμως
▁दुवारा
つける
ppar
ioed
▁わが
▁برود
どこ
▁والدك
▁ničesar
▁котору
▁maah
წ
▁लोकांनी
▁avtom
▁بەبێ
েই
▁dituzte
pɔw
▁sono
ന്ന്
▁இலங்க
ۋ
▁egongo
▁पैदा
▁Уг
▁たく
▁putu
▁संश
▁تھا۔
在其
▁observer
▁taj
ғат
真理
▁sangat
となっている
▁кух
▁הזדמנות
▁Toc
▁hovor
μισ
▁simula
ambisana
ministrazione
▁өйрәткән
anareo
▁مقاصد
▁chotani
▁bụkwanụ
▁tus
▁darījumu
▁Britannica
▁တု
▁कर्म
ýäris
▁통
▁diskr
▁kääc
ալական
あります
▁Hausa
▁framework
▁ца
▁ምኽንያ
旁
▁grand
▁digo
uca
▁forl
несува
▁Johann
▁ہوسکتا
▁sizden
मध्ये
ופר
▁Јевре
гай
▁제임스
▁ที่
▁8:2
indan
bant
ẩ
épe
▁רעז
gular
▁napja
indows
nīcas
ዕለ
▁meuhadab
することを
▁ಇರುತ್ತದೆ
нацца
▁hónap
ကြီးကို
▁laaf
大変
▁உறுப்பின
▁ಅವಧಿಯಲ್ಲಿ
이사
▁zinyake
ċerti
xarusti
▁Mmo
痛苦
▁nyikela
اسى
▁podrá
▁காலை
▁ଯୁବ
▁Adri
ብል
▁interpreta
▁berarekin
▁барлык
щих
▁wyp
ઓનું
▁Lor
▁maahan
你们不要
▁гурав
▁четке
ووی
嫉
лында
▁పుస్త
▁pamwamba
▁ପବ
orou
▁Крал
▁rem
宥
▁ခါ
ይህ
▁žije
▁өстен
ਲੂ
▁돌
བྱས་པ་
ખ્
▁importanza
メキシコ
▁11:1
ሉ፡
▁palyginti
feh
4,
▁Winter
▁brud
▁bitim
ানের
▁ニ
allada
▁жарам
ებლ
▁kadhi
▁Tany
▁Zã
▁inf
ື້ອ
人で
oub
▁onyeisi
▁свя
تىگە
ौ
▁Stanley
urirwa
piqa
ilable
▁စိတ်ကူး
▁Даниел
▁агар
ــــ
▁위험
▁Tratado
▁ווען
▁miste
gana
gò
▁SAL
gaver
▁tombe
▁кылышы
▁grijă
amanji
▁sąraš
ောင့်
▁bjale
▁Teori
▁jimb
▁देखभाल
▁저희가
ױ
յու
▁бизни
▁asy
▁৪০
▁አቶ
▁виж
▁Theme
ཁ
▁maja
вач
kaa
▁həyat
iniame
▁정도는
▁тарт
Ө
利益
病毒
▁kolofeka
potopotoga
bira
▁njagala
सां
மேல்
▁golpe
▁:4
▁عهد
▁iegādāties
▁அந்தப்
бија
▁għad
▁एकमात्र
▁ब्रेक
▁jɛn
indieu
▁Ni
ኮኖ
▁zimene
▁yèrè
했고
▁14%
lijenti
ངོ་མ་
▁Groot
ăn
▁.......
▁对
▁tokius
intahan
▁verən
རོ་
感情
▁නිර්
▁wettunna
final
▁tix
ၺ်း
IMO
▁éch
▁ນົດ
的主
▁თა
▁tën
牛
▁enoa
▁Відпові
▁migawo
▁Тәгалә
psis
zọ
란드
▁সংগ্রহ
ingak
▁combination
மார்
▁sirib
нак
▁mëny
▁Rö
znik
▁өйрәнү
ढे
antaran
▁zurück
atiga
чк
otohanan
▁Cash
प्रिय
▁yango
と言います
▁ඒ
iva
atura
దారు
ungileyo
▁색깔
ayahudi
vosa
лесі
ストレス
▁jash
ர்களோ
utamo
▁Ureuëng
кол
▁غەي
ogulitsa
ңызға
ርን
▁mazali
▁lui
▁জৰিয়
Us
▁bincike
▁10)
▁sét
▁ndat
sics
▁უფ
▁sépar
မှီ
▁ਪ੍ਰਸ਼
▁געשע
▁daryti
▁ariannol
▁Dievu
▁போர்
▁kokku
▁Usta
▁μιλήσω
witi
ماقچى
amina
sasa
▁anefa
▁ganar
ombelon
▁linaheng
wĩsĩ
▁pö
▁남을
▁الفت
տես
▁स्ना
▁Îi
▁kiawa
▁detal
▁varēja
▁Dương
▁پرس
▁жене
šnega
鉢
▁buổi
▁એટ
ரக
▁αντι
▁한번
▁crees
▁belirli
▁خوشح
גיד
▁जीवनमा
▁অত্যন্ত
ılacak
▁pfuniwa
▁சுக
▁ħames
▁tsamaya
▁bardziej
▁ଆମେରିକ
▁なお
どうか
▁ndax
engeli
▁ահա
Yupela
▁vü
▁gagana
imy
▁느끼
▁skú
▁අදහස්
▁վերահ
藤
ampis
カメラ
▁Unsaon
▁এর
▁ums
▁bita
cuk
▁मु
akati
▁ئۈچۈن
▁それを
ัต
▁fyw
▁zvokuti
▁nanumi
▁그다
墳
ཁོ་རང་གི་
▁janirakiw
▁anderledes
▁dø
әтте
▁lakt
▁సామ
üst
真正
▁int
▁avanta
▁zařízení
▁ettik
▁1:13)
あれば
▁jisc
өст
ាញ់
▁үүс
elod
▁Jaguar
Kumitat
▁zoipa
▁Flug
Į
▁serà
▁franc
цот
▁nūs
тарына
きました
inoj
と言っている
▁dipakai
ikä
াৰত
សួរ
高価
▁burúkú
▁ráda
otsi
וני
▁Process
▁մօտ
վեն
્રુ
▁Wasu
жење
▁tshid
▁ynam
варя
起き
▁сот
árny
mets
▁аткары
▁سلامتی
▁Nike
▁banko
▁1941,
ատար
▁berjaya
に進
වි
▁president
▁ayogera
▁Adele
▁Dette
тил
▁bib
▁nukún
▁Quem
ettet
▁גאנ
▁Ngh
iec
آورد
상이
▁four
▁zvakan
ⵓⴽ
▁priložnost
▁dez
▁співпраці
लों
huda
▁نكون
ngan
を始めた
▁accomp
▁Mnogi
▁pwen
▁meled
▁degildir
▁afẹ
▁matlamat
▁સંભ
▁kuzinga
▁gov
irler
▁ਪਵਿੱ
thni
18
ლე
임을
▁Шуннан
kov
貿易
▁zjed
▁омӯ
▁zran
perador
leruri
ំផ
▁بازاریابی
integr
▁domain
แถ
▁alimwi
▁ảo
ți
▁retí
▁Pig
칵
珊
▁бындай
▁Veit
Bék
继
吁
ਦੋਂ
▁kespiritu
▁embargo
proses
itim
▁üzərində
▁mojom
▁ชั้น
▁boip
▁კომპანი
인
▁gorau
▁john
▁ярих
▁સમયે
▁biçimde
...:
▁eest
▁pɩsɩnɩ
▁ඕනේ
▁eyano
▁ઉત્પાદન
▁приоб
▁மன்ன
▁ਊ
▁አይደለም
ақ
▁جهيم
▁ሰብኣይ
種族
▁සැ
ātos
▁esikolweni
irte
ກວດ
јани
ಿರಬೇಕು
▁jogħġbok
▁فرص
▁instr
▁ክልል
ཡི
▁yisi
korp
baaw
▁nn
мати
▁jaf
caɣ
▁dobu
糖
▁Verse
▁atvie
▁odhod
▁trees
ungul
▁Acordo
ካከ
▁ስለዚህ
▁Pitt
litaka
▁ularni
čči
▁মৰ
▁tarzda
▁mõlemad
▁chini
▁gören
▁빨간
▁Järg
▁auk
▁cũ
▁acïn
▁ٹی
раз
해야
▁persekitaran
1-3
▁Эдгээр
ୋ
sicu
▁മറ്റ
▁liphoofolo
▁poles
▁количество
үүр
▁asupra
▁jež
▁ngamnye
▁shá
▁levar
▁ஞ
այն
▁सम्
uree
クラスの
▁அனைவருக்கும்
▁reguliavimo
▁svētku
▁তারপর
▁gjøgnum
กระ
▁فریب
ikina
▁կն
chean
▁grāmat
▁dibaca
09.
ungo
痛
▁아무
▁considered
▁Забур
▁ሰዎችን
▁პასუხ
▁Starbucks
▁ڕووداو
▁begini
▁tatăl
▁tapicha
▁Beliau
لهن
āda
үндөгү
wns
▁margi
▁Laut
წი
▁תמ
▁ελέγ
anaidh
▁მერ
▁enz
iniu
nyata
▁Kufanele
▁endliweke
wag
▁qase
unget
▁▪
ίζω
շ
ũmi
▁முயற்சி
▁Pensi
▁kunoita
кру
asional
ଶୀ
▁توصیه
itza
Mwana
لقي
▁bolmak
િસ્સા
▁bilih
▁direga
ブル
AA
▁ненави
▁auch
ཚོད་
mɛtɔ
▁నమ్ము
டியும்
▁ບໍລິ
201
▁هز
resi
▁Feld
▁Thursday
фі
▁muuda
▁Asso
irich
▁mante
?"+
▁бында
រៀន
▁ಯಾರೂ
▁కు
▁ɛvolɛ
▁sath
▁cuti
indlu
▁três
খ্র
▁바람
▁biala
▁なので
▁malamumalamu
्ञ
▁Guinea
カウント
▁udělat
вайте
▁Quote
▁boloke
▁identifis
ਖੀ
стина
▁어제
▁vā
▁escape
▁колдоо
▁ଜାଣିବା
▁kehidupan
▁민주
Эй
هەڵ
ੀਨ
▁ceļa
rett
न्त्र
▁teško
▁erald
▁اوس
opfuura
▁mabe
▁byose
jenih
▁المر
▁10000
▁역사를
ydia
▁αλλα
▁Dó
▁wanuna
ၢၵ်ႇ
▁ür
▁данни
inné
▁ঘৰলৈ
เรื่อง
▁ඒත්
cori
▁არს
yag
▁kötele
▁Jee
▁ш
түче
▁күндөр
▁አስተያየት
▁trob
▁దేవుని
▁nĩwĩ
▁은퇴
▁പറയാം
▁گاڵ
▁volwas
▁Ou
固定
▁которую
▁tuber
gag
▁balingi
ାଣ୍ଟ
▁Nói
▁نظم
ਸਾਂ
íràn
▁दुसर
ገረ
▁siebie
▁Mon
akee
具体的に
▁imant
▁asent
bagone
▁yikuavo
nite
▁ték
▁يم
чити
▁ukunga
ობდა
▁förstår
▁Aua
▁išlaidos
▁qeto
▁선정
▁dic
▁عملکرد
ulwe
▁rèkko
▁Ê
▁aiga
ებისა
▁Мой
▁leigheas
▁wiel
дерди
▁அவ்
ርያት
▁случи
▁oblik
▁Йәһү
úda
▁whakapai
▁qulay
Jy
さんが
罰
めました
▁bistand
▁Lelu
▁pagbasa
jetno
맹
▁ambazo
▁nuestros
▁83
불어
ਵਾਦ
▁Espera
nosť
▁kikin
▁។
amientu
▁पिय
್ರಮ
▁keuse
ङ्ग
ebɔ
んですね
▁trick
ຫຍັງ
▁gyima
▁болы
▁रे
▁को
νή
▁iston
▁sabia
停
▁dilin
▁слі
▁familiar
ມື
▁funks
▁flic
imela
orju
beda
မို့
▁दु
▁ìlú
▁веб
▁jichhajj
▁하셨습니다
▁išg
һенең
▁Mūsų
insa
ענ
ювати
ılacaq
▁ulih
चरण
য়নো
パーティ
▁chiwerengero
ammu
▁aquestes
▁चुप
шыр
▁Jiz
▁મજબૂત
▁ಎರಡ
▁इहाँ
gamit
ကျွန်ုပ်
ခါ
▁Мисли
포츠
béèrè
▁ചെയ്
لیلی
▁ବାର
ಘ
▁제도
▁ሓላፍ
▁yoo
▁дитина
▁zat
mişti
小さく
▁समी
այ
ïk
▁lái
ਣੇ
▁atm
▁부르는
預言者
níctvom
▁tiosan
▁dihasilkan
▁Dësh
▁clàs
ayamba
፥
སེམས་
▁Aix
▁शीर्षक
▁teb
▁põhjust
▁በበ
▁తెలియ
үңүз
ուզ
▁okr
▁писто
▁እንስሳ
▁nuw
▁དྲི་བ་དྲིས་ལན་
▁ntango
▁대화를
ondedwa
ፊት
▁Geçen
▁gjør
رق
フェ
▁ovoj
▁nuestra
뒤
▁측면에서
▁ilma
트는
▁Wengine
لەن
▁meniň
ұл
▁Ayrıca
▁Дай
▁Nechci
達は
▁gasolina
▁Living
▁Ovit
ėjus
▁enough
▁faiga
gia
▁regional
▁bung
▁anest
yad
▁تور
海の
▁මම
▁début
▁사랑에
▁वर्गी
▁heyecan
▁eyikeyi
▁adamlaryň
▁ҡарамаҫ
▁notific
▁suami
▁كردن
▁परिस्थित
▁채
▁nanggroe
▁يال
odată
▁పో
▁praktek
▁olmalı
▁dollari
အမျိုးသား
▁laet
▁힘을
▁használja
▁ਸ਼
ردگی
στήριο
ños
▁közösség
▁πολυ
▁uczest
buda
wetie
▁Venezuela
add
▁настоя
▁nombreux
▁bhfe
▁teks
ལུང་ཕྱོགས་
▁haft
כב
▁tiềm
▁وٺي
▁میڈیا
▁సంతోష
▁часом
жио
▁godhe
▁incontr
된다면
▁mandu
▁ಪ್ರಕರಣ
▁ಹುಟ್ಟ
▁දෙකක්
▁बारी
babwiye
▁місто
ۊ
konsum
▁sokiya
ิ
▁Saina
▁Chung
▁ຫ
نوان
▁یادداشت
▁conxuntu
▁avuto
▁బె
做法
▁সরাসরি
▁بنانے
▁آتاسي
▁утвержда
▁dicendo
▁шука
▁aladasyny
▁नवंबर
ravo
▁cxiuj
اپىر
▁Israa
▁പരിഹ
▁ચૂંટણી
▁했어요
▁семейство
▁Táimid
lė
▁besoala
舊
▁коль
ких
PP
▁Chik
kinjawng
▁dhaheen
▁ਲੱਗ
▁úl
ەيغەم
เลย
▁molim
を指
েৰ
▁lido
leź
?!
議題
▁வசன
றுத்த
▁करीत
▁రోజుల
💖
▁geti
会合
▁സ്വന്ത
nka
▁કહે
viana
▁আগতে
abag
▁amee
▁හඳු
༠༠༠
vvə
ishu
▁popul
▁នៅក្នុង
▁velika
▁doktora
▁lopen
zyko
haere
▁বাক
▁کلیک
▁Pascal
▁mohlolo
뱀
isies
▁يک
努力を
▁까
――
룻
▁berria
▁kaga
▁نفسه
ɣɖe
▁chair
▁áður
▁Ms
여
שה
▁tug
▁wün
▁تۈز
▁አልነበረ
▁finančne
▁لیست
▁notiks
▁suyt
判決
ljene
▁olhos
ମେଣ୍ଟ
▁दूसरों
▁ular
▁setembro
လိမ့်မည်
▁müs
อุ
▁garu
सर्व
wesibonelo
kår
▁ഉറ
▁simbol
▁Impos
▁ମା
▁maklik
لائ
▁Maan
▁સુરક્ષા
▁1969.
▁ولا
▁इब्रा
ראי
みましょう
ഗ്രഹ
▁bij
colate
▁মুম
▁olom
▁съществува
▁tashrif
cíu
▁liyaka
▁Toyota
▁पहुँच
▁hkung
▁prêt
▁ઘણી
ōlō
ອິດ
kilo
▁zne
▁Akolintho
▁moks
▁قلبی
▁līguma
▁رباره
▁হাই
Ł
▁дурӯғ
▁отде
fumba
▁অধিক
muigh
▁razão
토
idka
▁Hilaha
መር
▁කියන්නේ
▁כפי
▁ڪها
かどうかを
доў
▁Því
▁mirties
頬
▁මැර
akath
▁berör
▁ભાવ
▁کسانو
▁solid
vuriwa
▁тыры
γονται
▁timu
▁popele
▁citus
ஜ
زة
▁nepar
▁5:4
▁kuns
▁sprend
削減
unaga
▁dym
heveru
▁मश
achail
elerde
▁aytıp
▁Scotland
▁kateg
▁vidaus
▁projectes
▁francus
▁ପ୍ରମୁଖ
▁կտ
▁týchto
▁liklik
▁snart
▁δικαι
бон
olaeth
ungumzo
يۇ
▁acasă
増
▁それらは
▁Ronaldo
लां
▁пли
▁toplam
Ngi
V
기는
higa
बादी
▁ముందుకు
▁төзе
▁হৃদ
▁näl
▁Qhit
▁അതി
▁станува
▁ídifua
bër
▁박
▁เห็น
číta
▁주에
▁Вижда
▁susi
jäm
igo
lements
▁Yoksa
fumb
▁nimeni
▁devil
▁bikesa
るとは
系
▁Texas
▁126
▁iala
▁armada
لیک
frø
ikɛ
▁бихоҳад
▁rôznych
▁वर्णन
▁પ્રથમ
▁hoxeke
▁tiujn
אַנט
akweli
▁dönem
▁maliket
▁करवा
राध
ītie
amata
الط
▁markt
▁টেক
▁lesit
▁sgu
▁гради
▁నిర్ణయ
▁직업을
▁होखे
▁Sporaz
amiza
▁হৈ
▁ئێران
▁pregunt
ější
ringer
▁također
▁Hoeveel
▁kũneng
ၼင်ႇ
utura
▁שמו
▁nape
gawa
▁etmegi
▁concur
▁sjálfur
iméirí
ดาว
ത്തില്
ingu
qha
▁क्ला
ፈን
ländern
▁güýç
▁নৎ
ဘူး။
gur
▁tris
skin
▁پیام
utuhan
▁دری
▁ditahan
▁مخصوص
▁gust
▁bezd
འཇ
▁Сигу
гизи
▁année
完了
▁ცი
▁ሠራ
▁tire
forderungen
▁honger
▁Garga
▁อยู่
▁foa
▁берме
▁moderniz
centra
ായിരിക്കും
▁bijna
現代の
እት
okona
ཨེ
hɛ
▁iyolah
▁ذك
éget
▁파트너
▁ຫມາຍ
ரித்து
hason
ulwazi
▁명이
лықтың
▁bare
▁tukuy
▁reš
▁vot
unes
wenera
мку
▁demander
▁мамиле
▁જણાવ્યું
▁પોલીસ
ଲାରେ
▁redak
watar
ongorora
▁danke
▁imp
▁kpɔ
▁edu
ТО
▁Нав
ambilan
རྒྱ
བཞེས་སྒོ་
អាមេរិក
▁honen
▁ബുദ്ധിമു
ayhu
наһ
ད་དུང་
▁Zawsze
ends
بحث
amentul
ayd
▁сфе
▁pieno
тыру
ミング
▁Wtedy
▁almash
▁выпол
▁pagitan
cej
▁đất
▁potvr
▁آورید
▁sonehiwa
isel
▁αν
▁Apostolo
idih
ತ್ವ
▁іноді
▁extra
теген
▁Нема
བདེ་
▁imiryango
ိုင်၊
ໄລຍະ
▁Потім
÷
passion
▁жөніндегі
usat
▁stiu
▁दोबारा
▁nam
▁ਤੇਰਾ
jenosti
▁device
▁eci
▁Get
orable
ເປັນເຈົ້າ
▁తన
▁kē
พัก
▁اروپا
▁атқа
▁կատար
ylla
▁만든다
Ïí
▁součást
ashpa
రు
▁کنندگان
▁mələk
▁সাক্ষ
мада
▁el
簡單
yarsa
▁kuliko
▁kusamuna
ቷል
Mir
▁Harmon
▁λογα
ནའང་
▁jokio
▁Thus
▁આગામી
舞台
▁beny
▁vokatry
꿰
▁tigh
ויבן
ರಳ
hana
vichi
ณ์
atele
ብሃል
▁wajah
▁powers
▁Apie
maɣzɩ
ksi
▁အဲ
ルー
▁Youn
▁zawh
aradza
▁ministrs
▁siss
▁илја
▁უნ
gande
▁zanga
▁riɛnkiɛ
▁Għandu
▁shkol
▁nedáv
ਪਨ
grade
zik
▁ئىش
▁узна
niecis
趁
▁نېمى
▁գիշեր
▁sitwasyon
▁რაც
▁přát
▁মহ
▁kgon
▁kunene
▁만든
▁ngayong
▁Shunda
culi
▁ግን፡
▁jdi
▁آراس
得られる
6),
▁kawasan
▁nhiều
▁strange
▁нашим
▁bɛda
才能
▁priorit
▁introduc
▁revolution
▁maswe
▁ၶိုၼ်း
▁Io
chten
longiso
▁Handle
ράν
▁Christopher
▁చక్క
etatik
▁लिया
▁ekstr
▁2
▁kamfan
שהי
okeshi
▁finant
▁presti
▁കാര്യം
▁pelbagai
јим
▁הקור
▁વિસ્તાર
▁گؤرون
▁sehl
▁pfuxiwa
てた
▁národ
రుస
▁destek
部落格
▁cila
▁bèè
▁paprastai
લેખ
فكير
▁እስ
▁lokasyon
▁cobre
yksen
empää
བུད་མེད་
▁sent
▁tõnd
▁saying
▁않았던
✓
▁pɛ
тягом
angal
కో
▁bedste
▁værkt
▁Jerusalɛm
yrt
▁Můžu
нює
ປະກອນ
▁هاوڵ
शू
▁አማራጭ
▁memasang
▁ενδια
▁یر
▁באר
▁인물
ligting
pam
hoti
▁येत
▁Yone
شمان
▁Track
▁Durant
▁સો
ঙৰ
sut
μένων
νηση
▁moon
VR
▁ebig
剖
▁canje
jnu
akoh
▁xunu
▁ଆୟ
dim
▁Apakah
▁лауазы
▁бүгд
阿拉
▁ಯಶ
▁کې
ക്കെ
ופּ
▁қарағанда
▁vergadering
▁بأي
▁peda
otiro
וגרים
▁dłuż
ınıza
▁Maame
བརྩིས་
ガス
anipun
abusua
նեմ
▁اورادا
▁heloka
紹介
▁yenidən
▁sesu
ạy
▁kurrë
lużi
খিত
▁naiz
▁tarti
▁sinut
ਵੇਗਾ
▁کمتری
полу
▁biag
info
īgā
▁мале
▁знаете
ىشا
▁pashure
aso
جکلر
▁yeu
▁यार
▁Wilson
▁مندرج
▁taɣ
ール
▁schnell
▁tlhakan
DO
▁ម្នាក់
▁জু
世界中で
▁fetola
▁capacidade
▁kraj
ingaw
タン
▁ubi
▁نێوان
öö
▁ਕਰੇ
tresse
▁ti
پس
楽し
ationer
uph
▁faciendo
ec
▁andi
▁aspekte
▁preparado
▁ngres
▁θέ
▁મોદી
▁ăn
▁dimens
▁پطروس
▁ұйымдардың
▁chhe
coute
以前の
atekenu
▁ярашлы
▁станови
ំនួន
透過
▁ڏانهن
▁riva
▁teslim
▁Suri
ច្ចេក
▁غذا
uak
▁bukata
▁māfuaaga
▁Hills
▁unico
enoj
▁hasn
개월
یەکەی
當地
ATO
ทน
▁conx
nyia
▁उद्यम
▁پۆل
▁Crystal
wagi
ൂപ
hanes
▁tùn
▁ഫല
이게
ເພື່ອ
ੋਨ
rop
▁tabana
▁млад
▁راحتی
▁صاحئب
level
ຊາວ
isay
чкото
▁grupā
risi
▁yiyecek
▁zano
ສະຫຼ
▁MED
ನದ
ግባእ
▁ঘটি
▁zame
▁Comu
▁uchel
▁Bununla
Һ
▁Misy
▁concurr
ెం
ስኻ
▁gambaran
ऋ
▁januari
▁ваши
▁Бурхан
җ
ĩlĩ
teras
វិធី
▁qulqullu
▁Игра
ٰ
টির
ไม่เคย
дың
▁жылына
ूस
ng
方法で
ឿ
▁atveju
▁था
tuu
xara
▁ad
dap
▁dyrektywy
▁ପରିବ
▁Aquel
▁Switch
Shoko
áh
▁سوریا
習
obs
nesau
▁Tko
▁засе
ני
əs
▁vanini
▁язма
▁Pēd
Loma
▁överensstäm
ene
▁ଯିବା
šenja
▁ҡатнашы
▁umpok
▁rer
▁maar
▁קצת
られない
lambu
▁dilu
▁خپلې
ulwezele
▁agor
▁jissodisfaw
▁вигляда
▁canys
uraga
▁తాను
station
▁stipr
▁gran
▁자동
åg
查
교육
▁관심을
施
▁Yohanɛɛsɩ
▁nantoni
૩
wadziwa
ութիւն
alad
▁betreft
▁ყო
▁tudtam
▁ịk
▁nuest
망
ɖɩyɛ
▁どんな
добре
करण
▁twatela
liyyat
▁Sl
車
▁하늘의
▁Cén
ЕТ
okwagala
▁töitä
ingai
▁يب
▁გამოცდი
ເກີດ
▁prel
▁взяти
▁4:6.
ئان
▁ninsaalbã
bagare
▁ABO
▁Mahas
▁ਗੋ
▁fano
▁probléma
▁기업은
▁kulama
ев
▁apri
▁Hvat
▁naso
ध
▁testing
གནད་
▁mnogi
▁renun
ီဝ
masyon
▁ərzində
▁pud
▁назар
▁páirt
eriet
▁ৰাষ্ট্ৰ
安排
▁kõ
▁بچ
▁htio
▁baixa
angidi
ebel
larından
еп
▁நிச்சயமாக
ESS
▁Тараптар
onisa
དྲུང་
peratura
ت
▁དབ
ще
zzük
▁ካለ
▁محاف
▁громадя
▁କୁକୁ
▁오른쪽
复活
▁сигна
▁espacial
▁kanuni
1997
▁الأمور
▁tokki
▁rint
sɩm
▁བླ
んできた
▁дәрт
▁pfupi
ૅ
▁kwabanye
▁મળ
ŕ
▁మేం
▁îngrij
▁ƙa
▁লী
нал
▁ध
▁explained
▁நம்
▁mali
▁ieguld
▁isuk
▁Mohl
▁môjho
▁भवति
قانداق
▁darajada
ちゃん
जूद
▁준비가
▁ნიშნ
શ્ચિત
▁Niya
▁يتم
▁অধ
እያ
▁tautas
isisa
בודה
〔
wemvelo
àin
otās
▁great
▁люди
erný
ত্ৰ
もの間
▁faits
▁kelip
▁membayangkan
▁fakkeenya
inā
وك
▁Star
▁personals
▁사람이
▁rastl
▁kullanıl
▁강
▁사람들
▁ਡਾਕ
▁Spojených
gatataki
▁tèm
▁erken
▁למעלה
겁니다
▁tilläm
▁Conseyu
▁domani
▁pieaug
▁Barbara
▁60%
sprocessen
▁taux
▁ескер
▁bë
▁неві
▁šeimos
babkan
ল্ল
▁मिलल
▁etindhawini
▁samazin
▁nad
▁жай
必
▁قويون
▁Idane
вар
▁Kw
▁Penta
▁Lefatše
äk
聚集
▁adını
▁에너
jourd
cono
▁똑똑
겠다고
miss
▁Randy
▁gaz
▁وګورئ
▁paragraph
▁উনি
▁વીમા
▁calling
▁amaghị
▁nieuws
nék
▁скон
▁Novembru
gare
τείς
сез
▁onthe
yza
Sawule
▁Kosov
▁༢
ţă
▁પ્રમાણ
利用
▁imilimo
ැති
第一次
Bu
ARA
ဒ်
▁बनी
ཁོང་ཉིད་
▁خوات
▁λά
▁veiks
inggai
óla
▁zāļu
▁jake
▁lasten
fwila
etag
ൂഹ
siones
▁lulika
▁ميز
▁wout
quk
▁кимдир
pawh
▁many
▁duygu
▁kich
asjonen
▁त्यति
ňi
▁limi
▁tillgäng
▁føles
▁masero
▁Yahoo
ього
▁moest
▁겁
মুখ
জা
Ngisi
▁monene
▁Секој
無視
lir
▁stj
▁कार्यकर्ता
ኬት
▁esanju
▁იქნებ
▁kemas
▁اذهب
▁tlhaga
▁tonu
oresc
▁likek
angelwa
మైన
▁ezis
rgani
▁통해서
čega
▁Krie
▁viloyati
▁రాలే
▁বেল
šetšwa
▁ມັນແມ່ນ
لىرىنىڭ
▁Dnes
▁mede
▁निर्माता
ὴ
estal
▁produt
つも
▁vex
għod
របស់ពួកគេ
lang
▁muchas
▁Dead
▁bé
inschaft
tidea
K
▁conducted
lij
▁kreip
▁cikin
▁गय
▁xené
cha
▁Atũmwa
▁maccowé
tï
▁ئۆچ
▁منهنجو
▁usalama
▁വർദ്ധ
▁bopp
▁akred
▁wäär
▁Vinci
▁xiv
瞳
▁kahle
▁ady
inip
▁Suu
▁žmon
▁користе
▁عئساني
▁prou
▁ਖਾ
ujemo
▁하셨
ampaikan
▁நகர
▁آزمون
▁hōtaka
likk
льність
▁arkadaş
party
▁wyst
▁tellu
▁suspe
Up
▁உலக
hirin
▁majú
▁ყოველ
▁glauben
▁පිළ
▁vacu
▁Ме
ख्य
šením
▁bumo
▁ingoa
brat
洲
國際
▁Ott
ጦ
▁yingo
▁plano
agda
▁అర
▁عزيزتي
▁інформа
▁хва
▁subse
ithand
▁беба
▁10:34,
▁warsa
▁തുടങ്ങ
▁moments
어진
▁Ovisonehua
▁프로토
▁bɩ
ithu
▁زیر
▁علام
▁trobar
▁спеці
༢
▁саласында
▁கல்ல
▁Hangi
▁bisangilu
▁ዘይ
ادە
▁болохыг
▁ukãi
ராய
▁VIII
တွေကို
▁મુસાફ
▁이는
ပြီ
▁הציבור
nug
▁daglige
ượ
▁परमेस्सर
▁Fransa
▁nakpɔ

▁마라
apachatejj
▁yots
▁prenis
▁buonso
▁беруш
ɔsɛm
▁ፊልም
▁Mf
sale
▁كه
▁everybody
▁Mzimu
▁Украина
▁جديدة
▁adanse
▁দান
ਡਲ
▁Захід
▁vlas
▁बरा
đemo
▁Mma
sio
տր
▁dabere
▁оши
▁aust
weith
▁Lead
▁galėtų
▁생각에
▁استقلال
▁khuyapt
▁قىلىڭلار
endien
しかない
▁거야
네
▁saray
prit
▁ĩmwe
▁Liusoma
▁पचन्क
áyà
▁iúl
▁tabu
▁თჱ
KP
▁проблем
åll
▁Právě
▁faim
▁अमेरिकी
riques
▁மகிழ்ச
циясының
11)
▁དེས་
▁εμπισ
▁बाल
▁wulo
▁Meer
▁ဘာ
▁Allahut
▁متمرکز
▁обнов
ウェア
ix
▁réflé
quï
▁কৰিছো
▁тәби
utuvat
▁נמצאים
▁pagkawala
▁Night
ayang
embri
មាន
▁сад
▁smel
▁الوقت
alẹ
ফে
▁geudeungoe
вност
▁Añ
ýs
荒
▁gertatu
inyenti
▁With
▁hovoria
▁equipos
瞞
▁manger
▁දෙනා
▁mwĩkalĩle
▁udah
▁også
▁régi
▁siam
▁marar
▁uger
២
▁Srɔ
▁xava
▁trước
▁кора
尾
▁begyn
nyŋaknhom
툼
opin
onge
▁अहिले
ishpa
смотри
▁nsuku
▁kuro
ingala
▁प्रमाणित
▁krama
▁debit
▁იყოს
പ്പെടുത്തി
▁nau
stens
egede
▁tehakse
དྲག་
▁discrimina
▁yupay
त्त
ghed
▁خوێندن
▁mkulu
endoda
▁Frankrike
▁skur
▁Usange
▁actes
▁Ulune
ible
óigh
▁китептик
▁izwe
▁아내와
▁korup
▁میهره
▁kitchen
▁教育
▁øllum
ছেন
▁sige
▁продолжа
▁ဘယ္
▁musí
レイ
▁predvid
لىقنى
▁ģe
▁interval
▁kũmĩ
▁liggen
▁approved
▁республика
▁kaam
न्ते
▁linn
▁үст
▁Kū
▁góor
ummu
を求めて
olf
▁온전
ês
tupu
番号
▁गर्छन्
发展
▁זה
▁повер
▁Misiri
▁ચાલે
wemu
▁வர
▁અઠવાડિયા
▁ئێستا
▁བགོ་བཤའ་
ပင်
▁Latve
を引き
▁dibêjin
▁vykdyti
▁mwamuna
▁beasiswa
త్ర
Java
ایمان
▁lagbara
ída
▁refu
▁હતી
▁ଉପାୟ
rn
льным
▁bwy
▁faguèsses
▁mafi
দ্র
▁fór
▁lanitra
▁Jehoova
נלא
▁нага
▁எதிர்
▁Президента
tirish
▁Burma
▁tutki
▁৪
æg
חש
▁muenzaniso
ġer
деги
ētiem
▁देइ
▁анализ
ეული
▁obwo
▁ഫോട്ടോ
▁ngubani
▁ikakhulukazi
-2008
unod
ಿಯಾಗ
깁니다
▁powinny
شكلة
▁טאָ
ို႔
▁Νό
จํานวน
▁آه
▁chahiye
▁طریقے
ruz
▁dấu
ುತ್ತೇವೆ
▁osonde
▁һәм
aaoga
iraf
▁angre
хте
高
20
하던
▁wrong
▁өзіңіз
▁발생하는
weleri
abalị
cağını
မ်
▁նվիր
▁6:10)
Genesa
▁コ
▁christ
ੱਲ੍ਹ
odho
▁ρό
▁significativa
vumo
▁օգնում
π
▁لوط
▁هەفت
▁регистра
▁reduir
▁Kı
▁رایگان
▁opas
▁blan
▁lắm
tse
த்தது
ţa
▁jauniešu
▁(198
▁دغ
▁истин
▁ბიბლი
ಿಸಿದನು
▁iwadi
▁pismo
▁gij
▁mutumin
▁тұра
བཟུམ་
▁kurią
hibalo
▁اصطلاح
▁pequeno
धीश
▁ਜੁ
▁Aung
grad
▁폐기
▁applic
▁crìoch
▁daxil
▁മിക
▁muhim
kı
▁Klima
▁अन
धानी
▁lakip
ireacht
ကျေး
▁திருமண
▁resources
▁ڦ
▁Aller
▁ଫେର
▁Ευρωπαϊκή
▁kök
හිට
▁prej
▁andis
▁århundrede
ödä
རྒྱ་
▁کرسکتا
ौर
▁savas
▁Number
▁સમયમાં
▁курык
▁obyekt
▁ịchọta
▁Salamo
▁😂😂
▁hänellä
▁jidd
▁अलावा
▁თავისი
▁ام
▁Iutaia
▁ayaw
▁λεπτο
▁коре
▁যত্ন
▁Yəni
▁نکرده
▁huvita
▁हमरे
▁되었을
▁هفتي
פּר
▁корпу
▁komo
システムは
ሪቃ
มัด
▁зве
▁እየ።
▁लाग्
▁14-
を持った
▁сваёй
▁лабора
▁март
чному
onnier
▁seachta
보내
եք
▁서로
skum
▁gracias
▁vojne
▁вашег
▁നായ
▁Again
▁mokano
▁слу
▁ଭର
▁LIKE
wats
▁tejto
▁fof
шата
▁узе
▁14:6
▁પવ
▁yhteydessä
קית
Filipi
▁ਇਸਦਾ
▁дигән
▁πιο
すぐに
▁প্ৰেম
jët
▁않는
共に
સ્તા
ייחס
▁히브리
▁Josh
▁inkl
▁natu
லே
▁kotalela
▁떨
▁pinyni
▁कराय
▁Bukedde
▁hihihi
▁പ്രവർത്തന
lila
▁Scient
▁surnud
▁traballu
ˮ
▁шояд
чир
ellek
▁faccio
▁161
▁geld
ត្រូវតែ
▁عنق
▁ہوسک
▁کېږي
以便你们
σία
▁በኩል
▁previous
ũtha
▁طوری
trasferiment
нел
▁àddina
▁کور
▁confirm
yandi
▁këta
▁Falcon
▁obsahu
▁বিশ্ববিদ্যালয়
▁всем
▁عزت
éierung
ġu
▁komekama
▁ӯро
nya
▁ת
▁خل
mäß
▁rakkina
▁되지
һының
ருக்கும்
cep
▁세기
▁მოვ
▁warĩ
▁کلم
▁මන්
▁ئىشلەت
▁added
ical
▁esid
▁miid
▁γυναίκ
itenkin
▁அட
▁isla
ซ
▁ਵਿਚਕਾਰ
▁darum
▁mBallstát
▁prům
اوی
▁جاه
সং
kry
▁wyj
▁certific
▁район
▁16.
▁offre
▁ijro
▁Dante
ئەم
▁ŋgʋ
攻击
латын
itz
▁elle
▁Spanish
▁Stephen
▁ⵜⵎⴰ
▁Nɔnɔ
▁Kristoni
▁samar
angili
wenze
▁entsprech
▁dėmesio
▁پارچ
▁komitet
▁negr
▁stór
▁تاڭ
ђење
▁ტრ
ebentisa
शासन
▁તી
▁zvuk
帮
辅
▁people
▁výskum
▁ɛte
▁оҫта
ρικ
▁chuig
▁सिक
▁mula
▁байланы
▁Dyma
▁chama
▁ਰੁਪਏ
▁itatu
ットを
▁Meli
ရကြ
▁constitú
ியா
བྷེ་
▁krijgen
▁ପ୍ରସ
▁헤
▁unión
skyld
سۇ
っしゃ
ikisi
財団
َْ
ində
▁natural
سلەپ
▁mpits
▁bijanye
▁munqui
▁finansa
▁فرود
Nkunga
公司
探
ಿಸಬೇಕ
არა
母
▁अभि
▁Vertrags
▁कारणले
ennol
▁↑
▁Esp
▁pwodwi
wala
▁Manga
schnitt
▁ունեմ
▁nią
▁bolelela
▁касније
šaj
▁tenke
することである
▁Dawud
קהילה
པ་དང་།
▁دابه
▁Mafoko
▁шлях
▁इलाज
▁23-
▁குறிப்பிட்ட
▁پہن
urea
▁գործունե
▁bonne
▁йөр
▁αγαπη
▁yüksek
מה
▁πληροφοριών
▁चो
▁prís
▁feeling
gaam
▁financiare
▁मामला
▁aima
ivne
▁Բոլոր
ەمدۇ
ξε
▁लड़ाई
ကျန်
▁brû
▁Defin
▁aktive
▁ຄືນ
期間は
▁obere
alus
दार
ки
▁малая
newid
▁hitro
▁afã
▁norādīts
དང་།
▁atopar
▁저주
मेंट
yumvira
▁Πρόεδ
▁آنجا
▁puede
▁kísér
নত
ੱਖ
ðar
▁įgyvendinimo
▁seule
체가
▁Korintofo
tsch
▁གལ་
▁দি
▁፤
▁বলেছেন
efese
ícím
▁teub
ጇ
▁fung
▁spont
▁umphefum
▁caco
िव
▁కాల
postile
▁પ્રતિનિ
▁kény
ukeni
▁қойылған
▁ନିର୍ବାଚନ
matụ
▁luth
▁diẹ
▁मांस
▁použi
▁надзвичайно
▁шудаанд
▁Arī
▁liŋ
pez
▁sadang
డర్
額の
кети
▁куй
▁instruments
▁تصمیم
쇼
▁РФ
▁ଆପ
▁nuom
▁accad
▁모습
▁anci
jual
이니라
▁होइत
▁mümkün
ཕ
毎
▁Пар
▁estadounidense
qyr
▁השפ
▁biteg
の人々の
eton
▁문을
▁animale
akazel
▁יע
▁ға
induye
コンピューター
▁Belar
راحی
▁کودکان
inimą
▁Johanne
▁emaztea
ubukan
▁vajadzībām
훌
▁추천
▁ajaýyp
หาร
▁Begge
▁너가
99
▁هند
▁potrzebo
ਅਨ
▁džia
▁wajen
▁Liter
▁vyos
▁Ss
▁cumhachd
▁sweswi
▁کاریگەری
Saya
▁либо
larawan
فين
хий
▁αναγνω
ئىمان
▁للع
▁users
▁sukula
मः
▁privat
▁zaob
▁ႏွင့္
▁प्रश्ना
▁тағы
โช
▁affected
kant
▁εις
▁ibodat
चर
ikasie
人類
▁makta
▁moeda
▁られる
▁mensaje
ʋ
▁Gele
▁sivela
▁mediter
nævnte
▁fraude
بلغ
женер
子供の
hambi
▁TI
されており
▁連
ጕም
ಾವ
▁ንሳ
ilancia
जू
▁ruway
ितुं
ccu
llahut
▁информации
றா
▁akug
tavlja
cznego
奇
▁asian
ყოფილი
取得
vard
▁المص
▁pane
▁ஆரம்ப
▁Ār
▁ej
экономи
▁ഇറ
▁risau
cwaliseka
▁подгот
▁something
ɔɔzɩ
▁عێ
xeba
▁agun
▁generator
▁Obje
नेस
▁szárma
▁ọgó
▁jixi
▁ਰੰਗ
▁sevim
▁هاو
inkuna
izo
तियों
ર્થ
▁Timp
▁bilm
▁надзор
▁wakukhumba
क्क
▁плати
▁seç
▁tabeng
ल्नु
เร
وض
▁музи
indaki
duğ
▁යමක්
▁twi
▁Tor
▁আসতে
ider
erife
▁jije
itsh
▁druhý
▁predlog
roš
cion
▁selmana
▁שיין
▁πο
▁pentsatu
▁iyak
자들
welani
usiga
tola
▁གསུང་
▁Ñ
게도
▁mjestu
承認
ulos
▁Vah
▁basi
▁खासकर
▁қавми
▁prophet
▁adni
ደርስ
Char
▁신의
▁akana
round
▁izdev
▁ઓછામાં
▁balunda
▁이제
kub
ర్స్
▁зашто
▁im
स्तै
▁uwe
궤
▁నిజానికి
▁HAR
▁රෙ
▁menga
▁sisya
сање
onkhe
istrik
▁길이
llä
ukiso
裂
▁kiu
jenek
ಲು
▁thử
ugomezgeka
▁міжнародних
▁sentu
쏟
odo
▁vɔvɔ
▁मानसिक
hepo
ɛni
▁آنکھیں
▁nacht
すぎる
Naya
舒
▁rãi
▁Babylon
▁family
anca
▁Kār
▁Ɲanmiɛn
遗
ays
▁vung
▁ਸਮਰੱਥ
▁menangis
▁kɩyakʋ
▁ño
에서도
نك
elanie
▁CCTV
▁myslí
▁kotona
▁ඇස්
▁(2013)
れています
пан
▁tehnik
たちも
▁tomó
▁కనుగ
▁partnere
▁সন্মুখ
▁pelatihan
yň
▁хэдэн
▁yihiin
▁Nehemia
▁keeping
僚
▁leita
-7)
yaasha
▁išsaug
▁ख्याल
▁ሓቂ
▁absen
削除
▁kgaolo
▁molimo
sap
▁tuboh
anyar
ete
▁വിജയ
▁နည်း
▁مکت
▁jeu
▁հայտնաբեր
▁buyurur
▁sento
ɬ
▁tola
しかし
amman
▁práv
▁tilfælde
▁මීට
סוף
maɣ
▁judgment
▁willen
தே
ártó
གྲགས་
ب
▁ਆਦ
향
politiken
વતા
টিক
▁Imagine
▁less
arch
endelea
▁ideš
ེར་
▁tongo
▁phân
▁аң
▁agelu
▁छला
Din
ハウス
ченні
gines
zimulo
▁idiin
▁النه
USE
▁RSS
вни
▁bagay
▁Libanon
▁Hund
alowa
▁འ་ནཱ
▁tush
ddiff
tschaft
ཅན་དང་
▁Jisá
▁odde
▁حیوانات
ੱਸ
▁நிர
сынан
▁లోప
▁ಪರಿಶೀಲ
anjaka
란
렴
▁Fet
▁ماڵ
▁niður
店
▁дам
akarusti
besc
legelwa
รรม
▁поги
▁орман
ciągn
적이지
▁버릴
▁تەک
▁históri
deki
vaku
▁ལངམ་ཅིག་ཨིན།
▁بىل
▁gbɔn
▁كسانى
▁heɓ
▁drzwi
▁sub
▁моделі
▁Ijipita
akanye
▁üzere
▁студент
ufula
enzie
▁لئے
▁بارے
وما
vnte
▁იქნებოდა
▁avanti
▁libro
भ्र
▁high
▁Mạ
▁yakale
▁ਪੇ
▁илјади
▁uwo
▁बनाता
▁མི་གཞན་
▁lành
٦
ወሰ
ጊ
par
▁hendur
▁Minw
▁Měla
ਕਸ਼
τήσω
phone
▁깨달
▁Lima
odimo
ண்ண
許多
ambie
guzi
▁nyithindo
▁사람으로
дека
▁kræver
▁numpang
▁빠른
▁ലക്ഷ
▁zugã
▁фармацев
▁Маша
▁први
▁ntu
▁tajaa
libat
▁ተገቢ
ତାବ
velle
पि
▁खाना
ўшы
▁statisti
zmi
▁чувствува
▁3;
▁ɛbɛ
▁syst
▁About
▁sulud
စိုက်
▁ತಾನು
▁مكتب
▁וצ
▁beze
▁gbu
▁avulla
angeli
▁histoire
wezig
intage
larınızı
zeg
Ё
▁okufanele
▁Genesis
▁जनम
▁akt
▁потрі
cene
▁مختلفی
▁gush
ാറില്ല
▁lẽ
▁bestuur
▁Wol
▁closed
ငံ
għażagħ
немесе
yembekezera
▁cem
▁نۇرغۇن
▁Bord
▁Arbeitnehmer
▁հղ
▁پلان
ସ୍ତ
ambudziko
▁есть
ň
▁مشار
▁dzilawo
▁şco
வன்
▁வாழ்க்கை
▁ម្ដេច
لەپ
▁заяви
riere
▁ካብኡ
"..
▁Ej
联合国系统
▁କରୁଥିଲେ
▁intwaro
▁назна
пят
乱
▁Vamwe
▁небезпе
▁интегра
▁دسترس
▁sohasida
▁Mia
fundisha
▁zdec
▁ndetse
dech
▁kuda
▁هستم
ura
cis
weini
▁imam
୍ଟ
▁지역에서
omesa
▁mapulogalamu
▁λάθος
ི་ལ་
▁받기
▁балалары
fainn
▁koncer
▁etsoa
▁mpano
▁üzer
▁ngủ
▁ਅੰਦਰ
▁pieg
発電
▁Ciao
ସଂ
▁papel
俳
▁інтере
▁PhD
▁viau
eset
▁অনু
ntfwana
ïne
▁발행
▁каждого
▁моим
▁prekybos
骨
ធម៌
▁cuộc
▁מאשר
דינג
▁Wi
jijwe
▁प्रेम
▁ಮಾಡುತ್ತ
▁dame
▁پڇ
isika
▁ծ
있었습니다
வர்களை
▁nkutoo
▁Korne
urai
▁Mpo
▁õpp
▁kazan
▁akaretša
▁vaKarisito
ക്കാന
ម្លាំង
▁आना
▁Анна
▁폭
▁sɔsɔ
▁सक्षम
▁Smith
▁बीज
▁penki
▁শেষে
▁zimmasiga
時間が
▁ababa
▁arbeiða
▁حرام
▁debería
▁Швед
▁qabnu
▁कलाकार
ogera
▁apel
▁дара
ækning
暫
▁ଏବଂ
▁bambanta
sler
▁nyikiwe
▁lässt
जाद
▁dian
▁canol
▁دؤيوش
ቫይ
▁یورپی
োহ
vuvuli
▁chayqa
▁ק
▁compra
arisana
▁меҳрубон
▁indre
▁Diak
okoduru
konċ
▁gä
ెంట్
ရီး
ប្ល
▁തു
לם
▁meddwl
▁αλλά
▁możemy
▁keskkonna
дығын
ەنێت
ziemy
▁پەڕ
▁Joko
▁వ
▁அலுவ
ଜା
འཚ
▁પ્રભાવ
▁thilɛ
▁பொருள
▁kecap
ལོངས་སྤྱོད་
▁përdit
▁tanana
▁iler
έ
ቢድ
で行
▁Сүз
プログラミング
▁uttry
▁vinyake
星
▁pitää
▁意味
陆
צית
▁pensais
▁waste
raichean
వే
▁leanúint
amban
▁Menjadi
ຫຼີ
སྤྱོད་
▁időszak
▁spó
▁fordele
▁fillo
Marko
▁bwawe
ីឡ
▁נמ
▁გამოყენ
自体
utsa
▁Adams
▁さて
sens
▁Προ
ოვნ
佢哋
▁इस्राएल
ïõ
▁elmond
▁kanam
nial
fadhali
▁Nekk
vand
▁ورځې
ยาย
職
puni
tojnë
▁bihugu
▁ကြည်
▁کئ
▁இனி
పోయింది
▁ciutadans
χε
▁67
▁eie
peri
▁fuala
▁غلطی
енес
▁хыял
▁Ṭ
หญิง
ụkwasị
▁population
သည္။
:)
▁diyar
ೂರ್ಣ
xistin
ങ്ങന
▁Bokreste
▁cán
▁anony
▁ኣይት
ıra
▁verità
vać
hno
父
agt
▁أفكر
▁uncedo
▁yuɣal
▁ugali
▁insurance
▁Elles
▁سئزئنله
適用
layala
▁בת
▁mirkane
opego
▁hamda
▁страни
▁Vertra
གུས་
▁keypa
mal
▁ຕ້ອງ
şturu
lòm
▁združ
▁qiladi
▁daan
ದಿಂದ
▁හි
▁alguns
▁רח
▁бъда
ཟེར་
▁ühenduse
▁Nii
ட்டின்
▁සිදු
icim
▁silik
▁Noko
▁посу
▁멜
ཆ་ཚང་
▁ناسی
▁pilsētas
▁jaal
ものの
མཆོད་པ་
ཉིད་
kiet
▁stanza
▁Garden
arlo
▁약간
▁lutate
▁elek
caca
ွေးနွေး
fydd
▁montón
▁ongeveer
eth
▁Moaposetoloi
▁بگه
▁ימים
▁malawak
araham
▁gleich
▁הפלסטי
▁իրենց
ති
▁γι
公正
année
値は
▁1953.
▁Assim
▁wyneb
▁zacu
ייַ
chezaji
▁Iesp
▁وزن
▁Сөнки
akuw
▁پئي
▁ski
他
lərə
▁élé
▁haben
ilyo
▁müim
▁nü
umisa
▁lagolagoina
▁Gregor
คริส
atan
▁매주
ויות
悲惨
▁үргэлж
▁usted
▁mekanik
▁ũsu
▁înd
Ṭ
isis
▁pasiruoš
▁dino
▁kedeŋa
akoj
andag
▁ilanga
▁ezinga
▁bujima
▁manen
bukti
inātas
akwan
▁ແຜ
▁АН
▁આત્મા
▁odstr
▁قان
▁ποσο
▁kugani
isyon
45
▁cani
▁twoją
42
▁ବାହାରେ
ייתי
▁diezgan
▁ცოდ
eluigwe
▁לחיות
杀
워야
▁кедер
▁రోజు
ining
▁byrå
▁vee
sajan
▁వాటిని
скую
▁일반적인
▁米
▁laia
▁22:4
▁fare
jenjalo
▁시스템의
▁Elie
ធ្វើឱ្យ
skiego
▁conhecer
▁bwayo
ij
▁nào
▁bris
▁nikmat
▁ithuĩ
▁निया
▁simultane
▁ரோ
asara
▁phon
gwà
imuamue
▁obxectivo
တႄႉ
▁awǐnnya
▁ପରୀ
▁conformément
diyiniz
▁موفق
▁কেতিয়া
mada
▁ସଫଳ
▁शास्त्र
umĩte
▁ئۆي
▁Nsọ
님이
▁hapori
▁vulkan
▁asali
▁ustu
kyer
▁جمهوری
▁тартуу
봤
sgr
ვალისწინ
▁열심
▁menegaskan
▁seri
▁वही
ুৱা
▁ಬದಲಾವಣೆ
▁yalina
▁අවුරු
▁thổ
地域で
ंचं
▁ĩkũlyo
▁achas
iranju
▁المج
uduk
▁සට
▁buluhaton
▁ئاخىرى
ħba
▁lokile
heleni
ంత
འགྲ
▁nimo
▁غذ
▁otu
▁пері
▁Vokieti
▁അങ്ങ
່ຽວ
tioner
▁bafsa
kure
▁عادل
åñ
▁αδερ
▁sprach
▁makatabang
lapa
ELE
▁بواری
ēts
pher
氏の
▁אק
▁enzym
ντι
▁misalin
तोय
▁mami
કરા
▁rispettivi
▁මමත්
▁Kitaaba
▁potenz
င္း
▁ያስተ
▁dirisang
बाक
▁фінан
ۇ
▁yere
▁ganap
▁стороны
-2-
ኞችን
worpen
ín
环
▁agpaay
▁1955
▁আপোনাৰ
loje
న్య
▁느끼는
▁mulume
▁kërkon
ಿದ್ದೇವೆ
زهای
▁Ani
▁тарихи
enget
ቧ
umpat
稍
▁мира
hiso
▁ret
▁faire
ምት
责任
▁tampak
▁Мына
▁history
asipxäna
ancin
▁своето
▁опубликова
残り
ruoge
▁oben
▁реаль
しに
▁সম্পর্
сати
okuw
▁وکړو
▁თემ
▁யோ
▁naton
▁termes
▁конти
Partijiet
▁tē
▁ಅದು
waż
Z
ཅ
▁nuku
▁تخت
▁ਗ
▁contas
▁tud
▁πραγματικότητα
VD
▁kalli
əni
▁धर
▁moraš
▁herman
Ẓ
น้
▁әлеуме
חוק
elodau
▁ɖè
▁ನಗ
▁spejjeż
▁manum
▁ਨਿਰ
▁generals
▁vaqıt
▁46
▁Mereka
▁haqq
อยากจะ
▁ավելին
▁математи
μός
▁avvi
▁produc
ండో
골
▁ධ
▁تەت
▁nurody
ീകര
vnih
▁ail
▁усім
▁efanelekileyo
▁mpo
uster
▁giza
▁Vs
▁deis
▁мөэминнәр
waniritsa
▁ਜ਼ਰੂਰਤ
▁инфрақұры
ーンは
▁Facebook
▁matin
ಿಸಲಾಗ
▁ecele
apx
450
▁ਦਵਾਈ
শ্য
▁isini
▁гафу
▁रोज़
を検討
▁raua
▁wollte
ベル
gharịa
pū
▁نوز
boye
ھن
▁üstünden
▁nginga
बार
▁nyooth
▁instrumentu
husu
▁робота
発達
▁এসব
Teuma
▁속도로
▁남자와
ুতি
제에
▁Паул
▁befol
ുകയായിരുന്നു
個人的な
▁Поне
▁ateş
▁முடியும்
▁tita
▁σχολείο
▁nyuitɔ
▁رہنا
nilo
indin
▁كم
▁пам
▁bharra
▁ଖେ
▁balot
▁જય
Ger
▁তে
▁ихтимал
▁راستی
ப்படுத்து
nkhani
Imaynatá
▁дел
していますか
onom
jjed
▁akadaro
▁terkenal
▁мона
▁עקס
▁kpọrọ
▁Lek
▁(-)
jers
lup
▁ସାମ
▁hanome
ğunuz
▁virtual
lait
▁hayot
šel
狀
▁cök
▁ತಿಂಗಳು
▁iriri
دىغان
▁kulingalira
ĭ
ind
▁dong
失う
ാക്കൾ
▁ihm
▁hǔn
▁итеп
▁lespiritu
▁levou
puno
vados
▁ráno
▁پشتی
▁himu
wililika
wenemwene
▁տրամադր
ନ୍ସ
▁uwali
▁Buli
▁apm
västi
▁asjad
ტე
▁поиска
▁위험에
▁lean
ંતો
▁ተቋ
▁Word
ポルト
▁щасли
▁está
聰
▁Kitty
erew
▁Ṣe
נדן
▁مشکلی
astat
▁росли
▁선택
ursday
πονται
撫
▁ته
▁devamında
▁Dango
cionit
させ
suɖuto
▁얻기
▁pământ
▁Mavɔmavɔ
udet
▁tambahan
िरह
▁mĩao
▁achinyamata
▁უთხ
▁diese
▁kɩyak
▁sánh
hever
▁għandu
utat
▁comand
hokela
되어
ូល
▁ukur
▁느낀
éréng
▁Fj
aaa
▁solito
▁havet
inizde
乜嘢
▁ପୁରୁ
▁itin
▁قەۋم
êts
▁athy
ලු
▁ứng
digheter
▁دۆلار
лася
▁perdre
▁GW
aroon
▁sanda
ปัญหา
unyama
രുന്നത്
▁jedin
lae
とのこと
▁первого
▁ż
▁જાન
▁lalakiannya
▁tobom
▁kalui
▁Alfr
gawe
▁ନିର୍
▁아브라
▁purs
▁fakti
មិន
▁지금
▁બાર
umwe
һынса
▁לעתים
otë
ගත
obb
▁দশ
▁qued
▁پۇل
▁түзету
▁gidi
▁امکان
endetsa
男女
▁lomuenyo
▁pág
using
▁mantan
ləq
iddu
讲
▁praten
▁होस्ट
▁ନେଇ
eft
▁opfylde
edda
▁לה
boni
▁kĩĩ
▁барырга
lamana
ོང་ཁྱེར་
▁Алматы
▁покре
가서
▁Twit
▁ماست
ρόμο
▁osaa
జు
喚
▁krá
zelelo
▁gouvern
▁الجحيم
મ્બર
ıld
▁Question
▁담배
▁chuyện
▁basada
▁hodn
ພໍ
▁nyambung
Psalm
▁väike
もの
▁4:7)
▁يەتك
▁બળ
▁tuaja
▁naft
▁geuk
▁مباش
jikile
▁olduğundan
عنا
jog
▁ጸሎ
ographi
▁Turkey
▁elit
irê
▁cust
ស្រី
இ
▁Karim
rik
続いた
▁hewɔ
▁ukũlĩhĩso
▁ижил
▁እርስ
▁एगो
ською
▁পদক্ষেপ
▁illus
▁онон
▁კატ
▁너무
▁diza
▁внат
▁teg
লী
▁använd
inning
ೇತ್ರ
ಗಿನ
▁پاداشت
ཏོག་ཏོ་
▁documenti
▁ইং
▁Ташкен
▁zápas
▁სას
▁বললাম
▁jima
တီး
βί
▁tilbak
ंतरण
ــــــــ
▁komand
ནག་
▁pratiques
▁Ɗum
▁tokoki
▁lähet
▁тикшереү
▁Vazir
▁materiais
leku
▁daftar
▁재산
urit
undza
州の
曝
▁article
qadd
▁Nts
▁Zerbait
▁자격이
liyor
ீடு
▁terke
▁omp
বেগ
▁фермер
uenyo
▁beho
▁жаткан
ekelwa
aluka
▁Ça
binom
▁හරිය
ôé
รอย
anang
▁Dha
зы
▁gewerk
łuchaj
bonakali
活
▁ទុក
▁koloi
▁своим
▁اعظم
▁vërteta
▁hayop
▁moonegã
▁સભ
▁ಬಹ
▁dagens
▁الج
wanna
▁rhaid
rista
立
ობები
▁fyrstu
▁tuyên
gun
▁nevanhu
優先
ude
▁qaldı
▁programi
▁aptur
▁ска
▁inštitú
▁asmuo
ICEF
ation
▁czego
▁ৰখা
判断
▁Pentek
▁buki
▁cussa
▁venn
▁mbas
ữu
ivät
ۋە
חל
▁भूखा
îé
ಾದ್ಯ
▁Leicester
▁dör
ដែលអ្នក
▁Zac
φαί
▁riɔ
▁Makkedai
сою
▁Elektr
бына
σωτερ
要件
▁vittnen
▁استراحت
▁dėmesi
amalla
▁فێرب
▁lato
ಡಿಯ
▁pakli
▁Idan
sting
chengeta
▁솔루
▁suurendada
▁கொள்
▁Evid
▁казваш
nneɣ
ashaka
خدم
த்தின
▁prisk
wantšho
Kuns
▁autors
ทั้งหลาย
▁mauvaise
▁́
▁arsy
▁lín
štvo
▁kubhita
▁לנסות
وندی
▁همون
▁volar
▁tahap
▁rung
▁jɔɔn
▁getiri
▁yind
лош
▁coin
▁contradic
usiai
▁кый
▁mmo
▁Maa
ார்களா
▁ziyar
▁víš
▁बनल
▁পাব
လော
▁tjän
▁jedhanii
כה
苦し
vú
▁рай
צות
▁छुटकारा
▁povpre
▁labat
▁Inu
▁leiding
眼
彼らは
▁nalimo
▁mentale
▁minɔkɔ
urte
▁AQ
90%
យើង
diw
▁Hola
▁skær
rug
▁House
▁amade
▁uro
óc
感謝
▁siaj
тпа
▁अस
ባል
▁jirgin
▁Odo
25]
▁кылын
▁ziņoj
▁ಕನಿಷ್ಠ
ziņa
▁dobré
▁নির্দিষ্ট
▁bamb
kelser
▁व्ह
চ্ছিল
Ber
▁sóisialta
onanasya
▁alien
▁系
▁système
▁တွ
▁forordning
akomana
▁Vod
▁ସେଇ
és
▁Ҳар
ady
ρμα
▁kuli
▁markeder
▁впро
▁inkululeko
▁klass
honta
▁સવારે
▁liknande
▁razvoj
▁ũng
▁થા
▁האחרונות
▁ಪೀ
▁abot
▁shu
ēšanas
▁teke
ficia
▁kelotlhoko
itamente
▁ນາ
ปฏิ
▁vadītā
-195
権限
節
▁informations
かれらを
댓
ႂ်
▁ᱧ
▁мъже
▁penjualan
▁یق
▁نمبر
▁оронд
▁মারা
▁nazýva
ologijos
▁ئىچى
▁അദ്ദേഹത്തിന്
อยู่กับ
▁мир
sgã
лазе
▁쌓
ikezwa
ද්
으나
▁ポ
▁hwaMwari
ቈ
irty
▁paggawa
▁것이었습니다
▁ילדים
▁anos
▁saudara
▁skiri
▁ਪ੍ਰਧਾਨ
▁ginn
ንን
▁Jumala
nwen
▁península
▁อัน
▁opreme
▁berisiko
▁मद्दत
▁bărbat
▁Woba
▁αντιμε
▁dirileng
يسەن
▁સુધ
Ac
žíš
မက်
▁תת
▁sekaseka
▁사건을
▁talia
▁seph
▁آگاهی
▁определи
▁talairawarawa
食事
▁azap
▁tingene
▁javas
where
▁madanm
▁Повеќе
▁gbà
▁کھا
▁bebida
ulona
nout
ktə
▁áno
▁anny
▁структур
▁किम्
▁ਪ੍ਰੀ
hed
▁сильно
▁Finanzierung
yeah
▁डिस्
▁ਸਮੇਂ
lihan
▁abstra
▁Ekoki
▁dieren
▁serial
▁pego
▁rekɔ
▁riigis
▁makau
▁Nyar
▁өстенә
▁Yake
▁انهم
▁mít
▁내지
▁Ib
माग
▁도움이됩니다
bẹ
▁यांच्या
▁skupno
ctions
▁Nasta
apons
zgika
▁בלי
နေ
▁drinken
থা
▁yet
▁thibela
▁isticma
▁ži
▁mây
▁kısmı
▁мінде
▁mǐtɔn
▁tatua
▁dirilis
▁دراز
ślałem
▁juhtus
▁အနာဂတ်
らは
▁пријатељ
佩
▁сүйгөн
ше
▁Ngokom
ர்களை
▁dopl
▁fjerne
▁çend
▁memo
変える
▁pidió
▁inspe
▁hàn
inyje
▁دونی
oii
ຈຸດ
▁Үз
પૂર્ણ
▁елның
▁qarash
▁bisognu
▁schia
geh
▁নাকি
نون
▁ಮಗು
▁агу
reḍ
▁कृ
քան
oret
itshembiso
▁ఆర్థిక
tarë
▁яу
▁يوسئف
▁највећи
▁maiala
ೇವೆ
▁pangkalah
kummer
เพื่อ
▁व्यायाम
לטן
▁fiarovana
▁dicapai
▁littatta
wenyi
▁deler
▁አጋ
评估
▁malay
▁ਹੋਏ
▁kaŋ
▁ურთიერთ
▁yumi
▁긍정적인
▁rense
མི་བྱེད་དོ།
▁altri
▁watashi
▁mũna
싱턴
▁maaram
にする
▁podpor
bed
▁písm
世界的な
▁41:
лыҡта
▁ghọrọ
▁უც
يه
▁mengarahkan
insá
▁recorda
▁rán
▁kusolula
▁વો
bišo
-"
▁agentligi
તાને
ureun
▁mwyn
▁ਰੋ
▁култура
▁kupiga
▁kwale
賢
ايمەن
▁Umb
▁чака
hazik
▁भइस
▁ofufe
▁जेकर
ご覧ください
▁ɛmfa
▁hark
▁yhteyttä
Awak
▁tikanga
яких
▁자는
▁föres
iliutaki
্রগা
▁vënë
▁план
▁25,000
▁끝에
チャード
▁Trinity
hechauka
▁tepër
ኢት
ieť
▁doivent
▁lægem
▁Auswirkungen
▁comunicazione
باه
▁قىلمايدۇ
▁moun
▁hægt
▁istr
སུ།
▁Ily
▁whats
▁place
▁6:6,
vyuma
лағы
స
▁grandi
▁მინ
itere
▁merke
megi
▁ndekelu
▁காப்பா
جەم
chika
▁голяма
ਾਨ
▁мекар
ទៅ
त्ते
▁rena
លោក
▁malipo
▁ngoma
▁لازم
мастан
ውንም
ayod
내가
▁안전하고
ố
▁కలిగిన
4-
ristu
▁ħdan
ምፒ
▁omano
▁sociais
くださった
▁वेबसाइट
▁gelecek
▁ieinteres
▁માહિત
อนุ
同時に
▁həmin
▁quelque
▁vdekur
ụkọ
▁angår
▁בא
▁olduk
▁trabaj
▁دقيقة
▁आंद
▁hõl
▁rettigheter
▁рух
▁ژمارەی
▁dansk
▁Конгрес
яр
▁prohib
anem
utuk
▁meis
▁Mongolia
放射
óki
сыздык
atac
ཚུད་
▁welat
▁sobret
cą
dage
భ
▁sekurang
ára
▁পরিচাল
▁ụjọ
▁ట్రా
▁stilling
▁nyike
▁ìgbéyàwó
▁semèn
apụ
▁veli
urian
▁ਇਲਾਜ
מינים
▁мать
kal
▁ડર
▁modirong
▁Энд
▁aeroporto
▁dibawa
▁lesw
▁ogologo
сного
ائ
ཡབ་
▁үзләре
bero
▁yaşı
▁पिछ
▁vilkår
▁نخ
▁santyki
▁Bachelor
▁Hakanan
▁finanzjar
▁امیدوار
▁siwa
гите
▁sima
▁Nä
▁recerca
▁isimo
мс
▁سوپاس
▁Sẽ
▁फल
▁মাতৃ
වර
▁nhắc
సింది
ምር
isekelo
▁olon
▁фокуси
▁Wali
誤
▁jaqinak
jaɖɛ
▁makanan
▁kuhanjika
▁Baiboly
▁권리
▁Ainda
▁sprawy
▁itali
▁lehető
▁eszköz
▁стая
▁çalış
kau
▁pubbliku
▁vakolat
▁pʋgẽ
angen
▁measures
▁proveni
▁bizn
shir
▁Більшість
▁ճիշտ
延び
ዓብ
ማቴ
▁로마
▁ā
▁ئەمڕۆ
ន្លង
▁chere
werpen
λέπ
▁궁
▁راضي
▁шка
▁Ehkä
▁ਬਲ
▁quedar
▁rahi
▁لینے
▁memòria
▁бе
▁төше
▁よって
՜
ပြီး
गट
クルマ
▁저는
▁item
▁қарай
▁deten
▁bole
▁என்பதை
▁Bild
▁விட
▁ọdún
▁ihren
ينو
▁წელი
▁gesondheid
▁orç
ண்ட்
▁Дөө
▁મૃત્યુ
okula
engeka
푸
ятон
▁internazionale
лігіне
▁Lot
▁Awe
گے
▁নিৰা
▁förordning
▁publiko
▁স্ম
▁بووم
хра
ökken
▁stavu
▁obdela
▁ciel
faint
osić
ombisa
▁ndaj
▁script
ิด
▁대화
▁Eco
hand
baş
▁తమ
حت
▁memandang
meýän
▁agụụ
لئ
▁situazione
haliseki
க்கூடாது
▁берілетін
▁دوشمن
ക്കുക
▁Kweli
▁बतावल
ۆكی
egos
▁ditem
▁tisaipeli
▁ಮಗುವ
▁מומ
▁diphoofolo
insula
▁kuzi
▁wës
ம்பு
▁ሊቀ
▁أت
▁ରାସ୍ତା
mamı
Fakazi
न्नु
▁agric
▁ထိုင်
▁doživ
▁hingpit
▁Allata
▁atse
▁cinema
ებში
ката
▁nacionals
▁بالایی
▁Rib
ငြ
▁Luigi
ziz
▁Secara
▁codi
ήσει
▁Tuna
▁pfumelelana
▁хими
▁ntatu
▁lần
▁वर्षको
▁Deg
▁ସନ୍ତାନ
▁रहेंगे
▁同様に
▁Oluwa
▁nokuba
▁úr
▁имин
শ্র
麥
ĩtye
dighed
▁ọhụrụ
▁berkualitas
liaus
女王
オイル
umsa
▁kuiibha
▁owete
▁кеші
▁جناب
▁jmé
▁ملي
amid
▁januarja
▁લિ
észen
वाच
▁тварин
▁keiči
▁150
▁나타
▁Isaya
ავალ
ខ្លួន
هذا
▁הטי
ۆت
emploi
▁Kendo
▁комиссиясының
附
ষ্য
▁وال
▁hlayisa
▁espera
▁түн
▁suis
▁أقل
▁teised
▁enhan
▁Kill
īn
▁mondo
wade
▁day
▁كاپىر
▁топ
▁Lokhu
nzɩ
▁baseball
▁तन
▁niech
▁ආහාර
▁huhuteriweke
▁veikla
dana
▁nõude
bbilixxi
▁Pēc
▁naissengngi
▁Obstaja
ásos
▁Rang
证
▁fifanarahana
▁4:7,
▁står
▁చెప్పారు
▁vafi
loč
▁pasiekti
▁helping
Aj
▁நிறுவன
қа
ೆಹ
zizwe
▁וכי
▁ئوقۇ
▁pašvaldību
եռն
ђе
▁direktiivi
▁従
▁Alpha
lhal
▁vakav
▁Pom
тин
ಂತೆ
пъл
命を
▁주님
▁མོ་རའི་
ulungileyo
▁Mtakatifu
camata
▁mük
▁пола
atoire
▁구현
▁higala
▁ರು
ゲスト
ovat
謙
▁달러를
▁ngelekany
▁したがって
▁ਪ੍ਰੋ
emput
▁mawi
▁orde
▁manne
יו
гру
▁निगर
лус
▁باران
සට
▁ramen
بار
▁ਕਮ
▁razmer
▁నిపుణ
▁bungli
اه
▁रुपये
▁ngobu
ציי
▁iainana
glwydd
tación
▁vysi
▁përket
zah
▁Norwe
वते
▁ຂອງ
lane
▁halde
▁bood
▁Ису
ifanya
▁Cid
antarana
▁ድ
▁ụka
▁tëk
ราะ
karhini
会社
▁voit
▁thĩna
▁específicas
ട്ടും
▁반대로
глиз
▁звіль
▁preces
▁mïth
▁përdorur
▁spreken
▁storo
ittäin
▁hloek
ҡара
▁ምናልባት
▁ହେଉଥିବା
▁Quraanka
▁katotohanan
▁dusu
gbọ
hua
▁ripat
▁مكان
▁ของ
lates
▁കുട്ടി
▁ezik
▁əmə
▁7:4
▁ярҙа
▁ప్రభు
▁வேண்டுமா
▁ፋ
▁ndaka
თავ
▁болохоор
▁coneixement
čajne
▁beveik
▁We
usias
▁आपूर्ति
▁تىلەيمەن
▁tothom
λεσ
▁මර
▁‫
▁calend
▁Μόνο
nyonnyola
▁ଏହାପରେ
zoan
원으로
rak
▁තිබුණ
▁முன்
جاج
▁طب
▁χώ
▁အနု
རྐྱ
フィル
ovanie
▁pasin
фици
可能に
いを
ambirhi
▁mikili
ர்த்து
unti
jiegi
▁atsakom
דה
▁komiti
ottam
▁बाँ
õttu
▁rade
ཚང་མས་
▁pain
▁že
▁już
▁কৈছিল
▁modeller
ħti
▁بويور
▁todas
vier
ैले
প্প
టంటే
▁ਹੈਰਾਨ
▁لێرە
▁nandray
▁নহ
dio
▁அவ
▁ụda
▁يا
無かった
нәк
rd
▁उनीहरूको
వీ
▁əgər
해야만
▁Amwe
▁oikea
▁сау
akoo
▁Басқа
wladol
▁направат
▁приходи
▁pès
▁aujourd
hamdulillah
ساد
▁saje
xxip
▁Noh
▁Waaqayyoon
▁කටයුතු
以
likula
▁Edeni
▁Meet
חנו
▁ယုံ
容忍
▁posição
జి
▁kayıt
▁ང་བཅས་
ulu
చు
րց
▁vyo
▁መጽሐፍ
बेला
нир
▁Kwe
μμ
▁kevesebb
▁información
▁byli
▁nebe
▁išv
ibhithe
nib
▁ସଂପ
umwa
▁Monate
▁የ
▁nyon
ɔ
zymi
掲載
▁ਮੁੜ
▁Motors
▁ձեռք
buta
樓
irak
▁아마도
▁pamodi
otsweng
▁KP
▁सक्दिन
▁ଜାଣନ୍ତୁ
▁Attiecībā
▁anto
▁šai
▁통제
▁тәжірибе
နှီး
ிறது
yenye
▁সৈতে
▁karatu
▁esiwo
ungbat
▁зарыл
▁போட்டி
わって
indanĩ
▁आधिकारिक
▁жаргал
▁jualan
▁lokukulu
▁vevie
▁Samb
pap
▁يار
्सा
▁klima
▁Fodd
jilu
بیر
▁recibió
apa
▁немає
とい
eriu
▁ülkel
intz
ɦ
▁प्रवाह
▁tādas
!'"
▁taket
tų
▁tirotiro
▁utang
ggia
▁연주
utuskan
▁mees
álta
▁bilo
▁restr
▁höl
fho
centage
єння
bok
▁1998,
▁berd
▁Building
▁tauwéro
▁Bhaibheri
qar
eletso
मक
想定
▁polondo
▁pʋʋ
▁ਜ਼ਿਲ
▁أش
杖
꼼
йыркы
▁entender
juang
ਪਤੀ
enges
▁Ереже
▁60,000
ίδευ
呼び
▁للم
▁מש
▁yeda
▁مانع
▁ôçò
▁didelė
▁vastgesteld
▁لقد
▁قرب
havia
atat
ভাবেই
ologile
ମକ
▁ದೇವರು
skapet
▁gwerth
▁енгі
▁uppr
▁aħjar
▁mararo
▁Націона
▁sust
isman
کم
▁avsl
▁Tokyo
▁رین
▁Úc
▁faisa
бити
▁iko
يم
▁שע
▁ያስ
▁Zimene
▁ný
품을
▁holdt
▁aktivt
▁serão
unt
▁elintar
ຕູ
▁ማስ
▁Через
▁selección
чување
tanin
▁ਬੈਂਕ
▁大統領
▁equipo
▁manyan
ട്ടു
▁Bakeresete
дани
▁کورت
Istati
ອຍ
eldud
▁denmuso
ladim
▁pojavi
lato
iselo
▁کلاسیک
▁VE
issant
▁بئلمه
▁faamu
▁bitta
▁labo
가요
▁олар
ങ്കേതിക
▁komedi
ほど
▁picture
tir
▁zǎn
▁Године
▁hy
▁провести
ᱚᱴ
্না
▁کھول
ردم
▁සෙන
▁TIME
▁잘못된
▁farkon
▁būtis
▁ц
isalaele
▁Bolivia
डक
ญญาณ
▁pagkatinuod
▁fünf
▁дили
尋ねた
ņē
マル
▁сина
▁usuaris
ಂಗ್ರೆ
▁iedzīvotāji
ാകും
▁malaya
而
▁Ratu
▁οποί
▁Bradley
▁വർ
▁Бәлки
▁അമ്മ
奨励
▁Gaga
mmisa
нил
は大
lulu
ཡེ་ཤུ་གི་
▁kellu
▁mts
▁bomoko
ῖ
▁Acïn
▁estruct
ugana
▁versucht
▁TV
▁Déi
▁Derfor
▁ikintu
iphemu
▁جهانی
▁obeć
▁जु
gencia
ணுவ
▁11:5
▁بالق
һында
ಪಂಚ
▁sasaga
husele
▁14:
▁lífs
▁komprenas
회는
▁гэр
ؕ
արանի
ནམ་ཨིན
▁birt
▁عليكم
ল
▁წეს
év
▁اھي
▁доводи
▁kamehla
▁useita
▁yutu
▁მეტი
ំណត់
ungod
▁biblioteca
្វែងរក
▁yī
寛容
aysa
▁ხალ
▁вси
▁Jepang
▁ख़ु
▁tekɛ
▁تاريسي
▁Rafa
▁terapia
▁pèrdua
ୱ
ávame
▁chuide
嘅時候
▁재
▁వ్యాపార
怨
¡
▁pranešė
אות
▁manipula
▁Macaafa
▁школу
王の
▁twojego
▁elkarrekin
▁daar
▁قىلغۇچىدۇر
新的
▁дагы
▁dakong
▁ọbịa
▁nello
▁індивіду
▁français
▁hamaa
▁voalohany
སེར་
የሱስ
▁eĉ
▁думаю
▁okan
▁zís
စက်
मन्त्री
ámù
▁খ্বাইদগী
▁тим
▁Кад
▁1964,
▁incontri
处
▁atļau
▁jkoll
▁эшләрен
▁tnaqqis
▁temper
▁hej
▁опреде
▁ramo
kɛnɛ
やってくる
etaagisa
anoma
▁चिन्ता
▁apakah
ሞክ
▁বর
▁விரு
bbang
▁оти
▁wody
nius
▁uyg
▁калга
▁ɗauka
▁določenih
ᱩ
▁О
▁감지
▁ετών
▁prival
更多
培
▁شاو
▁детек
emeg
▁dzesii
▁laela
ното
кәсіп
▁Фар
▁ndaikat
рект
▁siwo
wolaeth
▁মদু
เหรอ
▁tíre
▁चू
▁joke
▁23.
▁चेल
▁styrker
▁diġ
方法は
▁83:1
▁опису
喺
▁מספר
この
ការងារ
པ
▁বৈঠ
▁ظلم
▁tlhaloganya
▁dag
ética
▁외부
тір
▁скар
▁ንጉስ
▁wapadera
▁ජනතාව
enus
ithembiso
▁시장
▁polu
rito
▁eò
▁bakaka
bios
▁बुरी
ፈልጦ
▁gaza
unguri
▁기원
▁יד
zó
deš
ডেন্ট
يەم
bles
▁spéci
בור
▁สาม
棟
▁رهبران
▁togail
▁मैले
▁seur
mê
▁snat
▁জনাই
nyịnya
▁бити
emo
▁ឡើង
lí
▁Comunidade
▁tarki
▁luonnoll
альних
聖霊
▁Ethereum
intang
▁그거
▁иғ
vení
lũmu
▁ある
▁ነገሮች
▁veterinar
▁другима
▁elenk
ଦୂ
▁đại
ANN
ফালে
▁чакта
▁Fortsch
▁Hul
▁απόφα
qalelo
पालिका
▁caran
▁kusa
▁mā
jade
ayr
▁አላቸው
▁өткен
ksamhet
▁pravico
▁Mbimbiliya
▁lík
ogopa
▁suficientemente
нәрнең
▁quyết
დინ
▁empie
▁teatas
▁Cour
▁Szerint
▁кратко
▁mabunga
▁इस
ymi
▁dejó
yu
▁samtang
▁विश
▁catch
▁обука
▁ধ
▁atindaki
▁셀
リスト
arali
וכים
เหล่านี้
▁240
▁ዘንድ
▁యే
fuga
▁Gag
扫
▁Nipa
▁arri
▁करोति
▁γρά
▁ຊອກ
wenza
▁elérhető
▁ирээд
▁favour
▁SC
▁pier
▁Hänen
bubu
かれらが
▁কোর
▁pasando
рата
aisrayeli
▁penderfyniad
▁포함한다
▁అనుమతి
nė
避け
▁Європі
▁akunda
▁exikarhi
▁due
▁жума
▁religio
▁سرت
▁ភ
ฆ
▁linha
തായി
▁Internet
▁kumaka
▁আমাৰ
▁imun
▁ŵach
▁iş
اوس
해를
saramti
▁recipi
▁jumanw
▁Буду
炸
hebera
များ
▁raad
បញ្
▁khot
▁реко
▁چاک
▁ürün
▁Fá
ቚ
▁invasi
▁muboki
▁dempués
কলে
ibintu
▁तपाईले
▁ここでは
ၶၢဝ်း
▁lega
mola
▁магази
ိုတ်း
▁timali
▁both
▁տեղեկատվ
▁ಬಯಸುವ
سي
▁לבחור
▁ஈ
ídas
▁እግዚኣብሔር
▁atšķir
▁apskai
▁204
▁قئ
▁роботі
パフォーマン
▁kõigile
▁ወሳ
ኼባ
вый
▁առանձն
▁tsakiyar
▁келді
ulongan
iskira
sék
▁sune
▁saviem
▁pêþ
ତ୍ୱ
しており
ে
펴
▁поддер
▁компанијата
κλη
▁4:5)
▁ideologi
▁tsɔɔ
▁Bú
11]
ینې
▁म्हणा
hajt
▁escr
▁stoppe
▁jaanuar
▁귀
▁Гэр
▁essenzjali
▁২২
▁bhekela
தனை
ରି
شق
▁صنایع
▁ئىككىنچى
▁기억
œ
▁kony
▁launched
ようになります
▁hyia
▁иттек
聽到
▁ikut
▁pakarsan
▁שנו
ጅት
க்கிறது
ukumu
▁Гар
▁Вла
▁kantle
▁re
▁bazali
ၵူၺ်း
▁Англия
ение
▁lapun
▁bran
▁algemene
▁Atu
▁rate
▁kinap
iramo
ใช่ไหม
▁Kiti
selig
liez
▁விரும்ப
▁домов
▁მარტი
▁bigaragara
▁Джи
▁چىقىپ
ydelser
▁อยาก
▁szig
ætt
的一部分
▁žemės
atioun
▁କରନ୍ତୁ
▁ନଜର
▁பற்றி
jně
್ದರಿಂದ
▁cj
õda
▁સામે
gihan
▁שוא
angl
cɔnɩ
orsi
▁zinen
▁ഒപ്പം
ɛn
разуме
▁eriko
▁арна
ಧಿಕ
jaaj
гузор
▁পারেন
▁luram
န္တ
നും
▁valószínű
шь
▁tawam
▁nytt
ពុក
▁sepatu
▁беле
ሴት
上昇
▁qon
▁چئي
▁tegal
▁пункта
▁ಹಳೆಯ
jieg
đer
▁Орта
▁lenghe
▁palk
▁itulau
onon
▁bniedem
▁brú
▁ngalokho
▁храни
‛
ironi
ರಿಯ
▁इं
ላችንም
▁quere
▁ɗen
▁sellest
cijas
▁(1)
▁تۇرىدۇ
▁jare
トリック
éenyan
歴史的な
▁likuminya
▁Viss
czą
ühr
▁ուսան
▁sexo
▁riƙa
zania
▁хла
▁išmet
▁տարած
▁sestav
▁mahin
ንዘብ
ではない
etik
▁marimari
▁ریزی
▁obedo
अल
hodno
▁रेल
ທະຫານ
▁방
ပ္
▁jink
ulule
▁kintu
▁말이
▁tikrų
▁ikem
▁هەندێ
▁Њујорк
phere
▁sinn
ILO
馬
▁යන්නේ
▁bukid
▁nose
▁좋아하는
▁maña
っているのです
▁pantal
faniri
fila
▁израз
▁җибә
▁nyikaka
▁Ewopeyen
onec
▁Kuwa
人を
▁يورپ
▁aslında
▁lokola
在大
▁filiste
šos
▁kamida
▁وبعد
▁teupeue
▁քարոզ
▁atyre
▁føde
▁jobs
▁Perú
▁neta
▁nilaza
▁vastaa
▁អញ
▁officer
▁놀랄
కాలంలో
▁Alberto
▁শ্রম
הא
ம்பெ
▁боже
▁ముఖ
ungile
▁gry
jęcia
境
▁cyangwa
▁әһәми
ścią
لو
▁هایش
▁attiecīgi
йир
▁chochote
▁lolo
▁manajer
▁авч
ର୍ଘଟ
bâ
▁<
▁Cada
▁tək
▁다르
3;
▁abbaan
खनी
itoli
▁alë
▁griji
▁डार
▁באזור
▁lɔnniya
▁ಆಲೋಚ
▁받아들
vika
▁deebii
▁birlash
▁kul
фтанд
▁lesea
▁[3].
ᄂ
▁محت
ané
▁ph
失敗
ምረ
▁uwch
śnie
▁wyt
▁uvedených
▁sakon
▁kolanda
▁Man
▁Ари
▁ise
坂
На
▁bhonza
▁өзгөр
▁मुश्किल
▁grunnlag
tilo
▁πί
▁kontrollida
▁hal
▁Gyihova
gene
פע
داد
cë
险
waba
▁ṣeé
▁yàn
▁πάνω
▁reba
大事な
fag
▁nöd
▁Empeleni
▁solchen
▁येशूले
▁iomadh
▁Lass
ryn
▁her
▁헛
када
▁ناتوانن
▁뉴욕
▁ويئي
ოლოდ
okea
▁kupiti
▁нэгэн
▁piace
▁اوست
ခါး
▁vapa
Alla
▁eating
▁негізінде
шити
▁dirang
▁slep
фер
▁ଜଣକ
cké
▁بیرو
ජ
▁پرته
▁qap
▁падна
▁gullukçylary
▁pes
▁1983,
▁ଦେଇଛି
Sirayeli
▁ҡарағанда
chitikira
เลือ
▁Gods
унк
▁Neid
וניברסי
▁cot
▁ໄດ້ຖືກ
vegi
▁ውጽ
▁lí
▁меч
▁सत्य
▁lose
▁Livre
▁тохи
AL
寒
▁ضم
▁വ്യത്യ
ēšanu
▁క్రీస్తు
abhair
fám
▁않는다면
▁bangga
lità
▁өҫтә
▁יכולתי
▁Jaki
တုိ
legget
ktati
▁შესაძლ
▁والت
хор
▁սեղ
ോളം
▁adakah
▁ಮೋ
▁ব্যবহার
▁duş
ོག་
▁Simo
▁biribiara
▁herinn
▁sulu
▁종료
リダ
▁lekgolo
▁ਕੰਪਨੀ
▁فارغ
ined
ëscht
▁kenang
age
▁mogelijk
gate
▁ಕಾರಣದಿಂದ
▁प्राय
▁ไม่
▁Ии
▁ክን
▁bongo
▁нары
gaz
▁Sampe
ก็คือ
遵
▁Конкур
▁alkat
▁arm
▁ନିମନ୍ତେ
фы
ທຶນ
▁sposobnosti
▁zástup
▁αναφέρεται
▁قدیم
રાશ
🙁
語っている
▁izra
iket
▁Diosa
▁কার
говаря
▁اولار
▁чега
▁skema
뒀
違う
▁راو
▁Perëndinë
hombo
▁іденти
บัญ
▁pamilia
წმ
▁kādas
▁الكثير
▁تضمین
uduek
▁preżenti
▁érzem
▁хоть
ခန့်
▁vertės
▁made
vuzo
▁pwoteje
žiama
юк
layalati
▁متم
▁utjkiti
▁болдог
fihlo
▁følgende
▁membawa
थव
linzi
▁bahlale
▁започна
oihin
ськими
ジノ
žioje
▁জিজ্ঞাসা
buteng
阪
▁skirt
бина
ือง
▁jwe
сус
▁zwier
adosang
▁kumisa
ເລີ່ມຕົ້ນ
нов
▁hpaw
bojas
▁තේරු
▁зборови
▁newid
▁ŵali
ਾਂਗ
ですよ
▁stanno
octubre
▁artículos
wasan
▁vel
▁گفتم
▁ант
ffor
▁israel
▁dosť
▁Inside
▁300.
uksesta
▁ਦੁਆ
енча
ដ្ឋ
▁kõta
▁guta
ارس
문
▁ပေါ
▁пија
▁jekk
▁တပ
▁uzskata
འགྱ
▁perchè
ຮອບ
▁پای
voriť
amuch
lu
▁banks
▁ҚР
▁berücksich
▁tyk
▁እውነት
rigwar
▁cori
ண்டி
▁ойр
맑
bn
jska
font
ohen
баҫ
үл
▁atwam
лерд
▁mý
▁tub
োর
So
이고
▁поту
▁brought
ថយន្ត
လပ်
▁ngaro
▁akik
▁soñ
▁mision
采取
▁Nasaret
▁Председа
▁aanu
號
▁अगर
▁proteger
▁izizwe
▁mafelong
vention
조차
▁закры
erebut
▁تخم
хать
జన
ograf
តាម
ிக்கை
▁nabyo
▁ngare
ئە
▁পৰাম
▁තවමත්
▁periodista
بۇ
▁nhyehyɛ
▁ھالال
▁Juifs
مەيدۇ
▁harder
मेलन
▁tam
▁Mpe
▁battowaé
ကောင်
▁kalou
▁Olos
▁زیب
টোক
▁इजरा
▁89/
指摘
▁นี้
▁bange
body
▁خالقي
▁ristr
pida
▁betaler
▁күнү
▁ɖeyi
▁توګه
▁ẹsẹ
িৱ
▁akhoza
ungkinan
▁ಗಾ
▁?"
なかで
▁SIS
▁معنای
БА
arakara
▁hkrang
▁makapan
▁ବାହାର
▁வில
▁смі
ியது
▁ceanna
▁tästä
eguro
▁kamwe
ــــــ
▁krut
▁ყოველთვის
▁Getuies
▁makuru
▁ið
▁ئەگى
τής
▁marautaka
▁kunge
olole
▁یارمەتی
▁It
▁gyina
▁Bibulu
▁interface
▁εδάφ
▁ત્યાં
▁国家
ウイルス
ໃຫ
▁လာ
қықтық
utana
▁आवास
еннән
▁metlheng
▁током
▁hoyr
▁중에서
▁सकैत
ياة
▁زبرد
oňa
▁کئش
▁olondunge
siva
▁ཁོང་གིས་
▁банків
nuo
ekhaya
▁ndalama
▁ਦੱਖ
idun
▁argisi
óid
▁esivayo
▁동맹
ပေးနိုင်
▁Estat
▁Setaani
▁ཕོ་ཉ་
▁mantong
▁myu
▁tï
▁гір
وئنه
▁ndine
▁ಆಫ್
ადის
▁қаулының
▁faaopoopo
▁tilpasse
▁კოლ
▁تخمین
συ
ritte
▁әзірлеу
▁kontrolli
▁తక్కువగా
▁intaneti
▁হোৱা
▁trajn
▁categorie
さらなる
▁रोजी
▁ਅਜਿਹੇ
ವಾರ
▁Daniele
▁మిగిలిన
らに
▁लम्
▁nome
zett
とても
▁przer
inväl
າະ
▁המדינה
▁Efisɛ
▁հաճախ
▁පිය
▁पोहोच
▁өтінім
▁लाल
▁Ankara
▁نیمی
▁атка
▁것이니
築
▁آغ
▁برچسب
ন্ত্র
ính
epast
▁يامغۇر
▁Джон
▁itanga
▁번의
tawng
▁ainge
▁beslutninger
▁ಕ್ಷ
லையா
▁görünü
தியில்
▁πα
্থ
asiga
ever
▁vei
PC
ঞ্চ
пада
▁қой
▁lalaki
▁bilmek
ekpe
▁គឺ
▁ఒప్ప
雛
ngkalingai
▁pertinente
▁ǹ
▁retts
▁Suba
▁ಆರೋಗ್ಯ
álya
▁دەۋ
▁ლ
załem
典型
버려
▁svim
וישן
▁anunci
▁oph
▁beğ
▁6:3
▁imoxi
πτώ
▁lami
ಬಾ
▁ரெ
▁معنی
▁sũyã
▁बाळा
▁dull
▁পাল
▁Maisha
▁ட
▁jotta
osp
▁суспі
lobo
▁sunnu
▁nindakake
甲
▁Shet
▁ikaw
▁zůst
▁جۆری
▁qǐ
▁mebala
▁ëlä
haltung
▁menjar
▁temes
▁өрчү
虽
▁Nhà
র্য
▁comandante
▁association
最後
ודי
었다
▁방황
gog
utum
ா
▁넘는
▁ដើរ
▁harbiy
▁ronú
▁pačios
ঈ
▁حز
ଲଟି
▁আনহাতে
ੱਟ
χρι
▁rekisterö
ządz
しゃ
길을
ಿಕೊಂಡ
集中
▁یهود
▁អើយ
zív
▁невели
▁lembut
ológiai
ക്സ്
▁műszaki
lamano
роб
sisi
▁végzett
▁genomför
stüt
amalosia
enang
ᱫ
▁наци
▁gennems
▁malaekat
▁պահանջ
▁அர
jemu
▁حقوقی
▁توپ
さら
▁ужива
چە
▁oc
▁સહાય
▁эту
lakukannya
▁algú
▁конф
▁keadaan
▁ಸಾಮಾನ್ಯವಾಗಿ
▁Lasar
▁Ruux
避ける
▁spiser
ènman
kowi
▁ತಿ
▁vás
หม
▁transmis
▁üldse
beles
سەم
тардан
なければいけない
▁HTC
▁Кои
▁odhad
を発表
េស
▁domí
▁ارشاد
▁Belle
hakeni
▁daali
?*
▁fier
▁ակն
▁သည်
どもの
▁واقعي
▁Mix
אַנץ
▁플랫폼
▁bagyo
ණයට
▁आनंद
umiza
Bir
രിൽ
▁Josua
▁úsáidtear
жиг
▁César
ระหว่าง
▁ལུང་སྟོན་པ་
Mungu
▁mhi
▁faighinn
▁клі
▁САД
▁новиот
ські
akab
▁Wikipedia
▁countries
▁arak
英国の
▁nl
▁тарих
▁hyɛ
▁sõiduk
naðar
្នោះ
seni
▁amyu
βλη
dık
▁biok
▁циві
▁mabɔ
▁প্রশ
▁ಇಂದು
▁йй
▁YO
wne
ምኑ
▁vorbei
明日
▁ଆପଣଙ୍କ
▁verdim
▁prítom
endaga
▁nagaingon
▁parlamento
▁mavinda
▁త్వరగా
▁געה
لىرىغا
лыҡты
ਨਾਂ
▁پشتیبانی
▁pagsus
▁kalang
▁விஷயம்
ंसिंग
▁شيلري
▁ജൂ
▁užtikr
èõ
▁ਨੂੰ
▁ඉක්
▁працюють
▁kategorier
訂
깊
ቅ
▁cim
議会
▁dinja
▁һаман
▁regolari
▁umwaka
cash
▁kalidad
▁ndan
manto
▁बातमी
▁Ρ
▁suuri
▁కథ
Sara
▁zwy
▁उपन
چىلىق
▁ຕິດ
isus
▁utu
▁સંબંધ
giang
▁makkedaè
fiah
▁nhe
▁دستیاب
▁asetra
amna
▁conso
▁நம்ப
▁cuer
WY
थ
宮
套
emea
fakazi
▁બાળ
oten
antwana
▁Ыйсанын
estus
정보
▁أقول
▁Друго
▁eYer
графі
▁komba
▁단계에서
ела
▁그리하면
ոսի
ທົ່ວ
▁દીધી
▁brez
▁แน
▁malanda
▁iros
ိူၼ်း
ெல்ல
ттің
▁ಎ
ündə
▁Osim
▁ક્ષ
▁रद्द
▁Jesusasti
▁докази
кому
▁mulungu
▁አስተ
eran
▁Sehingga
▁இந்தியா
▁саклап
ឬ
▁だから
驼
▁notika
▁emmere
▁administrat
▁حڪ
▁emberek
мосексу
▁살고
ال
▁тураһындағы
ċip
▁50%.
▁diin
▁जरी
okwa
eza
▁armast
▁mea
▁kúnnu
▁Ուստի
▁hting
ಪರ
▁níwájú
修復
ëtare
▁copie
▁22-2
物の
▁hyzmat
võ
▁neod
▁konyowa
Iyya
▁Kuigi
▁ուսում
▁Lehet
▁bikomeye
▁التى
zuli
▁7:12)
▁пад
▁ഇന്നലെ
に帰
▁mesenene
aparo
▁ART
▁нових
▁hosting
ঢ়ি
▁সোন
▁plānu
▁အဖြေ
見る
▁enk
エル
form
rq
uuf
เพียง
▁Anavar
▁एकीकृत
▁kampa
▁nurodytų
▁kerana
ojan
▁ngarud
ikka
ಶ
▁monia
▁Nokho
ərə
▁evandlheni
liana
യില്ല
사와
▁estabas
ರಿಗೂ
▁iroro
▁ሃይማኖ
लिंग
▁እሱ
▁بيم
вофи
▁ხდება
▁gulang
▁uvjer
▁dunida
まだ
▁banyu
▁광범위한
▁تحب
ată
▁ತನ್ನ
▁asemel
▁mr
▁parts
▁mamiriro
▁Egito
▁аннан
▁miha
▁Call
▁tibbi
ছোঁ
▁журна
ポジ
▁namesto
▁patoke
လႂ်
limita
▁שלי
すでに
▁எழுது
にある
▁呢
▁истовремено
▁Ist
▁lefel
മേരിക്ക
▁ibuku
ciata
▁kosti
fuura
▁nuovo
▁ñoo
▁ईरान
▁효율
▁움직
▁Jut
▁معاہ
鳥
▁riip
▁ald
र्भ
र्ण
ombola
▁Bá
▁ኸኣ
зад
ätter
▁$
▁capac
▁त्यसैले
▁қорғау
Baba
▁ҳамеша
상은
▁kwani
▁한국
▁دۆز
▁сүнс
▁Nilaza
мир
▁چىڭ
▁잃
▁тәртібі
▁Roinn
▁prevenir
▁श्रीमती
ళ
سته
▁कविता
▁ช่วย
▁kutena
▁बजार
▁Siapa
ൃഷ്ട
▁тук
دئلر
▁wuk
▁گلئب
▁মরু
▁Просто
▁ಸಮುದ್ರ
▁mtima
ètí
▁śred
少なく
▁ettevõ
▁مطالب
▁ማ
yiniz
▁ўсё
▁എഴുതി
▁nzambi
▁pomo
▁kpli
▁donner
be
▁오고
ترم
敢
▁Ä
▁유익
▁размишља
▁Бид
▁apam
ិត្យ
▁amerikanske
ısıyla
App
▁morire
ান্স
▁mmiri
▁programmi
▁무엇보다
▁Колум
प्रा
నప్పుడు
犯した
▁hänsyn
▁ਰਿਸ਼
lam
же
ግዚአብሔር
▁zbor
▁comun
▁birisi
▁институты
▁xD
▁kausay
ിഞ്ഞ
극
ంగ
▁وز
vaš
▁sektora
asax
▁dán
▁licenza
▁124
▁compo
▁সোম
▁hi
zali
eɣ
▁Yakob
ġju
▁servite
rigt
ོང་
▁אישי
▁went
▁berenang
▁ເປ
▁yavaş
▁кінця
fyll
њена
▁Awọn
▁يحاول
handel
amentele
ヴァ
▁Haddii
於是
▁gbia
▁ኣዋ
eraq
▁öle
▁שזה
▁Bél
.):
▁lyonse
Fili
བྲོས་
▁आयोजन
एन
irean
▁ịmụ
▁хур
▁xwlémawutɔ
▁دەپ
▁beyin
ikah
▁elem
▁मूल्य
▁davlat
žde
▁pyr
▁வான
▁Είσ
୍ୟ୍ଯ
▁회
▁ëm
▁begå
▁त्यासाठी
▁1.1
見つけ
▁taofia
Υ
▁manuru
▁daugiau
:6).
▁ಪ
▁përshtat
waren
▁lees
دايت
▁Bont
▁út
fits
ੂ
▁1881
▁그녀가
▁اجرا
utó
▁válas
▁kuaye
것은
κτο
▁kago
▁proti
▁fællesskabs
▁genoem
▁غريب
▁imenom
▁referen
▁사실
íðu
ང་ཡི་
▁જ્ઞાન
▁bás
▁dogovor
ىدىن
酒を
挟
èò
تۇ
发挥
▁장애
▁bridge
▁hundred
▁чиз
▁확실히
tevẽ
▁nibe
▁Mitch
▁rahat
ให้เรา
▁finestra
▁천
をどう
▁katse
▁gais
▁വെബ്
▁неуспе
放送
ياخ
nanya
▁आकाश
τρε
▁kültür
▁لوا
akwunye
▁stjór
▁لى
ໄດ້ຮັບການ
▁keret
▁lutt
▁relativi
▁ସାମିଲ
▁знає
▁ზე
▁komawa
సర
ылган
▁slov
▁navnet
▁orukọ
▁რაიმე
▁ubij
▁proteín
ი
ཆ་ཁྱབ་
▁exten
▁êm
▁বর্তমান
▁билдир
▁dụ
▁മുമ്പ്
▁sood
▁شايد
▁skep
োৱেই
▁sokolola
▁kkonċernat
unuu
▁تصديق
ⵀ
▁страте
ραν
علی
▁Kdyby
幫
鷹
▁선
CE
▁سیگار
▁kapa
▁బొ
▁paš
▁ક્ષેત્ર
▁খুব
▁Musím
cats
▁taobh
▁pioner
▁εξασ
▁ለማግኘት
ێنێت
▁likvid
▁rait
стони
hunzira
▁أح
▁ezili
годи
िकेट
▁гуно
▁ಲೆ
▁диҳад
▁نړۍ
သလော
▁mpela
▁buleuen
▁miras
▁모든
ात्र
langan
ชอบ
ikla
ცირ
▁Materi
endir
ਅਦ
ারা
▁վերջին
▁digon
▁oyunu
▁판매
ということ
▁umanga
▁मंत
ರಾಗಿ
▁kursus
úe
梅
旺
그렇
▁һич
▁burax
▁مناڵ
▁jautā
▁ਜੂਨ
ندو
枢
▁pierd
▁건강
សោះ
▁얼굴을
▁حالا
▁vis
▁omega
궁
элж
ရှိနေ
▁ਭੈ
딤
ᱟᱹ
▁Nta
▁Vita
▁obav
ciau
▁مجازی
Ͻ
▁ଏକ
▁ρυθ
កាល
▁충실
▁jipprovdi
čnost
▁shok
▁ଟିକା
▁യു
▁magnet
▁beslu
▁izmon
▁biku
▁ଶବ୍ଦ
▁elevada
achedwa
▁taxes
▁임금
ག་ནི་ཡང་
ပညာ
▁קאַ
▁kihai
▁dereitos
▁سین
▁neljä
wsmeriaid
mod
hluk
▁ሮ
ombe
▁asjakohas
▁추진
ankas
を提供
▁saav
▁Ga
эгтэй
સાન
▁تلا
▁Қала
õl
▁modda
ige
igiriki
▁Ամեն
▁લોકો
\'
धा
▁sugli
▁жакында
▁Encara
▁totala
▁hanfodol
▁vois
buyisela
身體
▁energi
▁İç
cose
▁potravin
▁snar
▁znám
▁ભગ
ស់
▁miho
▁ratka
▁1947,
▁তোঙ
▁pagtut
ekerezo
ɛi
▁মানুষ
ยายาม
▁}
▁dura
▁ufalme
eghị
▁Atta
▁pontos
▁ں
▁мекунед
▁usando
▁Kop
▁бюджеттен
тору
▁Entscheidung
▁jeuhet
▁Julia
与えて
hd
▁vlád
▁finansiële
▁ເຊ
ັງຄົມ
条约
▁etĩkĩ
▁Cio
wigisha
visa
рында
▁Jisu
wakana
▁məsələ
ಂದಿ
▁জায়গায়
▁ɲagali
kuse
▁hutu
卵
▁napig
▁Ovina
▁swe
嘅話
▁скла
▁분명히
عر
ることだ
▁зохион
▁التح
▁abadala
huvo
▁govern
board
▁zle
▁jaha
▁Kimfumu
▁خۆم
▁սուրբ
▁ikak
▁ringi
wasana
▁дзя
▁инвести
▁Mũsyaĩĩsya
▁inad
hatho
akom
▁ຕິ
xe
數
▁Esaya
▁razi
▁справя
ପାରି
▁artean
▁ਸਪ
ona
▁rekening
▁પતિ
▁감정을
nili
▁сири
hlandlo
ubwiye
▁iyiphi
▁território
▁ବୋଲି
▁butegetsi
▁obvyk
jau
▁كەلدى
▁선택할
▁Nucle
▁ఎంచు
▁мүмкүн
▁taf
▁aukšt
▁तमा
▁eve
▁skupina
▁acelaşi
뵙
▁syi
▁împreună
▁名
alanna
▁Ri
▁ndand
ມ່ນ
▁पाछे
လို့ရ
场
ھے
▁materi
▁olaraq
そこに
▁զարգ
▁Encyclopedia
ཕ་
▁pieaugu
akow
ਿਕਰ
ýra
▁Britse
▁cadena
▁Curt
▁giddu
▁Ktoś
eraele
▁яры
▁해서
▁Sci
▁používanie
▁هیواد
▁igu
▁ಅಂದು
skat
ambanag
▁staat
▁Голе
ಸುವ
▁Bugun
▁věc
▁ದಿನಗಳಲ್ಲಿ
yarihan
▁entrevista
irkaŭ
▁មូល
ihlo
▁adsk
▁39
▁segir
კვეთ
▁internasjonal
▁meat
ammlung
--------
ארק
▁очра
▁kuolem
ブログ
სი
▁mohlo
问题的
▁sąska
나게
▁Tym
▁ປະຕິບັດ
adị
pton
▁maqs
▁zanmi
କାରୀ
▁ibig
▁খারাপ
▁treated
hogy
라이
▁duas
,9
လက်
▁láts
▁ಎಸ್
▁zabí
嘞
▁ນໍາ
▁رس
▁Qoom
▁thian
▁프로세
▁dibe
▁હજી
ekyo
込んで
▁årsak
▁بحث
yĩ
alment
▁tautoko
▁mbësh
ക്ഷേ
▁եւ
նենք
lamulira
かた
▁denna
▁menghancurkan
▁kľúč
ctiques
programmer
మూ
▁sanen
ithombe
▁manjadi
▁הפי
14.
ရှ
รอ
▁ബ്ല
vertin
▁kërko
▁midang
ర్చి
▁kiz
における
夷
▁nkyek
ងារ
▁parodė
▁Dë
uubiza
стем
詛
▁ganger
贯
▁ומה
▁धी
▁öld
▁kwaMwari
잠
льну
▁ലെ
▁hvor
▁iyawsap
▁asig
▁چراغ
ူင်း
쪽
▁liquid
innimh
ning
▁گرێت
▁kongsi
ancang
清
ffiċjenti
▁ఆలోచి
▁airde
▁dahulu
▁Shqip
qul
план
▁పిలి
▁straipsnio
▁Nn
yoso
▁yalan
だという
▁auki
ሥ
гәр
ಗಾರ
▁Bulan
ಪಿ
▁Аллаһ
fumya
▁middelen
▁米国の
▁naslednjih
▁jednym
ekire
▁देलथिन
▁bagwera
umprojek
▁oorsprong
▁sua
คา
▁جهڙو
engi
bûna
▁bing
laaf
▁mavɔ
▁iyar
▁thënë
▁peubuet
▁пону
▁yakawanda
ând
ാകുന്നു
▁khu
ెను
cto
▁ibis
▁παράδειγμα
▁고객
▁ghano
willig
▁ઇન્ટ
▁رہتے
▁jikkontrib
▁გაკეთება
▁څنګه
óvo
▁gũk
ဍ
▁forza
逃げ
▁قەسەم
erci
▁suspect
げた
▁ale
▁pang
тэ
▁また
▁دینے
rin
▁blive
xshash
▁εργασίας
▁davantage
▁karam
▁biani
ଶୀଳ
▁nhiễ
▁Hemi
zav
▁Bahasa
گىنى
▁nghiêm
▁आंदोलन
툭
▁людей
▁kolelua
▁motš
▁Ngam
imeko
ғро
▁آران
▁rar
▁equivalente
▁నిర
문은
▁Paolo
▁Varhoma
umbika
▁afeg
現地
▁дітей
▁gyfr
▁جو
寮
yonna
rinne
少
▁twe
▁לבי
▁bằng
▁Duke
ಡ್ಡ
adzie
དམ
▁puri
▁deset
▁люб
▁ಅಂದರೆ
▁ipprov
▁பெண
▁തമ്മ
▁especta
▁tko
lö
▁تەمەنی
▁체
თა
▁내려
▁عنك
ciou
δας
▁yatırım
▁баланы
▁120
zor
▁Country
▁technologie
▁እዚ
མ་ཡིན་
렀다
ayda
▁geukalon
▁njọ
▁теләк
▁Enyi
▁bikman
었어요
▁ов
▁avemu
▁Mary
▁важен
ங்கே
▁shala
▁حوضوروندا
lelang
▁Itali
▁mulighed
▁эцэг
کسی
asjon
▁ពីរ
്ര
गुरु
སྒྲིང་
▁pobolj
▁ushtr
ਭਾਵ
▁bazas
▁Come
▁ಎಂದು
endwa
▁ubongo
▁lagstift
▁atili
▁sitina
çam
▁занадто
▁giy
ଷଣ
▁Liikmesriigid
ថ្ង
▁zovuta
orezo
Khristu
▁осы
▁Jul
▁yɛyɛ
▁Mama
ུད་མེད་
▁በአ
▁bö
▁wɔna
ninga
▁karem
ビジネ
▁төҙөлөш
▁Meski
▁ស្រឡាញ់
yarat
▁آؤ
▁arvata
▁vehicles
を破壊
▁maandĩko
chtaí
▁skemmti
▁သတိ
▁faisant
摔
▁your
▁فەی
▁חדשה
▁گله
▁ნაწილ
úr
▁Frage
fart
▁թռ
▁mendoj
▁adul
ikes
คล
▁santu
▁Anita
▁Informationen
ទ្យ
▁akale
▁macio
▁곳이
ර්ථ
▁godi
▁amane
য়েছে
▁labas
▁10.
umone
वतो
ുന്നതിന
▁vosso
▁wïc
ogerwako
▁Germani
▁ንዓ
▁ཡོ་ཧ་ནཱ
ડિ
▁મહિલા
▁natong
▁হৌজিক
▁tartamtu
gaa
эх
ല്യ
▁hafi
▁моля
▁kedvez
čeni
▁faayidaa
▁mengukur
yldy
▁بڵێم
▁pertama
▁көл
▁rule
indog
ウル
▁འཐུས་
▁লাভ
▁3,
ugg
▁წიგ
endum
ಗೇ
mɛ
▁yaitu
▁buntu
▁impl
▁yık
བཅ
▁yonent
▁bad
▁ziah
▁gândit
갑니다
▁ئارەز
xist
▁булуын
▁بيت
mediler
▁toepassing
▁Faz
adonan
▁sider
▁кое
▁বিস্তারিত
▁Edo
▁ɗin
▁Kat
▁foo
▁കരുതി
▁requires
కరంగా
▁offshore
▁yepamusoro
▁ailleurs
弟
專
▁ayebi
▁ages
▁shayi
2015
▁Abad
▁Widhi
播
▁descubrir
หนัก
▁osh
cí
isah
▁People
▁воло
▁اٹھ
▁விரும்பு
▁trup
êu
▁перио
▁füüsil
ുമുണ്ട്
▁ಪರಿ
▁shawng
▁longuka
▁bisan
ੲ
▁सिर्
▁sd
antsika
▁Together
▁शिशु
▁Myen
▁ਨੁਕ
▁vérité
▁beigām
▁הצד
▁evidence
▁آرامش
▁peshi
uphila
▁réuss
थं
tiang
olomoni
▁að
▁താൻ
▁gaafatam
▁diken
▁Си
▁Williams
▁dith
▁cand
▁Much
ljivi
________
▁până
▁पहुँ
▁авсан
▁ինչպես
▁wĩanĩ
▁웹
▁τελ
色列
▁vyhra
urux
uješ
zymać
▁Tied
hatikizapo
▁لت
шої
▁тренер
▁ਦਿਲਚ
etšwa
▁pakai
▁tender
▁Bityo
▁haqi
ⵓⵜⵏ
komu
rose
របៀប
▁fantatrao
金が
bore
▁banjye
ଷ୍ୟ
▁kunstner
དེ་ལ་
▁दीन
Sab
でしょう
wonjezera
pala
▁vấn
ैव
lies
車の
ଜ୍ଞାନ
▁ಸೇರಿಸ
ച്ചി
▁bratr
▁XL
специ
▁ပိ
▁wyb
▁tangata
▁lǐ
▁Diaka
▁পার্
▁degen
▁동시에
▁ярҙам
▁Musik
வதற்கான
▁halas
ilay
▁সুত
ongameli
▁mazoezi
ඳා
▁करुन
ئې
▁feto
reik
▁nekā
wakhe
erbe
▁predstav
ृ
蘇
▁perfecta
▁마술
යුතු
otero
▁állnak
▁falls
▁miliónov
▁सहि
▁ଅନୁ
▁messaggio
▁gor
▁halimbawa
avale
იანი
▁اب
知らせ
▁isteyen
▁způsobem
▁har
▁brain
ikelo
▁aƒe
ffin
▁Però
▁ADN
▁néixer
Ih
esche
▁покра
chst
чита
▁कै
▁gewoonlik
▁mesec
суна
▁공통
▁ஆனா
▁bayaran
その後
▁सबैलाई
▁trebam
▁ဢဝ်
▁налази
əqin
ಳುಹ
akkel
▁hayatta
ército
hlavut
▁fike
ྐ
rere
▁फेरि
▁nenos
ød
▁համակարգ
▁lien
copi
▁serviciu
▁בעבר
爵
▁점이
▁Babilonia
▁fehér
▁aldım
▁doby
▁विरासत
▁morgun
▁ཡེ་ཤུ་གིས་
▁η
ሸት
▁powi
resse
▁autores
अइ
ಶ್ಚರ್ಯ
とん
▁потому
▁પાછળ
▁ipak
nejšie
▁release
/46/
▁anzake
▁úsáid
▁जर्मनी
▁수수
▁havos
CK
amot
できなかった
▁clar
engers
▁výber
▁King
▁Аллаһыны
▁گست
▁آخرت
▁Hiz
として知
▁спект
▁Via
▁systems
面前
▁meninggal
atoi
▁komputer
hey
▁enia
Africa
私に
▁cinemat
ზრუნველ
aldean
▁анын
▁liepos
▁réduction
▁keur
▁demi
▁ክብር
▁Вер
▁yiwuwa
▁Đối
▁ബുദ്ധ
▁kiegész
▁རྐྱ
▁بىرگە
antana
▁Granada
▁kwis
ུའི་
なのに
▁Badakit
ukondwa
▁Amewo
chikchu
imento
▁Nakambe
ବେଳେ
accés
▁vašu
▁Şa
کئن
▁shapraw
▁keel
▁روی
▁Pihak
χι
луы
▁ṭawng
▁барды
▁அவளை
.[3][4]
цыя
ওয়
▁Xisweswo
▁lugha
▁tienda
▁erabiltzen
▁પ
▁vino
munic
▁doimiy
▁Pono
▁Artıq
▁ghanandi
▁Peni
▁toba
ebenz
▁今年の
▁mank
▁লা
▁ўва
▁leer
▁masek
▁ledig
▁cans
▁ದಾ
чини
▁eleko
▁toekomst
▁эшлә
▁zij
▁kollox
▁totalt
اش
▁состо
ber
▁크리스
▁πραγματοποι
antal
▁сөн
sive
▁tsalwa
▁dign
▁ኣሜሪካ
antina
빡
▁zuständigen
ཡོངས་རྫོགས་
▁iwi
▁Алла
angiza
▁theme
າ
ithanda
▁নু
otanga
▁크게
▁Ubuntu
▁Kurdî
▁schema
▁لیگ
യായും
▁프랑
וי
ĺ
umur
ھانے
▁pʋcɔ
▁arras
▁Amsterdam
▁רוצים
▁ddim
▁crecemento
isiún
riage
▁предпо
▁ဘာကြောင့်
▁στους
▁netik
▁আগে
द्
▁Timoteyo
▁Señora
▁lichaam
▁maloto
ey
▁유일한
▁eres
дале
▁dû
arikat
▁земљи
▁መድረ
▁Regno
▁teup
▁ukubomba
▁hùwà
▁olardı
▁miin
▁مۇئ
▁ನಿರ್ದಿಷ್ಟ
▁mubvunzo
ukhu
▁norāda
춰
hii
▁ንኻል
adang
arie
▁mwe
▁jahe
▁Câ
▁жобаларды
▁trois
▁Leu
▁mell
құ
▁6-8
کتور
▁خوێ
▁72:
▁농업
dela
▁యి
▁ከእኛ
ष्णु
▁yaMwari
▁veriyor
ючи
bbui
▁это
དོ་སྣང་
▁yamba
▁wòawɔ
Û
栄養
▁रो
kep
情報
▁kristẹni
▁коммуналдық
▁როდეს
▁अई
▁Diablo
▁telinga
▁συμπερι
▁dochter
▁oidhche
த்திற்கு
▁mangiare
စု
▁אמעריק
ichen
ზვ
▁podcast
pers
▁okenye
▁ناھاي
▁Woch
呪
▁خبری
seera
▁16-
▁అస
▁fremme
▁വിശ
시니
agli
▁şans
▁Jednak
lelweyo
тивті
munan
▁मा
urnal
▁Што
▁явж
▁sepatutnya
▁조각
▁conciencia
▁republika
▁garin
▁dàrna
કાર
▁shuningdek
के
▁қав
▁zagotov
▁yawancin
▁stadion
▁ხან
usuwii
ඔයා
▁пер
▁тести
rain
▁abbia
▁भरा
▁posti
▁revol
ampar
좌
▁raa
計算
▁ផ្សេង
▁فرمایا
▁bɛnwu
▁המא
▁présenter
▁dlatego
▁kahayag
▁konpayi
▁yacu
▁mutane
▁phóng
innan
osom
▁ਕੀ
▁შეე
▁wuoyo
уге
▁tuna
▁хоёр
fumu
▁bow
▁yawa
stø
▁सहयोग
іба
▁taught
▁ಗುರು
▁самом
ադիր
▁drank
haj
かり
okotela
▁actividaes
▁niy
кімі
▁Астана
▁vakama
▁peat
▁eekie
porta
tod
დრე
▁ආදරේ
ტატ
▁куә
▁spot
▁izobraže
▁gwiwa
腔
▁tuotte
▁Diego
cò
לן
▁berbahaya
оло
▁претпо
▁Suatu
▁за
antong
чин
▁algún
▁শুনে
傲
▁hawdd
▁Carlos
▁글을
ጠቅ
▁gitabo
▁сърцето
▁시간은
ulanga
▁시계
ཡ་ཀོབ་
▁если
▁Actualment
びに
omera
▁belhat
▁40)
▁Git
▁complement
ැන
Ти
▁anonim
▁kënnt
▁skupaj
▁sidii
▁모르겠
▁Zoals
▁worship
▁звя
▁dinge
▁saur
▁valandas
▁DIA
護
ོགས།
▁Lerato
▁lære
ार्मिक
ab
▁विप
▁ವೃತ್ತ
vuye
દુ
כט
▁Rum
▁PSG
▁jechu
▁pertinentes
▁intego
िकेशन
euros
ther
keta
▁Ren
▁ניתן
čena
▁całe
빔
韌
areo
▁forgot
کیشن
▁magpadayon
▁ಪ್ರಾ
統合
▁አምላ
▁Prem
ექს
▁penk
▁woorden
別
▁EK
▁نرخ
▁барлыҡ
▁Damas
▁Jim
▁الما
▁באמצ
▁شعر
▁enemy
▁ekonomik
▁بۇرۇنقى
ئني
▁Bever
▁излиза
▁malaéka
▁2:14,
ಗಣ
انىڭ
▁Sana
ραία
▁прије
St
ורק
▁uch
رىنى
▁ලබ
▁ufumu
▁tamana
▁ભૂલી
énte
usok
▁vuyeriwa
ುತ್ತಿದ್ದಾರೆ
ვების
খ্যাত
▁матери
iről
▁nū
cult
കട
▁megt
▁tiim
ણું
證
▁medžia
▁тоді
ètes
▁segd
▁trego
astă
碍
лна
ithir
перед
usaiti
midi
▁करके
▁sustanza
▁ukre
ቃት
rað
esel
ゆえに
undin
▁갈등
▁dr
ហូត
▁জনা
▁pagtu
▁нево
वर्ण
giques
▁niana
saoghal
▁iene
▁sug
esch
juni
amume
▁ļ
▁insta
▁ฉันต้อง
▁중간
▁ispun
わなかった
ảnh
ρηση
▁دەرکەوت
ilangane
▁iw
▁Online
▁већина
کې
isina
▁zegoen
▁maita
▁ပြော
ുകയോ
▁kuth
▁Сү
▁Barat
▁шак
▁ప్రాథ
好き
번
▁вка
arian
▁අප්
▁ప
ئۆ
▁rencana
ore
▁санк
ळ्यात
▁7,
▁እስራኤል
બા
▁Компанія
ਦੀ
alola
tso
▁Connect
▁Jang
▁এদিন
▁훈련을
▁kusim
reich
adab
▁बनाये
▁انگلستان
▁nizom
ewwan
▁žinias
གྱང་
ית
▁olib
すべてが
ován
▁pịa
▁famp
walaan
وریت
▁ኩነታት
▁Brian
▁Šajā
▁ଲଗ
née
▁relatati
rup
에서는
▁سج
▁tenaga
זש
ọnọdụ
angai
▁riguardo
▁građ
▁વખત
रिक्त
▁Tier
λός
▁capacidá
▁Padome
読んだ
▁arata
▁উপর
▁nauzu
▁جہنم
▁እውነተኛ
фон
तां
▁perde
▁Aslında
▁pàr
▁Treb
▁batzuk
▁어머니는
dile
▁herk
▁namuose
법이
▁zài
baho
▁logic
▁blodet
▁Конгре
ོངམ་ད་
▁لكنه
▁padėti
▁kasay
▁mamam
▁ھازىرقى
རླུང་
ँदा
▁slučaj
▁beuki
ղ
▁woba
imise
taen
go
▁icyizere
▁increased
▁個
▁보충
▁에는
雪
▁makim
བྱེད་ཐུབ་
▁Terry
upha
дро
▁zamest
somt
hlangothi
▁dana
့်
▁मजे
▁Їх
,6
▁էլեկ
▁ශි
▁nenti
▁protams
ຍານ
▁scritto
▁kufi
▁sellel
feat
nēm
強く
δει
▁practical
ଛନ୍ତି
ክርስ
▁것입니다
muo
▁अहसास
▁horiz
▁Proszę
▁absolu
▁पावत
▁ansökan
▁zināšanas
▁문자
ທີ່ສຸດ
ப்படு
▁دشمن
ဉာဏ်
▁členského
▁ਰਹੀਆਂ
ýt
▁määruse
▁сақтауға
▁Bem
annachd
ပေးဖို့
▁Vilken
egia
▁temp
လႆႈ
yonga
▁بەکار
▁Franz
cus
▁Industri
▁tractament
▁įr
್ಟ್
▁përpi
▁birthday
اسي
uments
▁kig
▁Constitu
▁loya
▁jinoyat
▁iso
იღ
orri
▁signifie
▁ịch
ází
▁loketse
▁lusa
▁Lana
▁आं
телен
▁калдым
Isai
▁tha
▁କୁହା
▁ออก
豊か
iai
▁ខ្ញុំបាន
▁ملکه
▁civili
▁عوام
لىرىڭلارنى
▁Bain
▁שבו
▁କେହି
▁ந
▁ଗ
要素
▁सच्चा
▁anëtar
▁добав
шими
▁ᄏᄏ
▁најве
▁Jainko
jeshi
ously
▁thom
▁nta
쉼
шендә
법은
年代
▁gyártó
yara
▁요리
▁보증
ประโยชน์
第
▁الصح
iałaś
地域
ີບ
ashiwi
▁Иегованын
分か
ଖ
▁நன்ற
▁ştiu
▁noteikt
test
ზად
▁tumi
▁لش
skr
ikhaya
chiq
▁ఆహ
önyör
▁चाहते
▁imala
▁kanunay
ئه
다고
▁отримання
གནམ་
▁Веро
▁విశ
▁若い
▁thiên
▁Ebola
▁litur
ىسىدىن
▁dipuo
▁άπο
ftrag
▁Januari
▁بەوە
▁tshwanelang
સ્થ
▁ክፍያ
ମିତି
zid
wandiik
▁علاج
▁သော်
▁niti
하도록
▁morir
▁dtús
ũanĩaa
▁۵۰
▁मस्ति
▁vytvá
▁कायम
▁saanud
▁43
ກ
馳
▁audz
▁lokus
▁mathoth
▁divisi
▁detalles
▁vesel
▁vyaku
ാളി
ishibe
▁ntshun
▁дәртләндер
വര്
▁tshika
▁ટ્રા
▁майҙа
ארד
▁edebi
▁кылыр
▁싱
▁lalata
čia
▁डिजि
▁Pab
zekile
▁ditang
▁logo
▁1999.
▁IHubo
▁আপনি
aposetoloi
▁dobrá
▁ምክንያቱም
部分
▁esposa
▁ସତ
▁Ewropea
▁moh
▁jipprovdu
▁smě
xxa
ਮਤੀ
▁injek
방을
कालीन
▁dự
வரையும்
روج
pahan
▁Κό
▁sauransu
▁fikir
atasi
טא
▁katal
何でも
▁লাগি
▁għax
▁kurya
veic
▁Kà
▁üzen
"2
▁buss
▁mengem
hulupiriro
▁regarding
▁ɛso
▁waki
▁шаш
▁naat
▁السيد
indile
▁سىياس
่วน
▁ইংরে
▁rinna
▁Baat
芯
▁Indon
▁ƙadd
ിച്ച്
▁jaqinakar
▁கீழே
▁새
の目的
▁Peki
▁mwak
▁confrontation
▁міжна
ekete
ۇش
▁sham
▁UYesu
▁θέση
▁받게
уат
▁dogr
▁алдың
ennen
▁určen
すること
▁nemat
▁زانستی
▁inget
▁ubufakazi
▁banu
▁ýaý
▁માટેની
▁nĩw
▁thil
▁lajɛn
▁губер
▁Shu
▁Neil
▁kutani
▁kasi
▁Ένω
のかもしれない
herana
▁pred
▁werknemers
▁Amor
▁komikitisa
▁napisa
▁operators
▁tidaklah
▁لەدای
▁hakilitigiya
▁Bob
niem
▁musun
▁gombo
▁Norge
нима
▁تەر
တာတွေ
質問を
▁ప్రకట
ंट
▁182
▁hinu
indha
▁bən
-7
传统
▁oppstår
▁ရာ
▁dájú
ɓɓe
inė
▁kişinin
▁tr
▁sotto
▁unica
ekkaniżmu
▁thíos
▁Arsch
▁alakohdassa
めぐ
階段
どち
텔레
ཅིག་གི་
ացող
▁força
▁Dimatekenu
▁نا
Alex
▁نفر
▁ଗ୍ରାମ
åk
▁celou
▁Pebrero
▁vata
▁ተን
ötet
▁waarbij
▁evner
leleka
▁lux
▁Казахстана
▁객
▁kënë
ntɔn
▁ongelmia
голе
那是
▁rano
ժ
nnes
▁kugonana
▁gravid
▁visā
▁آھيون
fal
▁Бел
▁shqet
▁energet
▁July
annon
▁entrare
▁meddelelse
然而
▁expir
▁ҡы
yise
▁<3
atevi
▁liver
вары
cuerdo
▁eagra
▁dokumenter
▁chim
▁њихов
▁používajú
▁mump
ドラマ
xes
に渡
▁Fac
▁ቪዲዮ
▁xiphemu
▁jichhür
▁Azure
▁helyet
▁បង្គំ
ໍ່າ
▁PR
qorti
सुद्धा
казва
asan
れていた
▁pɩ
▁Vertrag
atanteraka
▁espesyal
▁matay
нія
omboka
▁ybad
▁आइए
▁sefe
ateŵeti
▁siyen
▁проходи
▁arte
ANA
▁महसूस
▁tuluy
▁lepingu
▁poja
▁ന
▁উত্ত
▁bodiredi
防ぐ
咲
켜
▁तेव्हा
▁com
ள்ளனர்
ei
irsiniz
▁සුදු
▁formal
縱
వాత
べる
iul
ۆکی
aquí
fsi
imiento
▁îmi
▁aseng
▁þarft
でもあります
ҷом
▁spi
istri
▁tegbee
眺
nyang
▁অর্থাৎ
▁мил
еры
▁setengah
▁hin
▁నీ
ಂತಿ
бах
▁Mun
▁staan
Ob
ངན་པ་
ಳಿಯ
स्तो
▁ઉદ્
▁ડા
hebung
▁KIA
landır
스코
ড়ান্ত
▁წინ
اپا
二人の
wig
▁મંજૂરી
▁Республикасында
טב
ंत्रिक
▁tšeo
▁тасыма
▁pénzt
▁įt
RI
▁کودک
▁dedica
▁ਗੱਲਾਂ
▁tada
▁потребно
ukansuka
rekin
▁ਕਰੋੜ
ણમાં
参加
ത്തില
介して
iraman
▁күреп
▁충분
▁lere
▁ਸਾਰੀ
▁Anko
lias
loos
▁3:18)
▁ан
bantay
weny
ticos
▁қорға
▁lantarki
▁Һеҙҙең
▁kika
▁opera
ಾರಂಭ
▁6:2
▁ді
batha
▁morale
▁თავიან
▁高
▁ଆଗାମୀ
yae
▁ပေါ်
▁millum
▁않았고
▁projektet
▁nakilala
Nid
▁avion
▁ಭೂಮ
▁avión
້ຽງ
▁அல்லது
jejeni
▁ranei
▁төш
▁수정
▁mangani
თავაზ
▁división
ོ་བཅུ་
▁endzeni
фта
▁պատերազմ
emye
▁ผล
▁istər
▁Analyse
▁guna
▁ଆସନ୍ତୁ
▁وێنە
围
▁Mond
▁ਵਾ
▁Samwele
ကျ
▁hang
▁grän
▁སྐུ་
ോഗ
דים
▁atene
▁nyɔ
umela
▁apanga
▁bizinesi
ർന്ന
qaa
སྟེང་དུ་
limbasog
▁សុ
▁し
SAR
▁оқы
▁असतो
ද
▁கூற
▁изле
▁Ninive
▁lomunye
▁viza
కర
និយាយ
薦
▁جی
▁abesifazane
▁avuga
▁wova
ியில்
▁silu
▁Premye
كىت
▁kalihokan
▁dlm
▁lemba
▁tacaíocht
ਨ
ዎ
십시오
▁жаша
▁myšlien
▁xó
▁pér
▁zoro
▁BL
▁sioni
▁یاد
viac
▁жі
▁സ്വീകരിക്ക
▁lipap
▁سوروش
lido
kkkkkkk
▁magnit
▁თანა
▁mengikut
▁kv
yok
▁사용하여
▁انك
ısınız
cac
▁නැත්ත
▁limitada
内の
▁moch
▁ਪਰਿਵਾਰ
လှ
чително
▁ရှင်း
▁undu
▁muligheten
▁Almasiihu
▁тогаш
ໂຍ
▁tots
undɛ
▁bilýär
անշ
▁транс
▁шуға
▁эркин
ingia
▁комна
རྐྱེན་གྱིས་
▁schedu
šane
▁ڪاروبار
▁jinis
▁daleč
▁енергије
Modimo
acho
adika
ੋਜਨ
Amer
▁bafise
▁Bibeln
▁awor
▁בכי
jie
▁jiā
övet
ட்க
▁dieťa
umbulukila
ottet
▁Uca
병
▁ਭਾਵ
▁ayeuna
▁zidan
▁Kepler
洁
adhnaichean
▁নির্ধ
▁ત
utup
▁한
▁හිටිය
▁ჩვენი
вацца
▁tangga
ઇલ
▁takých
λιο
▁guld
▁sumunod
▁ବିକ
お父
▁machines
▁داوام
ɣli
▁etishga
▁skirti
▁аерод
▁разру
▁lagilagi
▁Dei
▁muxima
▁mjed
▁ସମ
ネシア
ạṛ
▁сыҡҡан
▁келесі
▁najbli
▁иген
stud
▁ذاتی
▁मोबाईल
▁무역
اسو
▁Mass
▁spécial
▁کۆمپانی
▁сегодня
qiq
▁mappunna
▁ଚିକିତ୍ସା
▁ኑ
▁conjunto
ганда
▁teuing
မယ့်
▁শান্তি
していなかった
▁xestión
▁ĩt
▁astawan
▁ତମେ
▁mah
▁qala
öffent
▁Қазақстан
▁फिट
▁винят
▁$.
▁চাই
ulléi
▁сонирхолтой
▁principal
▁agu
▁ਹੱਲ
yg
▁chiến
▁ఖ
▁ke
▁zemlje
▁nobe
নৈতিক
▁atol
▁kam
სახ
▁analý
▁бирөө
▁حلال
▁mutanen
▁अर्
racha
▁النساء
▁støtte
▁vienmēr
▁међутим
หมด
tart
▁фу
▁aad
▁ortak
▁bzw
▁গণ
għan
▁लाग्दैन
▁ប៉
ін
▁mapaccing
ഘോഷ
▁Chay
éo
Й
▁wetenschap
▁나눠
▁தெளி
▁Bíblia
▁کړه
คนเดียว
▁súng
yinka
▁اتنی
iringiro
▁åpne
▁კვირა
▁marka
Is
▁každé
オバマ
ɲɔgɔnya
▁তুল
▁Bela
▁мегӯ
▁nawe
▁аңлат
ምራ
明证
くことが
▁Tais
angkon
olola
ຮ້ອງ
ное
न्तः
kayo
مىزنىڭ
▁நாட்டின்
ibil
▁रुचि
พ้น
כז
ப்பின
སྦྱིན་
▁навер
▁धम
Những
हिले
▁මහත්ත
▁کړ
▁áí
likat
▁nauyin
ष्य
hɔn
▁Akanya
▁باطل
cir
▁kulturelle
▁bernama
▁сино
▁2:21-2
▁msemmija
ಲ್ಲ
▁Enton
▁Kenneth
ugoslavia
▁tek
Iji
▁سه
كب
▁kakana
▁izrād
wadi
▁ਮਾਰ
▁ילד
aquests
▁възду
▁سېھىر
▁συμβου
▁ၶေႃႈ
▁bili
panahy
어로
පය
६
▁Jerusalén
▁발전
▁provi
▁ძალ
▁ebb
nandzi
▁олы
▁odide
▁рівня
▁vises
▁ہوگ
不思議
▁ବ୍ରି
▁géif
▁gaxɔ
擾
тови
neng
циялары
▁milhões
ന്തു
▁स्टे
▁hakk
▁Пот
▁သခင်
▁dokładnie
alua
▁adult
سە
▁വഴി
▁muène
ζαν
nari
▁مطلوب
▁کنیم
letti
▁mbele
▁უნივერსი
▁piec
ገብሮ
▁EEE
▁жақын
бә
▁Nake
簡
▁বাংলাদেশ
▁نظریه
▁ਭਰ
▁sod
시키지
▁артты
▁entènèt
ମନ୍ତ୍ରୀ
▁generation
▁fitlhe
▁grind
▁cruci
▁Þegar
▁သက်
▁Punk
▁mĩ
▁stā
▁entri
▁народ
pper
▁කොහෙ
ဖန်
bung
ትን
▁발표
▁loke
▁huko
▁Molim
ຂະພາບ
▁juma
▁国連
▁wasa
त्या
▁khuẩn
སྦོ་ལ
▁nyingĩ
▁የጎ
▁(23)
▁kũvika
▁mmụta
▁Nyateƒe
▁Betel
▁katé
▁رکھنا
▁innovación
wepheshe
źni
▁аввал
▁succès
▁Argent
▁Ɛsɔ
ดย
▁ደቂቃ
▁ninyong
▁åt
▁шектеу
▁festi
ப்போம்
▁описа
▁msemmi
▁Feb
▁ਮੁਤਾਬਕ
▁λιγ
▁Oui
▁ਚਾਹੀਦੀ
▁väli
প্তাহ
γράφ
▁sarjana
▁fantasi
فعله
jušies
▁pate
▁divulu
oor
賞
原則
▁ཁྱོད་
upito
គិតថា
▁باشە
▁алмайды
ekê
▁Ammaa
▁மோச
▁प्रशासन
لتۈر
তো
▁cens
▁koute
arsz
ลงโทษ
▁раҫ
kový
▁особли
実際には
▁zemes
ovori
▁ndey
nom
▁činnosť
▁найкра
▁Sátánì
Nk
litus
تاندا
▁زر
ণা
ั่ว
▁jorn
jele
vatko
▁тең
▁wiha
ıza
▁தன்ன
▁természetesen
▁prostitu
▁ɛka
古代
▁അനു
▁odstavka
中の
▁faagas
спі
▁vzhľadom
▁এসেছি
サウ
计
jangkau
업을
▁kalem
ਏ
▁شخص
▁antso
▁cuntr
▁بەھرى
▁Eora
▁আগ্র
▁mataa
▁instructions
▁continuació
ಸ್ಥ
reece
ኞ
▁өз
intha
▁raatau
ایش
akarta
▁तों
▁ಬಾರಿ
▁yae
▁நான்கு
▁Amen
gaya
▁ped
क़
▁jui
デル
▁formular
ൽപ
▁bjarga
默
ຕາເວັນ
悖
률
ية
▁момчета
▁kudia
فون
▁למקום
쓰
▁3:15.
▁પગલાં
▁håndtere
ቡር
اجاغ
▁Mlengi
ění
nað
▁부
odisfa
▁kauban
▁اسی
▁زړه
èj
▁volont
čioji
▁ymgy
▁Veel
▁apă
▁измени
▁instan
▁nakambe
▁tilfred
▁ይቆ
▁kľ
▁सुपर
▁نەز
▁निवेदन
▁bland
▁Cur
▁һуғыш
▁주위에
▁fogu
नस
yizeho
▁სიყვარული
▁pro
4-1
▁stuff
▁Mono
▁olimpi
یدی
লা
inte
▁prijatelji
▁користити
পথ
▁마음은
▁ჩინ
▁հինգ
빕
▁homboloka
▁균형
▁vutomi
▁ئىكەن
▁Ngesikhatsi
▁özi
బడ్డా
▁ជិត
▁thagann
▁meet
▁كىيىن
▁luo
▁Holo
▁კულტურ
woł
▁итәргә
▁प्रारंभिक
▁Siga
သင့်
▁Svet
pau
henni
▁despla
▁університету
▁ezelőtt
▁הבא
▁sueño
ଜନ
▁ዝቐ
περι
.5
▁serp
▁ситуации
ੱਤ
▁nadumaduma
▁одо
▁econ
ことがある
▁доо
▁Isaías
▁oud
▁ವ್ಯಾಯಾಮ
لىرىم
▁acred
כנולוגיה
▁гадел
feni
대에
▁þess
▁quê
▁cunos
▁piyr
bd
irũo
▁afero
▁Tė
▁Kiristo
▁클릭
لاد
▁Kanda
▁asyik
onaid
者たちの
▁បង្កើត
wenga
▁Viện
▁responde
▁oling
▁nayraqatan
▁alligevel
▁Тұ
čte
▁nærmeste
▁Yalo
ందా
▁kaji
▁ubugingo
▁ايت
▁mikrobi
▁මුදල්
▁باي
▁hapi
▁гаҗ
휘
cinci
▁duela
▁Netanya
ędzie
այք
iči
isi
ununguka
▁групата
▁gam
ນໍ້າ
চাৰ
▁我々は
प्रे
▁ମେ
kpɛ
туп
▁юлын
छु
▁karri
▁ಬಿಟ್ಟ
に沿
▁arms
▁morgenen
▁gibati
unión
▁вуҷуд
▁सोच्
▁ببرید
▁중요한
एल
▁dibanding
ནཱ་
▁liph
▁Hvil
▁wɔde
▁دیپ
▁irányuló
▁tandaan
գային
▁ŝi
▁chakutamo
▁Norway
▁assolut
በብ
ئرد
ಂಶ
dait
▁ఆరు
設備
▁થશે
▁kudingeka
ান্না
▁নাও
▁Holly
▁тақы
▁medico
▁ਖੁਸ਼
伙
▁ກຸ່ມ
ɛɛc
▁bidiyo
▁deeg
▁neat
Ki
லைய
▁బాల
▁kapten
▁dinlə
▁prípadoch
▁వ్యక్
▁moll
▁விட்ட
ານ
▁ɗon
▁fâ
▁Mno
መቱ
▁كىشىلەر
fee
▁jok
еди
tratti
တ္
ҳа
hangeri
▁sensu
ཚོགས་ཀྱི་
▁이름은
▁mahazo
apoi
kɔm
▁дей
▁알려
▁oldal
▁текот
ụghị
▁personu
▁Ebang
▁modelos
:9).
▁vakolatli
misen
pec
uns
▁आसपास
ืม
▁swoim
▁능력
നങ്ങൾ
▁xog
▁Gé
activité
▁Peteru
▁هاوبەش
TP
▁anggapo
▁līgas
黃
គឺ
▁vera
▁ಸೂ
inh
▁عمی
cións
▁싶습니다
zniki
적으로는
شىڭىز
▁Neymar
▁nsam
ຈັບ
▁gravi
▁ཁོང་ལ་
mm
yees
ਸਥ
憲
hatják
▁tanben
▁povedal
plek
▁imbila
▁וועג
ると思います
መረ
etli
דזשי
▁Тоҷи
ຽວກັນ
求めて
▁keuadaan
▁काळ
вна
▁ہوتی
▁되나요
mga
▁aikata
▁bantumwa
▁avais
▁hetman
ित्त
▁cijeli
▁늦
▁íà
▁দৃষ্টি
allisia
-19.
▁ចុះ
▁再
GI
▁ღირ
▁yɛlã
▁Ert
ယု
사람
Kau
抹
▁acuerdo
тна
▁இளை
sijiet
▁maail
▁primeros
▁Memorial
▁даво
mel
▁ઘરમાં
▁Tunaweza
▁اسان
能源
gesetz
▁hati
ของเธอ
▁raye
▁maatii
Live
▁lukwikilu
▁relevant
ավորապես
▁motor
▁conveni
▁pomô
슨은
หาก
▁hỏi
▁nkhosa
▁foti
▁გაუ
őri
▁दया
喜んで
▁పూర్తిగా
▁अहा
▁deň
▁چاه
▁tuhle
▁rwo
▁mauaina
▁რამე
ьне
ཆོག་
awɔ
▁okuba
ဵင်း
ven
▁pēdējo
▁joma
▁බෙ
▁ジ
かけた
ၶမ်း
▁ⵓⵔ
zateke
بەر
됐다
རྣམས།
▁naamã
▁UR
▁презе
▁дөйөм
dialen
▁жолугу
ារបស់
financi
য়োজন
่วม
▁kilom
▁맹
▁σκεφ
▁sarakstā
▁Um
opan
▁razlog
▁vytvo
▁legnagyobb
ናቸው
ᱸ
funktion
ยะ
▁ٱن
掃除
▁Neki
handels
haol
▁شه
▁komm
olwana
▁तोर
▁ᱩ
実際の
▁staats
ເລີຍ
ཨ་
▁equi
▁何故
はい
ٱع
ස්තු
jemahan
▁kurse
同性
▁Ilaa
løsning
▁kumele
▁biror
议
ོ་སྣང་
▁とは
솜
шен
▁ఫోటో
▁تغییر
のであれば
▁sera
▁Báwo
▁영국의
▁diberikan
▁dalka
▁warto
▁Wy
▁nating
▁işlem
▁тун
▁कितना
ohitra
▁موسی
▁tungkol
པ་ལ་
▁কথাই
▁kituna
ilatko
▁жүргі
▁ndzi
▁Šie
▁hahahaha
▁spošt
isjonen
▁аж
▁10:4
▁Eci
plwaye
▁zastoso
▁acad
intereso
▁franceses
▁Heeft
▁berasal
▁fadh
▁פיר
▁luräwin
adať
біў
elako
▁metodi
وسو
ekek
▁Mile
▁ਕਿੰਨਾ
ຊິ
ğını
▁mengan
▁gördüğ
▁ادائیگی
▁Zusammenhang
▁ayud
▁ਚਲਾ
leġiżlazzjoni
▁Liban
닌
▁tàu
▁paraka
hawini
ங்களும்
天上
▁चाहता
dj
▁εν
yansa
ଦ୍
ግብ
▁pielik
▁supo
▁моих
▁ئەھلى
革
vumira
ฉ
▁દૂર
重要なのは
▁tisto
▁ᱥᱚ
▁objeto
▁CAR
ється
▁sanza
▁bilir
▁sprac
renie
هو
irar
▁سامنے
▁секто
▁китоб
▁സംവിധാന
▁kısm
▁odgovara
leyin
сіл
▁Slo
▁effekt
▁இ
▁მნიშვნელოვანია
▁atik
▁galvena
▁Yebo
▁күшіне
▁герман
▁چهار
▁Тиймээс
▁läpi
▁کين
▁കട
зды
▁intelix
ႅၵ်ႇ
▁అందరి
▁Abner
ábban
▁ζω
▁dafe
のかな
UG
ualali
ġenti
▁ເຫັນ
▁क्रि
▁entz
▁дүйнөнүн
▁있을
ەوان
▁appreciate
▁hálózat
腕
ध्ये
▁einn
▁ଗର
▁자세한
ukat
▁Odd
▁yel
▁защита
▁fac
▁biolog
▁дараа
▁వంటి
akili
ּ
粋
▁जाणार
▁sam
▁ለራ
バラン
▁oldi
▁lokuta
jutnya
▁vats
▁மேலும்
otų
ുത
xweş
▁lavi
sɔɔlaa
obaki
cts
▁ɖò
▁компаније
unan
▁નવું
▁ٻيو
▁بڕیار
▁säna
▁নত
▁suit
atuh
▁raž
▁재생
▁জানিব
ാൽ
▁அவன
▁ຄຸນ
▁búgva
▁và
▁bilmiyorum
țional
Tes
▁gestern
้า
▁Superior
არული
▁pakriban
inganisa
▁всім
▁وانیش
▁Кийин
তর
ເຫນືອ
ത്തര
▁ଶିଶୁ
ydse
▁PO
ণি
ファイル
▁nthĩnĩ
kuntratti
▁inicia
ostante
taja
သက္
ծ
munyi
▁waNkulunkulu
▁가기
負傷
▁өн
▁parlam
女性の
odami
لیا
▁Yusup
▁fors
염
▁Tine
▁интен
सिल
▁sitere
▁castell
▁پوهی
ནི་ལུ་
▁dabei
▁tanihi
ندہ
▁Mukulu
▁Pilato
μάτων
▁Rhy
ginç
▁ком
/4
▁dani
▁PIN
▁skin
▁një
▁건
ନ୍ଦ
amile
elete
ແຈ້ງ
▁punapike
▁giao
▁bõ
▁zem
arı
▁ករ
レベーター
▁43)
▁mistu
▁zł
་བ་
▁сал
વતી
▁veiligheid
▁мәх
▁nefa
▁ዝነበሩ
ɛr
ந்துள்ளது
▁Îl
デジタル
pahla
▁desea
▁ielas
▁thandu
▁Stil
ឆ្ង
▁megtan
▁nok
▁Paku
▁који
▁kinabuhi
▁포기
▁aiki
▁сере
▁obvez
ekyokulabirako
laşdır
すべてを
▁약
▁nezbyt
▁swing
ラッピング
▁noudatt
屋
ツイ
▁Suj
の使用
▁ngeunaan
ŵi
▁jav
gann
▁guasu
▁sometimes
▁tikhoma
IRE
▁Karen
▁Wach
銀行は
▁የት
▁Такође
མེད་པ་
▁luka
▁verantwoorde
ባይ
liswa
خند
▁квіт
шка
这个
esana
▁dlí
▁ହେଇ
▁якой
rome
kek
▁gũkorũo
▁najvyš
▁दहा
▁undersök
▁اونلارين
▁బో
▁অমা
▁Vamue
▁mowinjore
ént
zas
▁baabi
▁sotsia
▁yá
තුමා
▁ଏଇ
ವಿನ
▁perjuangan
▁Kamb
▁anba
▁অশ
▁Республикаһы
▁שש
▁kaze
▁játékos
▁carne
гает
▁आद
▁Guðs
▁좋았
▁kent
宅
자인
▁Баары
▁usein
▁اولدو
▁motiva
▁Jèhófà
▁সেদিন
ছিল
▁bellen
esome
▁nindot
انى
▁olemas
▁Oherwydd
▁permanecer
▁མི་དེ་
▁마음의
lıkla
▁ondernemingen
▁venit
▁Electr
▁ekintu
▁mmetụta
▁ವಿಭಾಗ
vakwa
▁mue
ébali
တု
▁hepsi
▁পক্ষে
▁وردئيي
▁돌아올
▁पक
▁személy
:1.
▁käy
▁될까
▁bɛfa
▁kakayahan
edah
▁expect
▁지닌
▁किताब
citumasuku
эмж
ának
▁žu
▁облысы
kular
noc
ପାରୁ
▁võimaldab
Tha
▁నాలుగు
▁tiasa
▁대한민
▁estable
গুলো
▁gibt
ии
▁ההי
Benz
՛
▁reyna
▁രണ്ട്
▁barato
▁mato
nessi
▁সহায়তা
▁Opra
anakap
▁ተቐ
▁bolji
▁этом
▁reaktor
▁แต
▁ćete
зір
▁kgethegilego
▁وس
żmi
ମ
idra
▁kushand
▁asati
▁heilt
▁جنس
▁ಬಣ್ಣ
程序
▁pakutanga
kejä
▁Solomona
▁tratamiento
▁Huo
▁Gond
▁wird
▁جین
▁속한
▁nafta
▁मुँ
レビ
▁plu
▁lidaʋ
▁berriro
ariy
▁тышка
▁אותן
zioa
▁Wenten
ազ
upo
▁ਆਤਮਾ
▁ũtanu
unsa
떄
bezaan
зни
iken
श्रे
▁fidio
▁말이다
☝
▁choinne
▁פלי
pris
దిష్ట
컨대
▁sāk
▁Deta
▁pɩkɩlɩ
▁Níl
Latvijas
▁pomen
lings
ماند
çaq
▁hefði
onisaki
▁hyt
ែក
▁ኣተ
ピアノ
▁голя
▁isahluko
▁ໃຈ
ენტის
▁netiek
ສງ
▁ପ୍ରକ୍ରିୟା
▁Եվրոպ
要
▁mahd
ביט
oside
▁Mba
▁pemula
▁Wish
▁3:4)
▁Орталық
比べて
▁ಸಂಗೀತ
▁хамгаа
лыуы
▁Stories
炎
يندا
▁ережелер
▁gwange
ḽ
▁ocisoko
▁conforme
ếm
▁мо
▁tamata
▁isaa
▁intervju
▁Yap
zr
牺
▁ထိ
kyekye
nieks
▁تیر
言葉は
▁workshop
ณา
▁intención
▁يتئش
溪
▁izo
▁Art
▁сакате
▁nwọn
▁اور
▁lomunu
▁біреу
▁महीना
▁dure
จริง
▁gancang
vangin
्री
▁әлемдік
হি
どん
▁mf
▁یہی
▁attempt
考えている
▁hudud
▁دغو
▁жасы
▁ψ
▁Serbia
▁ভারতের
▁jedným
▁अच्छ
可以
▁blandt
▁magance
▁God
▁መንገዶች
▁замин
▁folytat
▁vrati
imisi
▁arbe
))
▁აი
▁dob
▁Dink
▁adlawa
▁শহর
hinya
▁караңгы
▁атала
▁ہوا
▁koɛɛ
▁Vorauss
▁रोशनी
▁jotakin
ཟེར་གསུངས་ནུག
▁solgt
▁sezn
ـ
徹底
▁കാണ
اغ
ðast
ുന്നുണ്ട്
▁tloaele
▁ይችላል
▁tuqin
▁impostos
aide
▁విశ్
бург
豊富な
겼
▁sɔhwɛ
mişdir
▁onjo
▁hjelpe
▁승
▁квадрат
▁redes
འཕྲོ་ལས་
▁tuần
▁macht
▁būs
▁kështu
▁magidi
▁yapar
▁timpeall
▁Kuze
ansya
▁hkap
ဢွၼ်
▁kwer
को
▁wakho
▁drugih
ەتلىك
▁خوان
▁سوریه
▁ενέργ
peror
▁קאַנ
import
buka
աբաթ
▁araç
▁saát
▁Morda
主人
▁reduc
▁యూ
▁Casa
νια
▁tvůj
▁Monica
▁hahatonga
จะได้รับ
▁сцен
▁ប្រាប់
▁gə
▁هههههههههههههه
▁presenza
▁заправо
▁Kerry
saim
▁derajat
essan
▁novú
してお
▁nyinge
hasilkan
ટુંબ
▁Earl
imos
▁ezinụlọ
აციას
▁خیان
▁മുഴ
▁Ngoba
inguid
byo
▁jedoch
▁ũu
fit
▁hoahoa
▁נותן
▁Stars
▁Devo
indulitsa
▁olw
▁ਹੁੰਦੇ
chet
▁thoradh
特徴
amagezi
▁escribió
▁রাজ
▁тај
Dut
▁Rai
ogon
▁occup
annol
ཤོག
▁calcular
▁mistet
▁Questa
▁modu
ீங்க
▁tinggal
▁手
dengan
▁Сына
▁ebda
ვილად
▁Sido
▁koox
installa
▁पैमाने
ירן
รี
▁સમાચાર
▁Utuminu
▁futura
▁худ
▁doi
▁子供
መነ
▁некогаш
ъв
▁proks
קען
はじめ
▁رسیدن
റിയില്ല
▁tupa
▁Petros
▁etmeli
▁twali
▁секунди
▁ማየት
ovoru
bale
িক্ষ
qsma
▁Allez
▁zote
▁Balik
衝撃
áinig
▁шарттар
▁киш
▁அழி
▁dhom
సా
▁ịda
憩
ł
▁ನಡುವಿನ
▁4.
▁مەن
▁medal
▁حیرت
али
▁stod
▁Jesusax
▁qiz
▁комп
месе
adenza
▁آسی
蓄
▁suunnit
▁никога
Maar
▁mukyala
altris
သီး
علوم
ناپ
▁alobaki
▁Pentecost
вор
▁جدي
▁अनि
▁좋아요
▁kuphila
▁getrou
▁quarter
▁Este
hulat
▁ຫມ
▁հավաք
dot
▁kopanong
ulabirako
ēl
▁গ্রুপ
▁но
έι
▁goedkeuring
韦
▁někde
mıştır
▁udržateľ
▁तिथे
▁အသံ
▁нивното
▁Drottinn
▁ɗali
Siya
▁스트레
iat
▁isagoo
▁tomado
▁cuar
▁zara
eringen
లై
▁бәләкәй
▁mablag
fetsa
▁رجال
ukelwa
▁PNG
yada
▁Ruka
▁लगा
▁refug
kezett
▁erga
Kan
▁интерв
▁tegu
说
▁کشت
▁kirim
एस
ibys
ေနာ
▁चित्र
้าย
▁آهنگ
▁mulanguteri
Ä
▁kesin
▁სად
दायिक
▁MAC
ពលរដ្ឋ
▁gwefan
▁diesen
▁hÉireann
jye
対応
▁보십시오
▁ун
ფრთხ
▁Mewn
年で
ନ୍ଦୁ
▁akatswiri
ñor
▁masarakat
▁somewhere
▁kukw
▁tlhago
путат
▁prudutti
▁bonus
קט
▁ними
ल्लो
▁plod
༽
▁behand
▁χρό
▁orden
▁ahí
▁maas
▁everywhere
▁Бан
აკეთ
никалық
lighed
gunakake
Masese
▁agrí
ించాలి
▁Nog
▁לבר
▁venas
ક્ટર
▁completed
▁자세히
▁Эзэн
▁کۆتای
zlar
gada
Mar
▁Tháng
▁รัก
enska
стом
▁najj
▁उनीहरु
▁estig
▁šeit
▁Solutions
▁alah
bonero
▁славу
გჲ
▁12,000
▁zákazníkov
intelis
▁njega
▁apmērā
▁Kiekvien
▁ദൈവ
▁likumu
▁nākotnē
vora
警備
▁yebenya
▁possi
▁наслед
▁dreptul
IP
偉
loc
▁تھے
xiweke
▁केली
▁आदि
Mb
جز
▁каквото
indul
才
▁بچووک
▁Ngako
▁১৮
▁lefelo
ហា
▁juurdepääsu
▁ет
▁ngagaduhan
▁گجه
▁thứ
▁retail
叛
▁jate
ttur
ى
камі
▁2003/8
▁דורך
ವುದಿಲ್ಲ
▁wind
にお
ণ্ডৰ
studi
▁Store
jord
▁Convention
▁қабылдан
riyê
▁Polit
▁surad
▁mensch
▁EIB
▁Riz
ଚ୍ଛା
▁Pid
▁เพื่อน
បន្ទាប់
▁couple
abo
▁shkatër
▁vekongelo
▁ecela
▁Mup
▁orasida
▁wasezulwini
itanye
ケ
▁ಮಾಡಿದ್ದಾರೆ
▁jon
浴び
▁Scan
▁verkondig
▁državami
▁قېلىپ
ikas
▁Alem
▁قوی
teb
omio
▁Предпо
▁gjërat
bǐ
▁diventare
▁жұмса
▁markaan
စ္ဆာန်
▁adires
▁kepala
куль
▁consulta
せい
▁unt
▁सबहिं
wnych
▁Bann
▁poc
▁קור
▁અમે
សារ
äller
[10]
▁viz
▁mogik
შვი
udzɔ
ซา
▁מא
תי
▁שבוע
▁bic
崇拝
▁Pharma
▁रहन
罹
▁мәғлүмәт
ུར་
ɛnga
▁Due
▁esimese
lagna
vena
ubon
flicht
녁
чын
▁predic
луча
ชี
▁Poh
▁tehnič
▁নে
दछ
▁ուսումնասիր
▁Estamos
▁kwadilweng
▁atamai
▁organizāciju
▁عمومی
▁άρθ
▁Initi
▁상징
▁voalaza
ikelelo
▁надає
▁matí
▁dalių
▁ego
▁Щоб
▁کرے
▁només
бабы
▁дој
▁nëpërmjet
煤
▁විනාශ
▁பொருள்
▁menar
▁ligos
▁laitte
PA
▁एउटै
▁بیرم
▁lwak
▁acompan
▁belom
▁talle
▁zdravje
yor
istel
▁यद
▁vras
▁체포
خارج
▁أخرى
渔
▁አድ
しなければならない
▁navedenih
বৰ
▁imsemmija
▁utilisé
▁፡
▁material
▁standartus
▁Today
есінің
▁மனை
पिटल
▁pïr
▁ସୋ
▁نیک
җа
▁þessari
▁dưỡng
ਫ਼ੀ
▁tipul
پیوت
▁ৰু
▁nats
▁канди
▁اشی
▁Ntar
▁lejlighed
সাধাৰণ
ल्ड
чар
▁градови
▁להכ
▁But
amara
▁संकेत
▁baruti
▁Yali
▁cançó
heloa
▁визи
jà
▁Walang
▁nduku
▁поддр
▁bothata
▁нея
▁Esa
▁ကျောင်း
fólk
非法
▁wektu
を管理
▁автомати
▁바탕
保健
unali
▁ත
▁memberikan
hën
дви
▁izaho
pajj
▁ನೆಲ
▁دنی
cijām
▁برخی
▁ደቂ
タイプ
日在
▁Žinoma
▁भन्छ
ams
▁voisi
▁ತಿಳ
▁dū
dam
▁बेटी
Nzuá
▁bilong
oport
▁65%
vuto
▁жүйес
▁Dad
▁구별
ninku
▁ontvang
▁ieda
▁nät
wụkwọ
▁다르다
▁taunya
▁стигне
bitkan
▁Gonna
も
nama
にも
▁왔
▁גבר
▁ɛtane
▁Ιησ
gapu
▁ହାଇ
▁zvine
▁ഇൻ
▁kũun
adzro
رل
▁studer
ושר
Gata
▁xué
tait
▁хүлээн
ادی
мата
ufi
nologia
anyana
▁veljav
▁Jól
▁вда
▁1952,
▁meħtieġ
▁മനസ്സില
othewu
▁maguk
▁článkom
▁mahukan
▁ciama
▁пә
▁تأمین
▁treffen
oloni
▁İng
ואים
▁하루에
bias
▁kanako
▁właśnie
ཁ་ལས་
▁obla
GB
வருக்கும்
▁ո՞վ
ᱱᱟᱜ
▁Նոր
▁patisi
▁PAL
▁പറഞ്ഞത്
▁ယုံကြည်
▁දාන්න
▁ହୋଇଛନ୍ତି
▁ይኽእሉ
▁aelodau
лдаг
▁FI
itiriza
ларның
▁நன
▁ധ
▁ჱ
▁კომპ
▁আনন্দ
▁чи
▁인간
▁teş
ટિંગ
Iy
▁зау
ཤུལ་ལས་
▁বাবেই
化
祉
▁miejsce
제가
йд
lée
▁бли
▁Bitte
▁Сондықтан
▁жобасы
▁nsusuwii
▁ગીત
▁uyo
▁cuss
▁fɛnw
ves
▁വിഭാഗ
વાનું
ዲያ
ërs
▁(9)
▁술
▁linawa
データ
▁መጀመርታ
▁bắt
urtu
▁andando
▁የሚፈልጉ
▁न्यूय
▁ក
▁աւ
▁Bibele
▁Bíbli
▁အလို
સાય
▁Shane
▁Кре
▁കൊണ്ടുവ
▁níbẹ
▁məndən
ам
▁להיש
rofeto
▁રાષ્ટ્રીય
▁شاهئد
转
▁čast
▁loạt
▁elide
ɗɗum
蔬
▁matri
▁yetfu
لاھ
▁Ву
験
▁killing
の一つ
▁وه
ishga
▁품
véd
dalana
▁তিনটি
▁leughadh
ម៌
▁khoma
ມີ
ex
▁sama
বা
▁ఖచ్చి
तपा
▁버스
▁Tali
▁Παρα
ème
шканда
ondekesa
▁დავ
▁VaKor
▁ஐரோப்பிய
obotsi
esiynol
▁таға
▁nezvi
▁অসিগী
▁każdego
▁жылдың
▁gadījumā
▁ustrez
▁zitandukanye
Bantu
넌
engeziwe
▁fakkaata
▁sampun
▁ང
ི་བ་
ladi
▁пи
ilmente
▁garantizar
▁volit
▁amplia
äkään
▁kayi
▁Abschnitt
▁ngừa
▁plaats
▁Gaw
▁Reali
▁prednost
ಜನ
▁व्यव
ðó
гызны
poses
▁hulle
cipl
nų
▁repar
ਟਿੰਗ
▁Mod
otonu
▁단일
ോട
▁Yeriko
▁prandaj
৭
▁እዛ
ରକାର
▁пайы
យ
▁conv
▁bize
▁ንዘ
▁ಇ
วย
▁kuby
▁bisog
▁ṣá
▁खतरा
▁ચર્ચ
▁Ziv
ជាតិ
▁depo
▁dijual
លេង
▁photograph
▁چۆ
8]
üd
ಷ್ಟ್ರೀಯ
žiūros
▁miili
▁Mawuxó
▁Sąjungos
▁mature
▁सबै
ုန်း
▁ваш
тес
▁reli
ītā
átok
▁nia
▁bepergian
mäge
கையில்
に向けて
வருக்கு
▁iink
▁pasur
▁Praw
▁effects
ville
رسید
▁སྡིག་
▁기다리는
▁ETA
▁sākt
▁lomb
▁ropu
마가
▁పరిగ
▁triệu
▁shoh
▁Жахабаны
ළ
▁גורם
▁хода
▁Tra
▁kienx
拥有
▁Wars
▁ngur
▁তেওঁ
▁xoxo
쌉
▁ઇન્
nav
▁duşuşyk
embelea
£
▁prend
▁Çi
▁Keaton
ാവു
ことについて
▁ekema
ellt
▁obras
했기
▁ibibazo
เคร
▁сигур
▁woyɔ
ريت
▁Individu
weisen
oike
හොම
▁dap
난
▁ग़
▁ئەوەندە
ulate
▁professor
تە
▁شراب
coles
▁mangsa
▁matha
uriya
▁termin
▁책임
हालय
leic
▁menyer
▁kumi
lenen
рабо
▁אחוז
▁ਯੂਨ
ද්ධ
答えて
▁interno
lembeze
▁фоку
▁politiek
▁fabric
▁еңеү
ompat
cini
▁ĉiujn
▁Gompieno
▁oboje
▁vẽenem
heshin
▁Britain
▁관용
▁SEO
bhia
▁szerep
▁akatanga
▁వీడియో
ሳት
▁organizm
▁parasisian
ガイド
Gre
▁lan
▁iek
▁Můžeš
▁agreg
kile
▁Ed
▁آباد
▁4.0
▁bjar
umaneka
そこから
ாமல்
atọ
ແຜ
▁campu
▁olduğuna
paragra
▁Ugbu
議員
▁Budeme
▁Vale
▁menahan
ாலே
▁조정
82
jiga
▁Cym
▁жайы
▁carb
▁kezkatu
▁kaedah
▁francia
wezesha
▁ушул
ື່ອງ
subli
▁hoog
地の
▁ਤਰੀ
▁kakab
▁เดี๋ยว
▁nudda
▁Mexic
ololoma
iP
▁তবু
▁ಬೇರೆ
▁ପରସ୍ପର
▁দাঁড়
awtor
▁kaikista
▁lavet
▁Biblioteca
īnā
่ะ
▁Actualmente
ikoa
▁piek
▁jogi
▁तुझ
▁duidelik
▁artikulo
الش
teris
ရုတ်
arki
▁Κοινοβούλιο
▁selamat
enc
▁lazımdır
āžu
ngel
▁মরম
▁즉각
leswi
▁kanman
▁털
▁täht
▁áldo
▁መንእሰ
wis
▁מיליון
ٱج
▁mabbéré
▁avtalet
တိုင်အောင်
▁mä
wabu
▁佢
▁Додека
▁acer
くて
▁вице
▁iniisip
▁kannat
miya
ཨིན་ཟེར་
▁দেহ
▁ਸੁਧਾਰ
▁mulang
lhari
ɣɔn
طف
ARC
▁வைக்க
uryango
🏼
▁مٿ
▁turah
気に入りの
▁нақты
▁plačil
▁participat
▁जिअत
▁israelitas
▁month
▁jistgħux
▁birleş
▁exterior
▁cản
▁smit
▁ή
▁gefällt
▁stóð
▁감정
sil
▁vietos
▁konda
фти
නයක්
▁dell
▁아닙
omagnet
▁fegy
▁tep
ția
すば
▁misangu
ላቸው
きれ
▁minnet
▁taara
nzĩo
薬物
訳
▁salmista
▁Både
stava
▁tegevus
▁hlayanyana
▁ພຣະອົງ
мка
inui
▁пакет
ነ
▁ravno
wmna
▁ũũ
▁diagnó
収
آش
▁Lepas
▁пери
▁Otu
▁athrú
▁ähn
fieri
▁энер
គេច
ambique
▁Viol
åí
▁ша
▁questione
▁Esawu
推進
lyga
זור
▁leḥ
▁ସମ୍ବନ୍ଧ
litiyo
▁almal
▁Quanto
▁cores
▁तौ
▁ppreżent
▁되어야
▁తో
▁clí
▁kW
▁ஆனாலும்
▁나누어
ुः
▁kil
zado
▁hund
utnya
▁scheint
▁할까
▁секун
▁πήρα
▁razo
▁mokes
▁هیدایه
mont
▁kid
neen
▁effective
eswa
cam
▁berli
平和と
▁Себе
▁PA
▁abantu
لىقتا
▁amek
▁사실이
▁mô
▁istiq
▁mínú
pada
▁найз
ໄຟ
စာမျက်နှာ
תית
shme
▁1914,
뤼
▁iV
ellu
▁tambajotra
ミー
▁našu
resy
ẻ
ີ່
▁powr
▁jesť
▁vartoj
▁აუ
を務
▁संकट
▁소리가
▁тру
神の
anega
▁Nikdo
▁ಸಂಸ್ಕ
擅
ُّ
▁yatt
▁să
orraine
醇
▁ራእይ
اڻي
▁བདག་
▁Шаһитләре
্যাপ
▁sevgi
▁계획이
▁يەنىلا
▁fonts
▁członkow
▁বৈশিষ্ট্য
atti
ەتتى
▁higi
▁něko
ṣà
▁njim
цієн
னா
ђи
法案
[1]
▁boles
▁used
▁Noi
▁norbait
寝
▁saret
▁ໄດ້ຮັບ
▁tuttavia
▁tutar
▁nekoliko
уып
▁malĩ
▁udstyr
▁vakad
▁jupanak
ەوت
alungelo
▁LALPA
▁שאת
Waaqay
▁emri
దం
នុស្ស
▁saac
▁хеш
▁leswo
▁príklad
ምል
▁almaq
ਸ਼ਨਲ
ләште
eeza
▁انقلاب
ayin
▁ན
▁მაინ
impresa
ポンド
▁wetenskap
▁nute
▁പക
▁chima
▁izimvu
▁אש
ላፍ
▁rinci
▁laukumā
▁waɗ
وبر
▁Lib
▁кызмат
لاردىكى
▁chinntiú
အတွင်း
▁Cir
▁likarolo
▁Zeugen
▁langkung
styti
▁dobe
ിക്കുന്നില്ല
arle
▁pdf
lweni
ཛི་
რად
▁àmà
mıyor
▁huwelik
▁істейтін
▁perkhidmatan
▁deras
▁primeira
▁삶은
▁stiaim
细
▁Afer
གཅིག
▁Septuag
▁delay
ایسه
▁faailoa
▁Lois
考えています
▁осраҡ
▁ghair
▁هاميسي
▁아직
▁འཚུབས་
▁tets
を結
▁tast
▁cuntejj
aduan
▁apur
▁Race
au
▁agat
▁rasu
-18
▁సిద్ధ
▁અઠવા
▁novo
▁adun
्यू
▁tufayli
▁mismo
SF
▁augu
▁dheeraad
▁تنگ
▁보수
県
▁saistībā
tout
▁Чӣ
▁again
▁yhlas
▁хууль
▁Kple
ткер
อาทิตย์
ێکدا
▁veral
▁nuosavy
▁ตาม
ཨིནམ་མ་ཚད་
▁במי
▁kerro
▁वंश
لاسه
▁hestoria
▁sokan
དེ་ལས་
ありがとうござ
رتي
▁teisės
▁sepak
palvel
▁cjase
▁agradecer
▁शरी
▁tliet
神的
嘲笑
lizi
▁varf
▁dengan
▁statt
িত্র
વણી
ட்சி
▁ຂ້ອຍ
▁ჰრქ
😦
▁નિર્ણ
▁yhtä
▁TSI
konten
▁Prav
atsha
ninta
▁Chì
ଚ
angalala
▁jirrif
▁kupharazga
líš
自動車
▁komai
▁تایبه
ლიდან
▁sisällä
wier
presidente
▁Եր
▁brave
▁thušago
▁গুরুত্ব
묵
▁dɔlé
▁Гле
▁нешта
▁averti
legu
▁тұрғын
▁isleýän
balẽ
fense
▁പറ
▁සම්බ
рида
▁유대인
があります
intar
▁Civil
▁округа
▁abafyashi
▁Allo
▁ఎక్కువగా
▁kelompok
▁siling
▁리
boi
▁tanlash
rå
▁siden
▁منھنجي
▁ainihin
▁которых
▁Plis
সা
▁izmeklēšanas
.[29]
Pang
▁કેન્સર
▁بیش
▁fus
кое
וסט
▁기회가
▁Yèsus
▁részét
▁доза
▁بمان
▁dheanamh
▁쉽습니다
etania
▁jesu
▁ɖěbǔ
廢
ሎ።
▁єди
▁ଅଭାବ
▁Mulki
▁43.
▁ಯಾ
لاردا
tionary
▁rozší
▁주신
▁Tina
▁ועכשיו
huga
▁Prieš
▁Solomo
▁زېمىننى
▁Nazalaki
▁bring
母は
▁langt
പ്പെട്ട
▁رمانه
▁Future
习
▁zaak
▁ಗ
▁본질
▁حصہ
স্বা
τί
▁Please
▁garantire
ହାର
yanmar
ных
lede
Ine
għajnuna
वरी
اي
장의
ფუძ
タイプの
ڑے
▁jimwe
▁temana
▁aco
▁Ish
మొదటి
▁papeles
၎
▁लाखों
4;
jerne
▁الآخ
▁صنعتی
▁miaka
qondo
્યાય
▁jagħmel
▁Llywodraeth
جا
▁Kinsa
ungika
▁Babilone
▁usus
uds
▁отримали
▁ವಿಶ್ವ
alangin
▁kdyby
வில்லை
ཁོ་
▁toest
▁aň
vador
▁ocult
▁Ошо
▁parlamentin
noi
▁ئۆز
▁sedang
▁stof
▁bûye
▁կոչ
usiya
ૂટ
▁Исто
▁작업을
baba
ffers
▁లక్ష
▁ανά
▁korku
▁adulto
▁Кни
▁ሕዝ
▁naitũ
▁تازه
rette
▁언어로
▁maioría
▁ugye
▁신체
bbili
▁Zo
▁taty
▁ସ୍ପଷ୍ଟ
etí
etur
▁слабо
▁6:4.
wɛnɩ
ွပ်ႈ
▁dominer
lotlo
۔۔۔۔
▁xikhongelo
▁Roman
▁tố
▁зашти
▁مەل
pna
▁káwọn
▁инспек
▁takte
▁oubyen
▁দিয়েছে
Për
▁merusak
▁ለእናንተ
▁mng
▁Sejarah
▁oxy
▁برش
▁බර
▁yespiritu
▁gustatzen
woordig
钱
hos
སྦོ་ལོགས་
▁akyl
▁ڪجھ
▁хоо
hyia
▁infrastructure
▁උඩ
cazelo
ዞም
▁ប្រព្រឹត្ត
▁تنها
▁ម្ត
▁ambacho
▁سە
န
▁mě
▁शी
ទឹក
▁Regulu
▁gelýär
wima
▁Για
▁temsil
▁imip
▁मुद्द
ողներին
당신
▁bogologolo
▁rék
empli
▁1865
जाम
▁nams
点は
atulika
▁ndati
▁frecuencia
štara
▁metab
עה
▁rute
▁小さな
▁نىس
▁beast
▁적절한
ହି
▁Kore
▁هتل
▁melawan
▁אפש
▁изја
▁waoog
qali
دىغانلار
bwe
▁strength
▁Justice
王国
▁ਤੌਰ
itka
function
▁시민
▁мөмкинлеге
▁Gide
▁дау
▁svoja
▁mechara
emandleni
▁ഒരുപക്ഷ
▁midartayang
yog
有關
▁remény
▁Evel
дугаар
▁Edu
▁kubeera
િર
▁inkar
▁사람들은
代理
lamal
▁cậu
▁eldste
6).
ĩk
agostu
ondu
▁Iq
▁reas
udze
▁користење
▁pp
▁ఇటీ
を守り
tikoli
▁tuhi
▁אהבה
fofane
▁сутрин
гыз
▁എന്നിവ
倫
üg
ুই
▁klik
▁nedar
▁saka
▁עסן
pore
▁ಏಕೆ
▁bliana
▁বাস্তব
니는
"।
olol
▁маалы
ardie
▁кеңес
eluar
ати
▁fundet
▁bler
▁pusaka
▁potential
σή
▁يكن
▁benci
▁ador
▁اوھان
ukakyuka
้อน
▁स्वस्थ
▁questi
isiraeli
reiz
▁manodidina
ஹ்
▁त्यसमा
▁مالی
▁ಕಂಡುಬ
▁билээ
্বাস
qeff
▁same
▁Ся
▁ဓ
issjoni
▁filɛ
▁ጥቅ
▁tallo
▁ၵျ
▁сюда
ང་གིས་
▁uitat
▁মো
▁सिस्टम
報告
▁비유
mə
▁þarf
を描
ەدات
▁tyż
▁staf
▁sabiedrības
▁Ves
čioje
▁Fry
江
▁deuchainn
▁ಕೊಟ್ಟ
▁कुशल
λαβε
▁lön
▁tota
▁가르침
▁भाइयो
wá
pana
ിക്കില്ല
кву
▁diosan
км
జర్
ανα
يئن
बह
▁γ
▁még
▁sön
legra
▁ଗୁଣ
▁visam
ালয়
▁chlad
ubhail
ėjas
haro
▁бай
▁மிக்க
▁ইয়াত
zä
▁대형
ုံ့ပြန်
▁nəfər
ayta
▁conten
▁erek
▁नेपा
▁perill
▁verb
▁កាលពី
▁lawn
▁dostala
▁önnur
▁quên
▁вози
▁ጴ
▁zabil
بۇد
luses
▁Getu
ላንድ
▁ivaluka
ughter
īnas
▁nedēļas
▁controlar
voj
▁લઇ
▁tabata
▁quina
▁felhasznál
iniň
▁honum
▁mũno
▁ছাড়া
itisa
▁ece
▁awi
6/
лэн
ėjos
▁jawatan
▁불과
▁Berikut
▁czasie
▁көн
alohany
ուրաքանչ
▁pahnih
▁katukaka
ေတြ
▁یقین
Matɩe
▁étudi
ōn
ক্
▁delovanje
▁aŭdis
▁makethĩwa
▁deur
▁Seta
▁Erfahrung
▁контролю
▁Çá
▁gany
▁وڌيڪ
▁alaka
连
▁ਉੱ
▁طلاق
▁జీవ
▁Ҳам
kwá
▁tjenester
▁دامنه
▁kunyima
▁atụ
▁이웃
▁Takže
▁atĩa
▁direttamente
▁beleértve
▁сонирхол
▁адвока
ັ້ງ
▁ختم
▁neɣ
▁titel
ացվել
▁भनेको
Brit
huru
ulutsa
/16
관은
▁செய்து
אק
letko
šnja
▁suur
デア
ႃႇ
▁zasady
▁Anche
ודר
孔
▁ool
▁သူဟာ
▁tlo
▁Хүмүү
ولاد
▁išsami
राष्ट्रीय
▁njerëzore
ρτά
▁райо
[...]
